{
  "version": "1.0",
  "truncation": null,
  "padding": null,
  "added_tokens": [
    {
      "id": 0,
      "content": "<s>",
      "single_word": false,
      "lstrip": false,
      "rstrip": false,
      "normalized": false,
      "special": true
    },
    {
      "id": 1,
      "content": "<unk>",
      "single_word": false,
      "lstrip": false,
      "rstrip": false,
      "normalized": false,
      "special": true
    },
    {
      "id": 2,
      "content": "<cls>",
      "single_word": false,
      "lstrip": false,
      "rstrip": false,
      "normalized": false,
      "special": true
    },
    {
      "id": 3,
      "content": "<sep>",
      "single_word": false,
      "lstrip": false,
      "rstrip": false,
      "normalized": false,
      "special": true
    },
    {
      "id": 4,
      "content": "</s>",
      "single_word": false,
      "lstrip": false,
      "rstrip": false,
      "normalized": false,
      "special": true
    },
    {
      "id": 5,
      "content": "<pad>",
      "single_word": false,
      "lstrip": false,
      "rstrip": false,
      "normalized": false,
      "special": true
    },
    {
      "id": 6,
      "content": "<mask>",
      "single_word": false,
      "lstrip": false,
      "rstrip": false,
      "normalized": false,
      "special": true
    }
  ],
  "normalizer": {
    "type": "Sequence",
    "normalizers": [
      {
        "type": "Replace",
        "pattern": {
          "String": "``"
        },
        "content": "\""
      },
      {
        "type": "Replace",
        "pattern": {
          "String": "''"
        },
        "content": "\""
      },
      {
        "type": "NFD"
      },
      {
        "type": "Lowercase"
      },
      {
        "type": "StripAccents"
      },
      {
        "type": "Replace",
        "pattern": {
          "Regex": " {2,}"
        },
        "content": " "
      },
      {
        "type": "Replace",
        "pattern": {
          "Regex": "[^\\x00-\\x7F]+"
        },
        "content": ""
      }
    ]
  },
  "pre_tokenizer": {
    "type": "ByteLevel",
    "add_prefix_space": true,
    "trim_offsets": true,
    "use_regex": true
  },
  "post_processor": {
    "type": "TemplateProcessing",
    "single": [
      {
        "Sequence": {
          "id": "A",
          "type_id": 0
        }
      }
    ],
    "pair": [
      {
        "SpecialToken": {
          "id": "<cls>",
          "type_id": 0
        }
      },
      {
        "Sequence": {
          "id": "A",
          "type_id": 0
        }
      },
      {
        "SpecialToken": {
          "id": "<sep>",
          "type_id": 0
        }
      },
      {
        "Sequence": {
          "id": "B",
          "type_id": 0
        }
      },
      {
        "SpecialToken": {
          "id": "<sep>",
          "type_id": 0
        }
      }
    ],
    "special_tokens": {
      "<cls>": {
        "id": "<cls>",
        "ids": [
          2
        ],
        "tokens": [
          "<cls>"
        ]
      },
      "<sep>": {
        "id": "<sep>",
        "ids": [
          3
        ],
        "tokens": [
          "<sep>"
        ]
      }
    }
  },
  "decoder": {
    "type": "ByteLevel",
    "add_prefix_space": true,
    "trim_offsets": true,
    "use_regex": true
  },
  "model": {
    "type": "BPE",
    "dropout": null,
    "unk_token": null,
    "continuing_subword_prefix": null,
    "end_of_word_suffix": null,
    "fuse_unk": false,
    "byte_fallback": false,
    "vocab": {
      "<s>": 0,
      "<unk>": 1,
      "<cls>": 2,
      "<sep>": 3,
      "</s>": 4,
      "<pad>": 5,
      "<mask>": 6,
      "!": 7,
      "\"": 8,
      "#": 9,
      "$": 10,
      "&": 11,
      "'": 12,
      "(": 13,
      ")": 14,
      "*": 15,
      ",": 16,
      "-": 17,
      ".": 18,
      "/": 19,
      "0": 20,
      "1": 21,
      "2": 22,
      "3": 23,
      "4": 24,
      "5": 25,
      "6": 26,
      "7": 27,
      "8": 28,
      "9": 29,
      ":": 30,
      ";": 31,
      "=": 32,
      "?": 33,
      "\\": 34,
      "_": 35,
      "a": 36,
      "b": 37,
      "c": 38,
      "d": 39,
      "e": 40,
      "f": 41,
      "g": 42,
      "h": 43,
      "i": 44,
      "j": 45,
      "k": 46,
      "l": 47,
      "m": 48,
      "n": 49,
      "o": 50,
      "p": 51,
      "q": 52,
      "r": 53,
      "s": 54,
      "t": 55,
      "u": 56,
      "v": 57,
      "w": 58,
      "x": 59,
      "y": 60,
      "z": 61,
      "Ġ": 62,
      "Ġt": 63,
      "Ġa": 64,
      "in": 65,
      "er": 66,
      "Ġs": 67,
      "on": 68,
      "Ġth": 69,
      "re": 70,
      "Ġc": 71,
      "Ġthe": 72,
      "es": 73,
      "or": 74,
      "an": 75,
      "Ġf": 76,
      "Ġp": 77,
      "Ġb": 78,
      "Ġw": 79,
      "en": 80,
      "ed": 81,
      "Ġo": 82,
      "Ġm": 83,
      "it": 84,
      "at": 85,
      "ar": 86,
      "Ġin": 87,
      "ing": 88,
      "Ġh": 89,
      "al": 90,
      "is": 91,
      "Ġto": 92,
      "Ġd": 93,
      "ro": 94,
      "ic": 95,
      "as": 96,
      "Ġof": 97,
      "Ġl": 98,
      "Ġn": 99,
      "Ġan": 100,
      "ay": 101,
      "il": 102,
      "ion": 103,
      "ter": 104,
      "Ġg": 105,
      "ou": 106,
      "Ġre": 107,
      "el": 108,
      "id": 109,
      "us": 110,
      "om": 111,
      "Ġon": 112,
      "ec": 113,
      "et": 114,
      "Ġand": 115,
      "ent": 116,
      "ac": 117,
      "Ġe": 118,
      "ir": 119,
      "un": 120,
      "Ġst": 121,
      "Ġfor": 122,
      "ad": 123,
      "st": 124,
      "ur": 125,
      "le": 126,
      "am": 127,
      "ol": 128,
      "ig": 129,
      "ot": 130,
      "ut": 131,
      "day": 132,
      "ers": 133,
      "Ġ-": 134,
      "Ġr": 135,
      "Ġ#": 136,
      "Ġit": 137,
      "ve": 138,
      "39": 139,
      "ill": 140,
      "ow": 141,
      "th": 142,
      "Ġ(": 143,
      "im": 144,
      "Ġne": 145,
      "ch": 146,
      "ver": 147,
      "Ġch": 148,
      "qu": 149,
      "Ġj": 150,
      "Ġy": 151,
      "est": 152,
      "up": 153,
      "ation": 154,
      "Ġat": 155,
      "Ġas": 156,
      "Ġk": 157,
      "ly": 158,
      "ap": 159,
      "Ġbe": 160,
      "Ġv": 161,
      "ts": 162,
      "ith": 163,
      "Ġcom": 164,
      "Ġde": 165,
      "Ġpro": 166,
      "Ġis": 167,
      "ag": 168,
      "os": 169,
      "ak": 170,
      "Ġwith": 171,
      "ce": 172,
      "igh": 173,
      "ul": 174,
      "Ġthat": 175,
      "and": 176,
      "Ġsh": 177,
      "Ġcon": 178,
      "ear": 179,
      "ain": 180,
      "Ġwh": 181,
      "Ġnew": 182,
      "ri": 183,
      "res": 184,
      "ters": 185,
      "op": 186,
      "Ġun": 187,
      "Ġsa": 188,
      "ore": 189,
      "Ġ1": 190,
      "ld": 191,
      "Ġle": 192,
      "em": 193,
      "Ġex": 194,
      "ks": 195,
      "Ġits": 196,
      "all": 197,
      "oc": 198,
      "Ġaf": 199,
      "ian": 200,
      "'s": 201,
      "Ġsp": 202,
      "Ġpl": 203,
      "Ġ2": 204,
      "oun": 205,
      "ate": 206,
      "Ġby": 207,
      "Ġqu": 208,
      "00": 209,
      "Ġse": 210,
      "ect": 211,
      "ast": 212,
      "uters": 213,
      "Ġus": 214,
      "um": 215,
      "ra": 216,
      "Ġsaid": 217,
      "Ġal": 218,
      "ia": 219,
      "ft": 220,
      "Ġcomp": 221,
      "Ġhas": 222,
      "rom": 223,
      "ess": 224,
      "end": 225,
      "ost": 226,
      "ies": 227,
      "Ġag": 228,
      "our": 229,
      "iv": 230,
      "Ġap": 231,
      "ort": 232,
      "ight": 233,
      "Ġwas": 234,
      "Ġfrom": 235,
      "ip": 236,
      "Ġoff": 237,
      "Ġwor": 238,
      "ust": 239,
      "oo": 240,
      "ack": 241,
      "Ġhe": 242,
      "ist": 243,
      "ity": 244,
      "ment": 245,
      "if": 246,
      "Ġro": 247,
      "ard": 248,
      "Ġwill": 249,
      "uc": 250,
      "are": 251,
      "Ġwe": 252,
      "art": 253,
      "ial": 254,
      "ell": 255,
      "ug": 256,
      "..": 257,
      "Ġmon": 258,
      "Ġhis": 259,
      "esday": 260,
      "Ġafter": 261,
      "reuters": 262,
      "Ġac": 263,
      "ine": 264,
      "ud": 265,
      "ive": 266,
      "Ġup": 267,
      "ric": 268,
      "Ġcl": 269,
      "ie": 270,
      "ab": 271,
      "Ġha": 272,
      "ry": 273,
      "Ġover": 274,
      "lt": 275,
      "gt": 276,
      "Ġop": 277,
      "Ġinc": 278,
      "ens": 279,
      "Ġsec": 280,
      "oft": 281,
      "Ġam": 282,
      "Ġfir": 283,
      "Ġfr": 284,
      "Ġmar": 285,
      "Ġexp": 286,
      "Ġir": 287,
      "ere": 288,
      "ord": 289,
      "Ġres": 290,
      "ob": 291,
      "Ġrep": 292,
      "ire": 293,
      "Ġen": 294,
      "ace": 295,
      "Ġint": 296,
      "ions": 297,
      "ould": 298,
      "Ġout": 299,
      "Ġpres": 300,
      "ans": 301,
      "Ġinter": 302,
      "ge": 303,
      "Ġab": 304,
      "ub": 305,
      "Ġser": 306,
      "Ġtw": 307,
      "ice": 308,
      "Ġyear": 309,
      "Ġu": 310,
      "Ġare": 311,
      "Ġhave": 312,
      "Ġwin": 313,
      "Ġind": 314,
      "\\$": 315,
      "Ġquot": 316,
      "ays": 317,
      "ant": 318,
      "Ġgo": 319,
      "ning": 320,
      "old": 321,
      "any": 322,
      "ke": 323,
      "ond": 324,
      "Ġtr": 325,
      "Ġtheir": 326,
      "Ġar": 327,
      "ong": 328,
      "Ġgro": 329,
      "se": 330,
      "ame": 331,
      "Ġco": 332,
      "Ġtwo": 333,
      "ish": 334,
      "aq": 335,
      "ure": 336,
      "ue": 337,
      "Ġad": 338,
      "Ġ\\$": 339,
      "out": 340,
      "arg": 341,
      "Ġbr": 342,
      "ide": 343,
      "ome": 344,
      "illion": 345,
      "Ġpe": 346,
      "Ġbl": 347,
      "ign": 348,
      "ident": 349,
      "Ġfirst": 350,
      "ree": 351,
      "Ġno": 352,
      "ach": 353,
      "ail": 354,
      "ork": 355,
      "ile": 356,
      "ick": 357,
      "Ġfin": 358,
      "Ġsc": 359,
      "ib": 360,
      "Ġbut": 361,
      "ime": 362,
      "Ġper": 363,
      "Ġapp": 364,
      "Ġworld": 365,
      "ros": 366,
      "Ġiraq": 367,
      "Ġmore": 368,
      "ake": 369,
      "Ġrec": 370,
      "Ġnot": 371,
      "ors": 372,
      "Ġor": 373,
      "und": 374,
      "Ġlead": 375,
      "age": 376,
      "ff": 377,
      "ek": 378,
      "Ġmic": 379,
      "Ġcont": 380,
      "amp": 381,
      "Ġbus": 382,
      "own": 383,
      "Ġagain": 384,
      "Ġdis": 385,
      "ase": 386,
      "og": 387,
      "Ġel": 388,
      "ass": 389,
      "ations": 390,
      "ber": 391,
      "urs": 392,
      "ket": 393,
      "Ġte": 394,
      "Ġla": 395,
      "rop": 396,
      "Ġman": 397,
      "Ġ200": 398,
      "ester": 399,
      "Ġthis": 400,
      "oll": 401,
      "ep": 402,
      "Ġ--": 403,
      "ates": 404,
      "Ġone": 405,
      "Ġfl": 406,
      "one": 407,
      "act": 408,
      "Ġmo": 409,
      "av": 410,
      "Ġ3": 411,
      "hn": 412,
      "Ġcor": 413,
      "Ġcr": 414,
      "Ġintern": 415,
      "Ġmin": 416,
      "anc": 417,
      "iday": 418,
      "Ġcompany": 419,
      "ary": 420,
      "edn": 421,
      "Ġph": 422,
      "Ġoil": 423,
      "Ġeu": 424,
      "ednesday": 425,
      "ance": 426,
      "Ġmonday": 427,
      "...": 428,
      "uesday": 429,
      "Ġpresident": 430,
      "ite": 431,
      "Ġwednesday": 432,
      "iz": 433,
      "Ġtuesday": 434,
      "ursday": 435,
      "ory": 436,
      "Ġall": 437,
      "Ġplay": 438,
      "Ġacc": 439,
      "Ġthursday": 440,
      "ton": 441,
      "ank": 442,
      "her": 443,
      "Ġhigh": 444,
      "ull": 445,
      "Ġear": 446,
      "Ġsun": 447,
      "mer": 448,
      "Ġbo": 449,
      "com": 450,
      "Ġpric": 451,
      "iss": 452,
      "ount": 453,
      "ence": 454,
      "ds": 455,
      "Ġagainst": 456,
      "Ġcan": 457,
      "Ġim": 458,
      "ade": 459,
      "ated": 460,
      "Ġwar": 461,
      "ict": 462,
      "pt": 463,
      "Ġthan": 464,
      "Ġfriday": 465,
      "ational": 466,
      "arter": 467,
      "der": 468,
      "ited": 469,
      "ets": 470,
      "ich": 471,
      "Ġinv": 472,
      "ous": 473,
      "Ġinto": 474,
      "earch": 475,
      "Ġlast": 476,
      "Ġatt": 477,
      "Ġann": 478,
      "ther": 479,
      "Ġcorp": 480,
      "Ġweek": 481,
      "Ġoffic": 482,
      "Ġdec": 483,
      "Ġair": 484,
      "Ġreport": 485,
      "urn": 486,
      "gh": 487,
      "Ġthey": 488,
      "eric": 489,
      "Ġabout": 490,
      ";/": 491,
      "etw": 492,
      "Ġso": 493,
      "ven": 494,
      "Ġmicros": 495,
      "Ġkill": 496,
      "Ġyork": 497,
      "Ġwho": 498,
      "ey": 499,
      "Ġpeop": 500,
      "ash": 501,
      "Ġhel": 502,
      "ason": 503,
      "Ġpr": 504,
      "Ġpre": 505,
      "Ġbu": 506,
      "oin": 507,
      "esterday": 508,
      "Ġyesterday": 509,
      "Ġret": 510,
      "Ġserv": 511,
      "Ġsup": 512,
      "Ġsl": 513,
      "man": 514,
      "duc": 515,
      "Ġprof": 516,
      "Ġthree": 517,
      "als": 518,
      "orts": 519,
      "Ġpol": 520,
      "les": 521,
      "Ġdef": 522,
      "ren": 523,
      "Ġmicrosoft": 524,
      "land": 525,
      "Ġwere": 526,
      "ote": 527,
      "ware": 528,
      "Ġcomm": 529,
      "vern": 530,
      "Ġme": 531,
      "ock": 532,
      "xt": 533,
      "Ġmil": 534,
      "ct": 535,
      "ina": 536,
      "Ġelect": 537,
      "Ġmillion": 538,
      "Ġcar": 539,
      "Ġsal": 540,
      "Ġsy": 541,
      "Ġopen": 542,
      "vel": 543,
      "Ġback": 544,
      "Ġbeen": 545,
      "ition": 546,
      "Ġgovern": 547,
      "Ġend": 548,
      "pl": 549,
      "Ġteam": 550,
      "Ġdes": 551,
      "Ġstr": 552,
      "Ġ&": 553,
      "Ġbro": 554,
      "Ġsat": 555,
      "ang": 556,
      "Ġcons": 557,
      "Ġsecur": 558,
      "Ġset": 559,
      "reat": 560,
      "Ġ4": 561,
      "its": 562,
      "orm": 563,
      "ocks": 564,
      "Ġgroup": 565,
      "Ġofficial": 566,
      "oss": 567,
      "Ġsays": 568,
      "Ġhad": 569,
      "hing": 570,
      "Ġfour": 571,
      "eral": 572,
      "Ġtec": 573,
      "ical": 574,
      "cent": 575,
      "uss": 576,
      "ected": 577,
      "tle": 578,
      "ood": 579,
      "Ġgame": 580,
      "Ġameric": 581,
      "ral": 582,
      "Ġmarket": 583,
      "ced": 584,
      "line": 585,
      "Ġunited": 586,
      "wn": 587,
      "Ġmay": 588,
      "od": 589,
      "ose": 590,
      "Ġplan": 591,
      "ower": 592,
      "Ġgovernment": 593,
      "Ġmak": 594,
      "Ġ6": 595,
      "ased": 596,
      "ise": 597,
      "Ġpart": 598,
      "Ġwhen": 599,
      "ird": 600,
      "Ġcould": 601,
      "ugh": 602,
      "ound": 603,
      "ating": 604,
      "Ġnext": 605,
      "Ġsunday": 606,
      "ah": 607,
      "Ġdown": 608,
      "ook": 609,
      "Ġwould": 610,
      "Ġsecond": 611,
      "Ġprices": 612,
      "atch": 613,
      "Ġannoun": 614,
      "Ġsoft": 615,
      "co": 616,
      "Ġsou": 617,
      "Ġsur": 618,
      "rope": 619,
      "sp": 620,
      "Ġli": 621,
      "ix": 622,
      "Ġsu": 623,
      "ines": 624,
      "ped": 625,
      "Ġeurope": 626,
      "Ġtime": 627,
      "ting": 628,
      "Ġinvest": 629,
      "Ġsecurity": 630,
      "az": 631,
      "Ġtoday": 632,
      "olog": 633,
      "Ġyears": 634,
      "af": 635,
      "able": 636,
      "Ġpeople": 637,
      "Ġnor": 638,
      "Ġcap": 639,
      "Ġtop": 640,
      "ms": 641,
      "Ġwhich": 642,
      "Ġbig": 643,
      "Ġwork": 644,
      "Ġcount": 645,
      "Ġmonth": 646,
      "Ġpercent": 647,
      "iness": 648,
      "Ġass": 649,
      "Ġmus": 650,
      "port": 651,
      "ement": 652,
      "Ġreg": 653,
      "Ġma": 654,
      "Ġquarter": 655,
      "Ġreuters": 656,
      "ws": 657,
      "ely": 658,
      "Ġsoftware": 659,
      "Ġseason": 660,
      "Ġbank": 661,
      "ics": 662,
      "Ġrecord": 663,
      "ww": 664,
      "Ġec": 665,
      "Ġtal": 666,
      "Ġbec": 667,
      "ows": 668,
      "Ġmed": 669,
      "Ġmilit": 670,
      "Ġchamp": 671,
      "Ġbrit": 672,
      "Ġbusiness": 673,
      "lic": 674,
      "gr": 675,
      "Ġ5": 676,
      "Ġdeal": 677,
      "oy": 678,
      "ital": 679,
      "Ġconf": 680,
      "ne": 681,
      "Ġem": 682,
      "air": 683,
      "ister": 684,
      "Ġnight": 685,
      "Ġthird": 686,
      "ier": 687,
      "Ġdel": 688,
      "Ġvict": 689,
      "Ġcol": 690,
      "hip": 691,
      "Ġcour": 692,
      "urday": 693,
      "Ġfe": 694,
      "Ġeng": 695,
      "Ġter": 696,
      "stem": 697,
      "Ġsaturday": 698,
      "Ġdo": 699,
      "Ġdr": 700,
      "onom": 701,
      "ath": 702,
      "Ġtechn": 703,
      "led": 704,
      "Ġproduc": 705,
      "Ġsome": 706,
      "Ġinternet": 707,
      "Ġaust": 708,
      "tion": 709,
      "unch": 710,
      "ball": 711,
      "ings": 712,
      "Ġdem": 713,
      "Ġpar": 714,
      "Ġsw": 715,
      "ally": 716,
      "Ġ7": 717,
      "apan": 718,
      "ief": 719,
      "Ġfed": 720,
      "Ġchina": 721,
      "ger": 722,
      "Ġtri": 723,
      "Ġjapan": 724,
      "cy": 725,
      "ecut": 726,
      "Ġsch": 727,
      "ents": 728,
      "quote": 729,
      "ists": 730,
      "Ġstate": 731,
      "Ġnews": 732,
      "ult": 733,
      "io": 734,
      "Ġrele": 735,
      "Ġcall": 736,
      "Ġgen": 737,
      "Ġsales": 738,
      "Ġinf": 739,
      "ress": 740,
      "Ġnetw": 741,
      "Ġminister": 742,
      "ph": 743,
      "uring": 744,
      "Ġpal": 745,
      "Ġjust": 746,
      "omb": 747,
      "full": 748,
      "Ġbush": 749,
      "Ġtake": 750,
      "Ġeconom": 751,
      "ied": 752,
      "Ġgl": 753,
      "fullquote": 754,
      "Ġ10": 755,
      "Ġcut": 756,
      "Ġrun": 757,
      "Ġwashing": 758,
      "Ġruss": 759,
      "ision": 760,
      "Ġagre": 761,
      "ces": 762,
      "Ġbillion": 763,
      "Ġnear": 764,
      "Ġsystem": 765,
      "Ġaustral": 766,
      "=\"": 767,
      "ok": 768,
      "els": 769,
      "Ġtechnolog": 770,
      "Ġfore": 771,
      "Ġred": 772,
      "Ġwashington": 773,
      "ames": 774,
      "Ġday": 775,
      "Ġgu": 776,
      "ved": 777,
      "ged": 778,
      "rael": 779,
      "ild": 780,
      "Ġfall": 781,
      "Ġmost": 782,
      "ves": 783,
      "Ġtarg": 784,
      "uter": 785,
      "cess": 786,
      "Ġsm": 787,
      "Ġisrael": 788,
      "ons": 789,
      "Ġ2004": 790,
      "Ġstart": 791,
      "Ġimp": 792,
      "Ġinternational": 793,
      "tt": 794,
      "ins": 795,
      "Ġannounced": 796,
      "Ġmiss": 797,
      "Ġformer": 798,
      "Ġjo": 799,
      "Ġbuy": 800,
      "Ġgr": 801,
      "ead": 802,
      "Ġsay": 803,
      "ices": 804,
      "Ġpost": 805,
      "less": 806,
      "Ġsign": 807,
      "Ġunder": 808,
      "orn": 809,
      "Ġlaunch": 810,
      "Ġins": 811,
      "ont": 812,
      "000": 813,
      "Ġrem": 814,
      "Ġprofit": 815,
      "Ġgian": 816,
      "Ġgrow": 817,
      "Ġkilled": 818,
      "year": 819,
      "Ġresearch": 820,
      "Ġjob": 821,
      "Ġtro": 822,
      "oot": 823,
      "Ġcourt": 824,
      "ones": 825,
      "use": 826,
      "ities": 827,
      "iel": 828,
      "Ġtest": 829,
      "lear": 830,
      "ands": 831,
      "Ġbar": 832,
      "istan": 833,
      "Ġchief": 834,
      "ough": 835,
      "Ġhead": 836,
      "ward": 837,
      "ner": 838,
      "Ġvictory": 839,
      "Ġhome": 840,
      "Ġcity": 841,
      "ares": 842,
      "ned": 843,
      "Ġofficials": 844,
      "Ġsearch": 845,
      "Ġtel": 846,
      "Ġget": 847,
      "iam": 848,
      "ague": 849,
      "Ġoffer": 850,
      "ious": 851,
      "way": 852,
      "Ġweb": 853,
      "Ġlong": 854,
      "Ġhelp": 855,
      "inu": 856,
      "mp": 857,
      "Ġvi": 858,
      "Ġyou": 859,
      "Ġstocks": 860,
      "Ġsouth": 861,
      "Ġmanag": 862,
      "Ġplans": 863,
      "Ġra": 864,
      "acks": 865,
      "Ġother": 866,
      "Ġbomb": 867,
      "ble": 868,
      "Ġz": 869,
      "ince": 870,
      "fore": 871,
      "uch": 872,
      "Ġstri": 873,
      "Ġservice": 874,
      "Ġstates": 875,
      "Ġif": 876,
      "Ġoper": 877,
      "ants": 878,
      "Ġhost": 879,
      "Ġtarget": 880,
      "ony": 881,
      "Ġtak": 882,
      "Ġreported": 883,
      "ual": 884,
      "Ġmaj": 885,
      "ives": 886,
      "Ġthro": 887,
      "cer": 888,
      "Ġbefore": 889,
      "ling": 890,
      "Ġeuropean": 891,
      "ollar": 892,
      "str": 893,
      "gle": 894,
      "aim": 895,
      "Ġindust": 896,
      "ef": 897,
      "Ġnational": 898,
      "ures": 899,
      "Ġgoo": 900,
      "Ġtechnology": 901,
      "Ġshow": 902,
      "Ġbid": 903,
      "Ġcup": 904,
      "Ġgre": 905,
      "Ġ\"": 906,
      "Ġbeg": 907,
      "ange": 908,
      "Ġchampions": 909,
      "Ġstre": 910,
      "Ġcomputer": 911,
      "Ġmajor": 912,
      "Ġpay": 913,
      "Ġrel": 914,
      "ted": 915,
      "Ġed": 916,
      "Ġcountry": 917,
      "Ġpress": 918,
      "other": 919,
      "Ġtalks": 920,
      "pos": 921,
      "Ġaut": 922,
      "alif": 923,
      "Ġpri": 924,
      "Ġleague": 925,
      "Ġher": 926,
      "Ġamerican": 927,
      "Ġoly": 928,
      "Ġnorth": 929,
      "Ġolymp": 930,
      "Ġreb": 931,
      "een": 932,
      "Ġnow": 933,
      "Ġnetwork": 934,
      "lud": 935,
      "velop": 936,
      "estin": 937,
      "Ġhit": 938,
      "Ġput": 939,
      "ient": 940,
      "ublic": 941,
      "nings": 942,
      "app": 943,
      "Ġspace": 944,
      "Ġonline": 945,
      "Ġprov": 946,
      "Ġsus": 947,
      "Ġcoach": 948,
      "Ġbel": 949,
      "ember": 950,
      "Ġexecut": 951,
      "ai": 952,
      "Ġfive": 953,
      "Ġexpl": 954,
      "Ġfinal": 955,
      "Ġjohn": 956,
      "Ġcre": 957,
      "Ġlat": 958,
      "Ġhop": 959,
      "Ġref": 960,
      "Ġdevelop": 961,
      "sh": 962,
      "Ġlarg": 963,
      "Ġpower": 964,
      "ky": 965,
      "Ġdollar": 966,
      "fo": 967,
      "Ġ19": 968,
      "Ġwhat": 969,
      "Ġbritish": 970,
      "vers": 971,
      "Ġib": 972,
      "Ġhur": 973,
      "estinian": 974,
      "Ġ8": 975,
      "ror": 976,
      "Ġext": 977,
      "Ġbat": 978,
      "gy": 979,
      "eep": 980,
      "Ġshares": 981,
      "enn": 982,
      "ium": 983,
      "Ġi": 984,
      "Ġhou": 985,
      "gest": 986,
      "Ġindia": 987,
      "Ġaccord": 988,
      "Ġfederal": 989,
      "Ġpalestinian": 990,
      "Ġwon": 991,
      "Ġsusp": 992,
      "Ġprot": 993,
      "Ġant": 994,
      "very": 995,
      "Ġmob": 996,
      "aw": 997,
      "Ġmusic": 998,
      "Ġmake": 999,
      "Ġprime": 1000,
      "rican": 1001,
      "Ġbag": 1002,
      "Ġloss": 1003,
      "Ġcent": 1004,
      "Ġhal": 1005,
      "Ġshar": 1006,
      ";...": 1007,
      "Ġsan": 1008,
      "Ġpolice": 1009,
      "ury": 1010,
      ";...&": 1011,
      "Ġleast": 1012,
      "Ġfil": 1013,
      "Ġclaim": 1014,
      "ool": 1015,
      "Ġincre": 1016,
      "ink": 1017,
      "Ġbre": 1018,
      "\"&": 1019,
      "Ġgold": 1020,
      "Ġgoogle": 1021,
      "tain": 1022,
      "Ġste": 1023,
      "ops": 1024,
      "icker": 1025,
      "Ġanother": 1026,
      "Ġpoin": 1027,
      "Ġeff": 1028,
      "afp": 1029,
      "Ġdat": 1030,
      "Ġiraqi": 1031,
      "Ġhold": 1032,
      "date": 1033,
      "ave": 1034,
      "Ġinclud": 1035,
      "Ġleader": 1036,
      "ax": 1037,
      "med": 1038,
      "vent": 1039,
      "Ġhim": 1040,
      "Ġcompan": 1041,
      "Ġaccording": 1042,
      "Ġway": 1043,
      "Ġhow": 1044,
      "Ġdrug": 1045,
      "ee": 1046,
      "Ġibm": 1047,
      "Ġmade": 1048,
      "Ġcost": 1049,
      "ind": 1050,
      "ty": 1051,
      "Ġsix": 1052,
      "Ġcompanies": 1053,
      "Ġcamp": 1054,
      ".,": 1055,
      "Ġkn": 1056,
      "be": 1057,
      "Ġmaker": 1058,
      "Ġdeb": 1059,
      "aly": 1060,
      "hd": 1061,
      "Ġgames": 1062,
      "Ġwire": 1063,
      "ondon": 1064,
      "thern": 1065,
      "cl": 1066,
      "Ġduring": 1067,
      "Ġwhile": 1068,
      "Ġinj": 1069,
      "ular": 1070,
      "Ġlondon": 1071,
      "Ġthrough": 1072,
      "ause": 1073,
      "Ġ9": 1074,
      "Ġcanad": 1075,
      "Ġfire": 1076,
      "Ġath": 1077,
      "Ġcharg": 1078,
      "ron": 1079,
      "etween": 1080,
      "ving": 1081,
      "Ġstud": 1082,
      "ending": 1083,
      "Ġbetween": 1084,
      "Ġattack": 1085,
      "Ġmeet": 1086,
      "head": 1087,
      "Ġger": 1088,
      "Ġthere": 1089,
      "ush": 1090,
      "ense": 1091,
      "Ġseries": 1092,
      "Ġstill": 1093,
      "ticker": 1094,
      "Ġris": 1095,
      "Ġdead": 1096,
      "Ġthreat": 1097,
      "let": 1098,
      "Ġlargest": 1099,
      "Ġmobile": 1100,
      "Ġtit": 1101,
      "Ġpat": 1102,
      "Ġindustry": 1103,
      "Ġthem": 1104,
      "Ġoct": 1105,
      "Ġriv": 1106,
      "ield": 1107,
      "hdad": 1108,
      "Ġsell": 1109,
      "Ġelection": 1110,
      "Ġstock": 1111,
      "Ġbaghdad": 1112,
      "Ġwind": 1113,
      "ency": 1114,
      "Ġsub": 1115,
      "ared": 1116,
      "Ġhol": 1117,
      "Ġexpected": 1118,
      "ains": 1119,
      "ttp": 1120,
      "//": 1121,
      "ese": 1122,
      "ised": 1123,
      "://": 1124,
      "Ġwr": 1125,
      "66": 1126,
      "Ġpass": 1127,
      "to": 1128,
      "pr": 1129,
      "back": 1130,
      "http": 1131,
      "Ġstrong": 1132,
      "Ġgiant": 1133,
      "Ġmove": 1134,
      "ful": 1135,
      "Ġadv": 1136,
      "Ġsing": 1137,
      "Ġreturn": 1138,
      "isco": 1139,
      "ards": 1140,
      "Ġchip": 1141,
      "Ġleft": 1142,
      "round": 1143,
      "Ġconsum": 1144,
      "Ġmer": 1145,
      "ots": 1146,
      "Ġdep": 1147,
      "Ġdri": 1148,
      "Ġtrad": 1149,
      "gram": 1150,
      "Ġgrowth": 1151,
      "Ġown": 1152,
      "Ġsince": 1153,
      "ages": 1154,
      "ley": 1155,
      "min": 1156,
      "ref": 1157,
      "Ġsept": 1158,
      "Ġfound": 1159,
      "eks": 1160,
      "ects": 1161,
      "Ġreach": 1162,
      "Ġearly": 1163,
      "Ġfoot": 1164,
      "Ġadd": 1165,
      "Ġstar": 1166,
      "Ġlook": 1167,
      "Ġshare": 1168,
      "www": 1169,
      "Ġrul": 1170,
      "Ġwal": 1171,
      "Ġbeat": 1172,
      "Ġuk": 1173,
      "vie": 1174,
      "Ġservices": 1175,
      "Ġterror": 1176,
      "ivers": 1177,
      "uclear": 1178,
      "Ġur": 1179,
      "Ġara": 1180,
      "Ġdata": 1181,
      "Ġwireless": 1182,
      "Ġhref": 1183,
      "Ġx": 1184,
      "Ġprogram": 1185,
      "Ġnas": 1186,
      "Ġinsur": 1187,
      "Ġpak": 1188,
      "ution": 1189,
      "Ġappro": 1190,
      "Ġnuclear": 1191,
      "Ġunion": 1192,
      "acle": 1193,
      "Ġhigher": 1194,
      "Ġdet": 1195,
      "Ġbill": 1196,
      "used": 1197,
      "son": 1198,
      "ev": 1199,
      "Ġmid": 1200,
      "ility": 1201,
      "rol": 1202,
      "Ġtrade": 1203,
      "ract": 1204,
      "owing": 1205,
      "Ġvir": 1206,
      "we": 1207,
      "Ġchar": 1208,
      "info": 1209,
      "Ġmem": 1210,
      "Ġ20": 1211,
      "Ġ'": 1212,
      "over": 1213,
      "Ġmilitary": 1214,
      "Ġsen": 1215,
      "ife": 1216,
      "ady": 1217,
      "Ġsold": 1218,
      "per": 1219,
      "rup": 1220,
      "Ġcur": 1221,
      "Ġaustralia": 1222,
      "Ġang": 1223,
      "Ġearnings": 1224,
      "Ġleg": 1225,
      "'t": 1226,
      "Ġenter": 1227,
      "aza": 1228,
      "ex": 1229,
      "Ġafp": 1230,
      "ured": 1231,
      "Ġbeing": 1232,
      "Ġtra": 1233,
      "Ġdou": 1234,
      "Ġeven": 1235,
      "Ġany": 1236,
      "Ġpakistan": 1237,
      "Ġglob": 1238,
      "itch": 1239,
      "Ġfree": 1240,
      "Ġpeace": 1241,
      "ered": 1242,
      "off": 1243,
      "Ġphone": 1244,
      "Ġwest": 1245,
      "Ġclos": 1246,
      "Ġretail": 1247,
      "Ġafgh": 1248,
      "Ġiran": 1249,
      "Ġact": 1250,
      "Ġlos": 1251,
      "Ġfranc": 1252,
      "Ġdev": 1253,
      "Ġarm": 1254,
      "Ġlaw": 1255,
      "Ġav": 1256,
      "vest": 1257,
      "form": 1258,
      "50": 1259,
      "raw": 1260,
      "Ġspec": 1261,
      "Ġkeep": 1262,
      "iff": 1263,
      "Ġ11": 1264,
      "Ġhear": 1265,
      "Ġplayers": 1266,
      "Ġfight": 1267,
      "asp": 1268,
      "ights": 1269,
      "Ġonly": 1270,
      "bers": 1271,
      "Ġdav": 1272,
      "Ġkey": 1273,
      "Ġamp": 1274,
      "Ġround": 1275,
      "down": 1276,
      "uel": 1277,
      "Ġapple": 1278,
      "Ġturn": 1279,
      "Ġcalif": 1280,
      "Ġiss": 1281,
      "invest": 1282,
      "ission": 1283,
      "Ġsox": 1284,
      "Ġmonths": 1285,
      "ison": 1286,
      "Ġagreed": 1287,
      "Ġform": 1288,
      "Ġfoll": 1289,
      "Ġdrop": 1290,
      "ov": 1291,
      "ific": 1292,
      "Ġjoin": 1293,
      "Ġafghan": 1294,
      "br": 1295,
      "ether": 1296,
      "Ġdays": 1297,
      "Ġnum": 1298,
      "ump": 1299,
      "ik": 1300,
      "ments": 1301,
      "ns": 1302,
      "aster": 1303,
      "Ġhand": 1304,
      "Ġkore": 1305,
      "Ġcommun": 1306,
      "int": 1307,
      "investor": 1308,
      "Ġfirm": 1309,
      "Ġbecause": 1310,
      "Ġroc": 1311,
      "uk": 1312,
      "ator": 1313,
      "Ġoracle": 1314,
      "ploy": 1315,
      "Ġwindows": 1316,
      "Ġfut": 1317,
      "Ġfinanc": 1318,
      "Ġmany": 1319,
      "Ġwom": 1320,
      "Ġdar": 1321,
      "Ġlow": 1322,
      "ism": 1323,
      "Ġmich": 1324,
      "stocks": 1325,
      "Ġpc": 1326,
      "Ġlatest": 1327,
      "Ġstep": 1328,
      "quick": 1329,
      "Ġglobal": 1330,
      "ators": 1331,
      "Ġisraeli": 1332,
      "Ġface": 1333,
      "Ġengland": 1334,
      "Ġbet": 1335,
      "erson": 1336,
      "Ġtim": 1337,
      "=/": 1338,
      "aspx": 1339,
      "quickinfo": 1340,
      "Ġviol": 1341,
      "Ġscient": 1342,
      "Ġolympic": 1343,
      "ries": 1344,
      "Ġtroops": 1345,
      "Ġmot": 1346,
      "Ġneed": 1347,
      "the": 1348,
      "Ġ...": 1349,
      "Ġcust": 1350,
      "Ġgeneral": 1351,
      "ource": 1352,
      "ible": 1353,
      "gan": 1354,
      "Ġpublic": 1355,
      "Ġintel": 1356,
      "Ġ12": 1357,
      "Ġacqu": 1358,
      "irect": 1359,
      "Ġgaza": 1360,
      "Ġstand": 1361,
      "oci": 1362,
      "Ġsol": 1363,
      "Ġlike": 1364,
      "cast": 1365,
      "Ġfootball": 1366,
      "Ġshould": 1367,
      "Ġq": 1368,
      "Ġvide": 1369,
      "ys": 1370,
      "Ġvis": 1371,
      "oston": 1372,
      "Ġrussia": 1373,
      "alth": 1374,
      "Ġrad": 1375,
      "Ġrose": 1376,
      "Ġfac": 1377,
      "Ġhom": 1378,
      "Ġfund": 1379,
      "Ġlab": 1380,
      "Ġexecutive": 1381,
      "Ġprice": 1382,
      "row": 1383,
      "Ġsud": 1384,
      "amil": 1385,
      "bs": 1386,
      "Ġca": 1387,
      "Ġban": 1388,
      "rest": 1389,
      "Ġnation": 1390,
      "Ġreal": 1391,
      "Ġge": 1392,
      "ored": 1393,
      "Ġdesp": 1394,
      "Ġmor": 1395,
      "Ġindian": 1396,
      "Ġcompet": 1397,
      "Ġrussian": 1398,
      "idn": 1399,
      "Ġip": 1400,
      "iers": 1401,
      "ider": 1402,
      "Ġjobs": 1403,
      "Ġchampionship": 1404,
      "Ġusers": 1405,
      "quarter": 1406,
      "Ġboston": 1407,
      "itical": 1408,
      "Ġdirect": 1409,
      "Ġrise": 1410,
      "Ġincluding": 1411,
      "lin": 1412,
      "ked": 1413,
      "Ġreports": 1414,
      "Ġord": 1415,
      "ute": 1416,
      "ude": 1417,
      "Ġhurrican": 1418,
      "Ġpast": 1419,
      "ll": 1420,
      "Ġdig": 1421,
      "Ġupdate": 1422,
      "iting": 1423,
      "Ġsupport": 1424,
      "Ġbot": 1425,
      "ret": 1426,
      "Ġreleased": 1427,
      "Ġdespite": 1428,
      "Ġsuc": 1429,
      "Ġlower": 1430,
      "Ġspe": 1431,
      "lesoft": 1432,
      "Ġconcer": 1433,
      "Ġleaders": 1434,
      "Ġcustom": 1435,
      "Ġpa": 1436,
      "Ġwall": 1437,
      "Ġeconomy": 1438,
      "Ġpoints": 1439,
      "ection": 1440,
      "ative": 1441,
      "Ġprom": 1442,
      "Ġforeign": 1443,
      "Ġago": 1444,
      "Ġdeath": 1445,
      "based": 1446,
      "Ġahead": 1447,
      "Ġmuch": 1448,
      "Ġphil": 1449,
      "Ġbiggest": 1450,
      "Ġvers": 1451,
      "Ġfail": 1452,
      "Ġline": 1453,
      "Ġathens": 1454,
      "ater": 1455,
      "Ġev": 1456,
      "ross": 1457,
      "Ġforces": 1458,
      "enter": 1459,
      "Ġdisc": 1460,
      "erry": 1461,
      "Ġben": 1462,
      "ida": 1463,
      "Ġcase": 1464,
      "Ġinvestors": 1465,
      "Ġhar": 1466,
      "Ġcontract": 1467,
      "Ġmc": 1468,
      "Ġeconomic": 1469,
      "Ġer": 1470,
      "Ġbas": 1471,
      "raft": 1472,
      "Ġrelease": 1473,
      "Ġpop": 1474,
      "Ġboost": 1475,
      "Ġyour": 1476,
      "Ġcommission": 1477,
      "Ġassoci": 1478,
      "Ġaug": 1479,
      "Ġdiv": 1480,
      "ping": 1481,
      "Ġhard": 1482,
      "ago": 1483,
      "Ġhalf": 1484,
      "Ġdemand": 1485,
      "ats": 1486,
      "rench": 1487,
      "Ġrecent": 1488,
      "Ġpeoplesoft": 1489,
      "Ġstreet": 1490,
      "Ġfell": 1491,
      "Ġbase": 1492,
      "Ġmatch": 1493,
      "Ġtur": 1494,
      "ech": 1495,
      "ears": 1496,
      "mar": 1497,
      "ores": 1498,
      "Ġcontinu": 1499,
      "Ġhouse": 1500,
      "Ġyan": 1501,
      "ille": 1502,
      "Ġmain": 1503,
      "Ġvideo": 1504,
      "ising": 1505,
      "Ġtrans": 1506,
      "Ġheld": 1507,
      "Ġbroad": 1508,
      "par": 1509,
      "pe": 1510,
      "Ġ2005": 1511,
      "Ġmen": 1512,
      "Ġseven": 1513,
      "fl": 1514,
      "ior": 1515,
      "Ġjud": 1516,
      "Ġuse": 1517,
      "Ġnov": 1518,
      "Ġregion": 1519,
      "36": 1520,
      "ging": 1521,
      "Ġrest": 1522,
      "ize": 1523,
      "go": 1524,
      "Ġgood": 1525,
      "Ġwhere": 1526,
      "lish": 1527,
      ";&": 1528,
      "Ġaim": 1529,
      "Ġfourth": 1530,
      "gress": 1531,
      "Ġcampa": 1532,
      "Ġdom": 1533,
      "Ġinst": 1534,
      "Ġposs": 1535,
      "Ġschool": 1536,
      "so": 1537,
      "ended": 1538,
      "Ġtitle": 1539,
      "fact": 1540,
      "Ġcoun": 1541,
      "rupt": 1542,
      "ather": 1543,
      "Ġsudan": 1544,
      "Ġham": 1545,
      "inux": 1546,
      "Ġhum": 1547,
      "Ġnet": 1548,
      "Ġweeks": 1549,
      "ues": 1550,
      "Ġprocess": 1551,
      "Ġpresidential": 1552,
      "Ġaustralian": 1553,
      "Ġfinancial": 1554,
      "Ġnearly": 1555,
      "Ġfrench": 1556,
      "Ġinvestig": 1557,
      "Ġwins": 1558,
      "ply": 1559,
      "acy": 1560,
      "Ġhist": 1561,
      "Ġhealth": 1562,
      "Ġclose": 1563,
      "kyo": 1564,
      "Ġtokyo": 1565,
      "Ġright": 1566,
      "Ġje": 1567,
      "ained": 1568,
      "Ġsever": 1569,
      "Ġtry": 1570,
      "Ġlinux": 1571,
      "Ġworkers": 1572,
      "Ġrival": 1573,
      "ocr": 1574,
      "Ġattacks": 1575,
      "10": 1576,
      "iger": 1577,
      "ges": 1578,
      "Ġce": 1579,
      "Ġamerica": 1580,
      "Ġnations": 1581,
      "Ġbreak": 1582,
      "fur": 1583,
      "Ġauth": 1584,
      "Ġquest": 1585,
      "Ġsystems": 1586,
      "Ġlo": 1587,
      "Ġalle": 1588,
      "Ġcell": 1589,
      "Ġvo": 1590,
      "Ġengine": 1591,
      "Ġport": 1592,
      "Ġcampaign": 1593,
      "Ġshort": 1594,
      "ham": 1595,
      "uct": 1596,
      "Ġexper": 1597,
      "erence": 1598,
      "red": 1599,
      "Ġmedia": 1600,
      "Ġtax": 1601,
      "Ġcare": 1602,
      "ized": 1603,
      "eal": 1604,
      "rel": 1605,
      "itt": 1606,
      "Ġunivers": 1607,
      "Ġnasa": 1608,
      "Ġrece": 1609,
      "Ġpos": 1610,
      "Ġwatch": 1611,
      "Ġinterest": 1612,
      "Ġshe": 1613,
      "ann": 1614,
      "Ġagency": 1615,
      "Ġpo": 1616,
      "ober": 1617,
      "Ġlit": 1618,
      "Ġsmall": 1619,
      "Ġ15": 1620,
      "Ġfrancisco": 1621,
      "Ġwell": 1622,
      "view": 1623,
      "Ġfar": 1624,
      "ike": 1625,
      "Ġkerry": 1626,
      "Ġcapital": 1627,
      "Ġanaly": 1628,
      "Ġsaf": 1629,
      "Ġyanke": 1630,
      "rem": 1631,
      "Ġ18": 1632,
      "Ġdigital": 1633,
      "Ġnumber": 1634,
      "ults": 1635,
      "Ġchic": 1636,
      "Ġarrest": 1637,
      "ites": 1638,
      "Ġbuild": 1639,
      "Ġsent": 1640,
      "atic": 1641,
      "Ġsuper": 1642,
      "Ġdon": 1643,
      "Ġsecret": 1644,
      "Ġsum": 1645,
      "Ġmet": 1646,
      "iver": 1647,
      "uj": 1648,
      "Ġagreement": 1649,
      "Ġlate": 1650,
      "iving": 1651,
      "ications": 1652,
      "lo": 1653,
      "Ġaround": 1654,
      "Ġbest": 1655,
      "Ġflor": 1656,
      "Ġspr": 1657,
      "Ġplayer": 1658,
      "Ġmass": 1659,
      "Ġve": 1660,
      "Ġbra": 1661,
      "Ġcrude": 1662,
      "Ġcalled": 1663,
      "hold": 1664,
      "Ġlife": 1665,
      "Ġcoll": 1666,
      "Ġsuccess": 1667,
      "hel": 1668,
      "ided": 1669,
      "Ġhot": 1670,
      "Ġtook": 1671,
      "Ġequ": 1672,
      "Ġalso": 1673,
      "ker": 1674,
      "Ġlaws": 1675,
      "aker": 1676,
      "key": 1677,
      "Ġused": 1678,
      "Ġchicago": 1679,
      "mail": 1680,
      "elf": 1681,
      "Ġaraf": 1682,
      "ona": 1683,
      "Ġdist": 1684,
      "Ġseptember": 1685,
      "Ġscientists": 1686,
      "Ġcle": 1687,
      "Ġcontrol": 1688,
      "Ġdepart": 1689,
      "Ġfollowing": 1690,
      "Ġhurricane": 1691,
      "ming": 1692,
      "Ġdemocr": 1693,
      "Ġoctober": 1694,
      "Ġflorida": 1695,
      "Ġcenter": 1696,
      "adr": 1697,
      "Ġdarfur": 1698,
      "Ġkilling": 1699,
      "Ġiv": 1700,
      "Ġconsumer": 1701,
      "ened": 1702,
      "Ġleading": 1703,
      "Ġfamil": 1704,
      "Ġber": 1705,
      "Ġbattle": 1706,
      "ney": 1707,
      "Ġarafat": 1708,
      "Ġrace": 1709,
      "Ġlik": 1710,
      "ness": 1711,
      "Ġarmy": 1712,
      "allen": 1713,
      "ends": 1714,
      "Ġversion": 1715,
      "Ġ14": 1716,
      "Ġcharges": 1717,
      "Ġhere": 1718,
      "Ġden": 1719,
      "Ġcorpor": 1720,
      "nt": 1721,
      "by": 1722,
      "Ġfrance": 1723,
      "Ġgreat": 1724,
      "ze": 1725,
      "Ġest": 1726,
      "Ġmos": 1727,
      "veil": 1728,
      "ration": 1729,
      "ides": 1730,
      "Ġauthor": 1731,
      "Ġkorea": 1732,
      "lines": 1733,
      "Ġtouch": 1734,
      "Ġjapanese": 1735,
      "Ġrev": 1736,
      "Ġunveil": 1737,
      "Ġmight": 1738,
      "ugg": 1739,
      "Ġboth": 1740,
      "ases": 1741,
      "ired": 1742,
      "ael": 1743,
      "Ġchallen": 1744,
      "Ġvote": 1745,
      "Ġcome": 1746,
      "lim": 1747,
      "uck": 1748,
      "Ġboard": 1749,
      "Ġgive": 1750,
      "Ġval": 1751,
      "Ġstrike": 1752,
      "Ġty": 1753,
      "Ġreven": 1754,
      "Ġpropos": 1755,
      "Ġstudy": 1756,
      "Ġfuture": 1757,
      "Ġyankees": 1758,
      "Ġtrial": 1759,
      "Ġloc": 1760,
      "ston": 1761,
      "Ġpoll": 1762,
      "kt": 1763,
      "Ġparty": 1764,
      "Ġcard": 1765,
      "Ġanti": 1766,
      "ject": 1767,
      "ensive": 1768,
      "Ġdesign": 1769,
      "Ġregul": 1770,
      "Ġimpro": 1771,
      "Ġbegin": 1772,
      "Ġpack": 1773,
      "Ġperson": 1774,
      "sports": 1775,
      "Ġclub": 1776,
      "rib": 1777,
      "Ġouts": 1778,
      "Ġfind": 1779,
      "Ġcanadian": 1780,
      "Ġsettle": 1781,
      "Ġmark": 1782,
      "ij": 1783,
      "Ġball": 1784,
      "Ġgeor": 1785,
      "Ġsite": 1786,
      "Ġ13": 1787,
      "Ġemb": 1788,
      "ergy": 1789,
      "Ġblack": 1790,
      "Ġproducts": 1791,
      "Ġdoc": 1792,
      "ta": 1793,
      "ene": 1794,
      "Ġ16": 1795,
      "Ġelectron": 1796,
      "Ġwant": 1797,
      "Ġ30": 1798,
      "ale": 1799,
      "Ġorgan": 1800,
      "uit": 1801,
      "Ġtour": 1802,
      "Ġbritain": 1803,
      "Ġmanager": 1804,
      "Ġwomen": 1805,
      "for": 1806,
      "Ġsem": 1807,
      "idence": 1808,
      "Ġtor": 1809,
      "ners": 1810,
      "Ġlist": 1811,
      "15": 1812,
      "Ġresp": 1813,
      "orks": 1814,
      "Ġstra": 1815,
      "Ġsim": 1816,
      "vem": 1817,
      "Ġresults": 1818,
      "time": 1819,
      "Ġcustomers": 1820,
      "ba": 1821,
      "Ġpolitical": 1822,
      "Ġevery": 1823,
      "Ġdecision": 1824,
      "Ġemploy": 1825,
      "aining": 1826,
      "Ġcaliforn": 1827,
      "vember": 1828,
      "Ġbeh": 1829,
      "Ġ17": 1830,
      "Ġtech": 1831,
      "ises": 1832,
      "Ġangel": 1833,
      "Ġaway": 1834,
      "lam": 1835,
      "Ġpush": 1836,
      "Ġeight": 1837,
      "Ġearth": 1838,
      "Ġconference": 1839,
      "Ġcel": 1840,
      "Ġpull": 1841,
      "Ġseveral": 1842,
      "Ġwilliam": 1843,
      "Ġcurren": 1844,
      "Ġtre": 1845,
      "Ġproble": 1846,
      "Ġreser": 1847,
      "Ġdefense": 1848,
      "Ġenergy": 1849,
      "Ġsony": 1850,
      "enal": 1851,
      "Ġver": 1852,
      "ades": 1853,
      "Ġlittle": 1854,
      "inals": 1855,
      "Ġold": 1856,
      "Ġsouthern": 1857,
      "Ġnorthern": 1858,
      "ung": 1859,
      "amed": 1860,
      "Ġoffice": 1861,
      "Ġmeeting": 1862,
      "Ġbow": 1863,
      "Ġcosts": 1864,
      "Ġhostage": 1865,
      "Ġstop": 1866,
      "Ġtv": 1867,
      "Ġmilitants": 1868,
      "Ġnovember": 1869,
      "Ġgets": 1870,
      "oods": 1871,
      "Ġmanagement": 1872,
      "Ġwithout": 1873,
      "Ġtakes": 1874,
      "uce": 1875,
      "Ġpitch": 1876,
      "ler": 1877,
      "Ġkidn": 1878,
      "Ġelections": 1879,
      "eration": 1880,
      "Ġsn": 1881,
      "Ġchampion": 1882,
      "Ġbaseball": 1883,
      "ways": 1884,
      "Ġeast": 1885,
      "Ġlar": 1886,
      "Ġstorm": 1887,
      "Ġchair": 1888,
      "Ġdoes": 1889,
      "Ġgas": 1890,
      "apped": 1891,
      "Ġcalifornia": 1892,
      "ooks": 1893,
      "Ġsk": 1894,
      "Ġcuts": 1895,
      "Ġtex": 1896,
      "Ġbankrupt": 1897,
      "Ġcentral": 1898,
      "Ġjudge": 1899,
      "Ġfew": 1900,
      "de": 1901,
      "Ġfield": 1902,
      "Ġdue": 1903,
      "Ġstraight": 1904,
      "umb": 1905,
      "Ġforce": 1906,
      "),": 1907,
      "Ġaid": 1908,
      "Ġpolic": 1909,
      "ams": 1910,
      "Ġsuch": 1911,
      "ians": 1912,
      "ule": 1913,
      "Ġdefe": 1914,
      "bc": 1915,
      "ps": 1916,
      "Ġoppos": 1917,
      "Ġinform": 1918,
      "Ġhopes": 1919,
      "Ġpriv": 1920,
      "Ġislam": 1921,
      "Ġ:": 1922,
      "Ġfans": 1923,
      "Ġquarterly": 1924,
      "Ġcanada": 1925,
      "Ġprofile": 1926,
      "Ġtold": 1927,
      "Ġmaking": 1928,
      "Ġanalyst": 1929,
      "Ġseek": 1930,
      "Ġes": 1931,
      "Ġdepartment": 1932,
      "Ġmess": 1933,
      "Ġdeskt": 1934,
      "Ġclaims": 1935,
      "mit": 1936,
      "ott": 1937,
      "owed": 1938,
      "Ġplace": 1939,
      "ana": 1940,
      "ox": 1941,
      "sc": 1942,
      "Ġpan": 1943,
      "thers": 1944,
      "of": 1945,
      "Ġmy": 1946,
      "Ġchild": 1947,
      "Ġcam": 1948,
      "Ġgrand": 1949,
      "Ġthough": 1950,
      "Ġsoc": 1951,
      "Ġneg": 1952,
      "Ġgerm": 1953,
      "Ġmichael": 1954,
      "mon": 1955,
      "ape": 1956,
      "Ġexpect": 1957,
      "Ġship": 1958,
      "Ġbetter": 1959,
      "Ġwhether": 1960,
      "ees": 1961,
      "Ġgreen": 1962,
      "Ġapplic": 1963,
      "Ġever": 1964,
      "ying": 1965,
      "aps": 1966,
      "ension": 1967,
      "Ġperform": 1968,
      "Ġfre": 1969,
      "Ġmill": 1970,
      "Ġgiants": 1971,
      "Ġexplos": 1972,
      "Ġoutl": 1973,
      "Ġscored": 1974,
      "Ġlou": 1975,
      "Ġstat": 1976,
      "Ġamid": 1977,
      "cept": 1978,
      "Ġless": 1979,
      "Ġusing": 1980,
      "Ġincrease": 1981,
      "gin": 1982,
      "Ġacross": 1983,
      "lant": 1984,
      "Ġexch": 1985,
      "Ġhuman": 1986,
      "Ġland": 1987,
      "Ġlikely": 1988,
      "Ġrunning": 1989,
      "Ġsee": 1990,
      "Ġvot": 1991,
      "imb": 1992,
      "Ġceo": 1993,
      "Ġangeles": 1994,
      "inese": 1995,
      "Ġviolence": 1996,
      "Ġwinning": 1997,
      "Ġuniversity": 1998,
      "Ġchang": 1999,
      "Ġbecome": 2000,
      "ino": 2001,
      "Ġmal": 2002,
      "Ġaugust": 2003,
      "Ġsaying": 2004,
      "att": 2005,
      "rew": 2006,
      "Ġmac": 2007,
      "Ġcomplet": 2008,
      "prise": 2009,
      "most": 2010,
      "tions": 2011,
      "Ġtimes": 2012,
      "Ġhistory": 2013,
      "ars": 2014,
      "Ġlaunched": 2015,
      "Ġlib": 2016,
      "Ġtaking": 2017,
      "Ġsource": 2018,
      "Ġlost": 2019,
      "Ġgun": 2020,
      "Ġaccess": 2021,
      "Ġtexas": 2022,
      "Ġrates": 2023,
      "Ġtool": 2024,
      "Ġtelev": 2025,
      "Ġquote": 2026,
      "Ġfuel": 2027,
      "osp": 2028,
      "Ġeuro": 2029,
      "Ġfoc": 2030,
      "Ġprison": 2031,
      "Ġbay": 2032,
      "Ġchinese": 2033,
      "Ġbarrel": 2034,
      "Ġunit": 2035,
      "Ġhouston": 2036,
      "Ġcrash": 2037,
      "ering": 2038,
      "dit": 2039,
      "Ġdam": 2040,
      "gers": 2041,
      "Ġweekend": 2042,
      "Ġchr": 2043,
      "Ġ100": 2044,
      "Ġclear": 2045,
      "Ġlet": 2046,
      "Ġrob": 2047,
      "Ġwilliams": 2048,
      "oon": 2049,
      "Ġamong": 2050,
      "Ġey": 2051,
      "Ġshot": 2052,
      "Ġchairman": 2053,
      "Ġstores": 2054,
      "Ġgermany": 2055,
      "Ġhits": 2056,
      "Ġdoub": 2057,
      "Ġtom": 2058,
      "ove": 2059,
      "ours": 2060,
      "Ġadmin": 2061,
      "Ġcash": 2062,
      "Ġmart": 2063,
      "Ġmod": 2064,
      "Ġpur": 2065,
      "Ġserver": 2066,
      "Ġthous": 2067,
      "Ġtoward": 2068,
      "Ġbod": 2069,
      "Ġple": 2070,
      "empt": 2071,
      "Ġsame": 2072,
      "Ġ25": 2073,
      "Ġsil": 2074,
      "Ġcoast": 2075,
      "Ġcy": 2076,
      "Ġmembers": 2077,
      "Ġmakes": 2078,
      "Ġactiv": 2079,
      "Ġsecretary": 2080,
      "estern": 2081,
      "mart": 2082,
      "Ġvol": 2083,
      "Ġdesktop": 2084,
      "Ġrate": 2085,
      "Ġars": 2086,
      "Ġadminist": 2087,
      "Ġrally": 2088,
      "Ġrebels": 2089,
      "Ġtrading": 2090,
      "gen": 2091,
      "Ġaction": 2092,
      "Ġ0": 2093,
      "Ġled": 2094,
      "Ġrej": 2095,
      "Ġshut": 2096,
      "set": 2097,
      "Ġcontin": 2098,
      "Ġtoo": 2099,
      "ny": 2100,
      "uction": 2101,
      "Ġsoon": 2102,
      "Ġconfir": 2103,
      "Ġphones": 2104,
      "avy": 2105,
      "ential": 2106,
      "lex": 2107,
      "Ġwhite": 2108,
      "Ġaccused": 2109,
      "Ġchange": 2110,
      "ahoo": 2111,
      "Ġbehind": 2112,
      "inal": 2113,
      "Ġseat": 2114,
      "Ġinformation": 2115,
      "Ġeas": 2116,
      "aper": 2117,
      "Ġmorning": 2118,
      "Ġemer": 2119,
      "Ġatlant": 2120,
      "Ġradio": 2121,
      "aff": 2122,
      "oid": 2123,
      "Ġseen": 2124,
      "Ġipod": 2125,
      "Ġchec": 2126,
      "Ġwithd": 2127,
      "Ġfalluj": 2128,
      "Ġent": 2129,
      "Ġdid": 2130,
      "Ġmedal": 2131,
      "Ġbelie": 2132,
      "Ġgerman": 2133,
      "Ġpossible": 2134,
      "Ġclass": 2135,
      "Ġbur": 2136,
      "Ġdiff": 2137,
      "Ġcop": 2138,
      "Ġju": 2139,
      "Ġwound": 2140,
      "ening": 2141,
      "Ġprofits": 2142,
      "Ġmult": 2143,
      "ipp": 2144,
      "Ġinjured": 2145,
      "Ġblock": 2146,
      "Ġafghanistan": 2147,
      "Ġoperating": 2148,
      "Ġgoing": 2149,
      "Ġdavid": 2150,
      "Ġsoldiers": 2151,
      "Ġvisit": 2152,
      "Ġpaul": 2153,
      "Ġfull": 2154,
      "Ġbal": 2155,
      "Ġsports": 2156,
      "ived": 2157,
      "Ġsenior": 2158,
      "Ġexchange": 2159,
      "Ġcommunications": 2160,
      "inc": 2161,
      "asts": 2162,
      "Ġstad": 2163,
      "Ġprem": 2164,
      "Ġcalls": 2165,
      "Ġyahoo": 2166,
      "Ġphot": 2167,
      "Ġmanu": 2168,
      "load": 2169,
      "ament": 2170,
      "Ġindones": 2171,
      "Ġrevenue": 2172,
      "\\\\": 2173,
      "king": 2174,
      "aph": 2175,
      "Ġdisp": 2176,
      "Ġwarned": 2177,
      "Ġlabor": 2178,
      "Ġafric": 2179,
      "ught": 2180,
      "Ġbankruptcy": 2181,
      "ession": 2182,
      "Ġbring": 2183,
      "Ġparis": 2184,
      "aces": 2185,
      "Ġmust": 2186,
      "Ġproduct": 2187,
      "Ġfact": 2188,
      "Ġintro": 2189,
      "Ġinfl": 2190,
      "Ġforecast": 2191,
      "can": 2192,
      "ift": 2193,
      "ert": 2194,
      "Ġ24": 2195,
      "Ġalmost": 2196,
      "Ġthousands": 2197,
      "Ġmag": 2198,
      "Ġpub": 2199,
      "Ġnine": 2200,
      "Ġrepublic": 2201,
      "Ġcub": 2202,
      "Ġairlines": 2203,
      "Ġcolor": 2204,
      "Ġtenn": 2205,
      "itz": 2206,
      "Ġrepl": 2207,
      "Ġstadium": 2208,
      "ience": 2209,
      "iti": 2210,
      "Ġblue": 2211,
      "Ġcand": 2212,
      "Ġearl": 2213,
      "new": 2214,
      "Ġspeed": 2215,
      "oti": 2216,
      "Ġheart": 2217,
      "Ġfast": 2218,
      "ories": 2219,
      "Ġready": 2220,
      "Ġtouchdown": 2221,
      "Ġtakeover": 2222,
      "Ġjan": 2223,
      "Ġrocket": 2224,
      "Ġmanufact": 2225,
      "Ġfur": 2226,
      "Ġaccount": 2227,
      "Ġcolle": 2228,
      "Ġfeat": 2229,
      "ban": 2230,
      "Ġreserve": 2231,
      "aj": 2232,
      "Ġconn": 2233,
      "Ġshowed": 2234,
      "cil": 2235,
      "Ġgot": 2236,
      "onto": 2237,
      "Ġari": 2238,
      "Ġfile": 2239,
      "Ġinsurg": 2240,
      "Ġthose": 2241,
      "Ġfav": 2242,
      "ety": 2243,
      "Ġposted": 2244,
      "Ġ21": 2245,
      "Ġvirgin": 2246,
      "Ġspam": 2247,
      "akers": 2248,
      "Ġmoney": 2249,
      "--": 2250,
      "Ġyet": 2251,
      "Ġdivision": 2252,
      "tim": 2253,
      "val": 2254,
      "Ġtoronto": 2255,
      "Ġbri": 2256,
      "ified": 2257,
      "Ġbraz": 2258,
      "Ġjones": 2259,
      "Ġarri": 2260,
      "Ġpil": 2261,
      "Ġnfl": 2262,
      "ota": 2263,
      "ization": 2264,
      "Ġproduction": 2265,
      "Ġnegoti": 2266,
      "dle": 2267,
      "Ġpopular": 2268,
      "Ġafrica": 2269,
      "bus": 2270,
      "que": 2271,
      "Ġweap": 2272,
      "Ġos": 2273,
      "Ġfinish": 2274,
      "Ġry": 2275,
      "Ġmarkets": 2276,
      "band": 2277,
      "tr": 2278,
      "aking": 2279,
      "Ġoffering": 2280,
      "Ġwants": 2281,
      "Ġpersonal": 2282,
      "Ġalleged": 2283,
      "Ġtelevision": 2284,
      "net": 2285,
      "uts": 2286,
      "Ġshop": 2287,
      "exp": 2288,
      "Ġcal": 2289,
      "Ġfres": 2290,
      "itive": 2291,
      "Ġsale": 2292,
      "ya": 2293,
      "Ġenv": 2294,
      "Ġspain": 2295,
      "Ġsigned": 2296,
      "ued": 2297,
      "vey": 2298,
      "Ġrequ": 2299,
      "ama": 2300,
      "ica": 2301,
      "Ġstake": 2302,
      "Ġopposition": 2303,
      "Ġcrit": 2304,
      "Ġstore": 2305,
      "na": 2306,
      "Ġlevel": 2307,
      "Ġoutlook": 2308,
      "td": 2309,
      "Ġjun": 2310,
      "Ġcommer": 2311,
      "Ġmuslim": 2312,
      "Ġolympics": 2313,
      "get": 2314,
      "Ġdomin": 2315,
      "ready": 2316,
      "Ġleav": 2317,
      "ips": 2318,
      "Ġrich": 2319,
      "bur": 2320,
      "Ġciv": 2321,
      "Ġpot": 2322,
      "Ġmur": 2323,
      "raud": 2324,
      "Ġbrazil": 2325,
      "wa": 2326,
      "ately": 2327,
      "Ġblair": 2328,
      "Ġlegal": 2329,
      "Ġassociation": 2330,
      "Ġlouis": 2331,
      "eb": 2332,
      "Ġresign": 2333,
      "Ġcarri": 2334,
      "Ġlocal": 2335,
      "font": 2336,
      "utes": 2337,
      "Ġcame": 2338,
      "Ġtravel": 2339,
      "Ġstation": 2340,
      "Ġprobe": 2341,
      "aged": 2342,
      "Ġhelped": 2343,
      "Ġopening": 2344,
      "Ġbegan": 2345,
      "bit": 2346,
      "Ġsug": 2347,
      "Ġvie": 2348,
      "olf": 2349,
      "Ġhosp": 2350,
      "Ġunt": 2351,
      "Ġroad": 2352,
      "Ġconcerns": 2353,
      "Ġcorporate": 2354,
      "ires": 2355,
      "Ġarg": 2356,
      "Ġcapt": 2357,
      "Ġpublish": 2358,
      "Ġearlier": 2359,
      "aced": 2360,
      "Ġital": 2361,
      "Ġfocus": 2362,
      "Ġisland": 2363,
      "Ġblast": 2364,
      "Ġmadr": 2365,
      "ecom": 2366,
      "Ġltd": 2367,
      "Ġdelay": 2368,
      "Ġbrown": 2369,
      "Ġfood": 2370,
      "Ġamericans": 2371,
      "wide": 2372,
      "Ġob": 2373,
      "olution": 2374,
      "Ġdied": 2375,
      "mo": 2376,
      "oring": 2377,
      "Ġfresh": 2378,
      "Ġche": 2379,
      "cc": 2380,
      "Ġcouncil": 2381,
      "asing": 2382,
      "Ġgains": 2383,
      "Ġafrican": 2384,
      "Ġnetworks": 2385,
      "Ġinsurance": 2386,
      "Ġrebel": 2387,
      "Ġwa": 2388,
      "Ġefforts": 2389,
      "Ġkar": 2390,
      "Ġconv": 2391,
      "Ġslow": 2392,
      "Ġcountries": 2393,
      "6666": 2394,
      "Ġexpand": 2395,
      "Ġcareer": 2396,
      "Ġcivil": 2397,
      "Ġconsider": 2398,
      "Ġsuff": 2399,
      "Ġtroub": 2400,
      "Ġspecial": 2401,
      "cing": 2402,
      "Ġtown": 2403,
      "Ġcandid": 2404,
      "Ġonce": 2405,
      "Ġairline": 2406,
      "Ġcanc": 2407,
      "chester": 2408,
      "Ġinvestment": 2409,
      "Ġrom": 2410,
      "Ġadministration": 2411,
      "vert": 2412,
      "Ġalready": 2413,
      "ources": 2414,
      "Ġut": 2415,
      "asser": 2416,
      "Ġended": 2417,
      "Ġlift": 2418,
      "iami": 2419,
      "Ġart": 2420,
      "Ġsupply": 2421,
      "Ġannounce": 2422,
      "Ġpm": 2423,
      "Ġniger": 2424,
      "rich": 2425,
      "Ġarrested": 2426,
      "ece": 2427,
      "Ġaff": 2428,
      "Ġjour": 2429,
      "Ġanalysts": 2430,
      "Ġperformance": 2431,
      "wood": 2432,
      "Ġ199": 2433,
      "Ġtrying": 2434,
      "Ġcomputers": 2435,
      "Ġbowl": 2436,
      "Ġmadrid": 2437,
      "Ġast": 2438,
      "Ġspending": 2439,
      "oint": 2440,
      "Ġteams": 2441,
      "Ġfer": 2442,
      "Ġgoal": 2443,
      "Ġprep": 2444,
      "gypt": 2445,
      "Ġcompetition": 2446,
      "Ġprev": 2447,
      "icide": 2448,
      "comp": 2449,
      "Ġattempt": 2450,
      "Ġsched": 2451,
      "151": 2452,
      "Ġarsenal": 2453,
      "wh": 2454,
      "Ġwithin": 2455,
      "run": 2456,
      "Ġread": 2457,
      "Ġyoun": 2458,
      "Ġcontinue": 2459,
      "Ġwestern": 2460,
      "okes": 2461,
      "Ġmiami": 2462,
      "ances": 2463,
      "Ġothers": 2464,
      "utch": 2465,
      "verage": 2466,
      "Ġholiday": 2467,
      "Ġrules": 2468,
      "Ġdouble": 2469,
      "Ġfamily": 2470,
      "Ġflight": 2471,
      "Ġairways": 2472,
      "gth": 2473,
      "Ġlim": 2474,
      "Ġgrowing": 2475,
      "Ġquestion": 2476,
      "Ġfraud": 2477,
      "aring": 2478,
      "Ġdownload": 2479,
      "Ġcris": 2480,
      "Ġreve": 2481,
      "Ġweapons": 2482,
      "Ġprotest": 2483,
      "Ġcharged": 2484,
      "ijing": 2485,
      "arent": 2486,
      "Ġtrack": 2487,
      "nal": 2488,
      "Ġqualif": 2489,
      "Ġoutside": 2490,
      "Ġhours": 2491,
      "Ġstay": 2492,
      "Ġcurrent": 2493,
      "arm": 2494,
      "ander": 2495,
      "Ġground": 2496,
      "Ġcongress": 2497,
      "Ġlooking": 2498,
      "Ġmotor": 2499,
      "Ġsqu": 2500,
      "Ġwater": 2501,
      "Ġstrugg": 2502,
      "Ġfighting": 2503,
      "Ġuntil": 2504,
      "Ġmort": 2505,
      "Ġbeijing": 2506,
      "unt": 2507,
      "Ġpolicy": 2508,
      "Ġsharon": 2509,
      "Ġbasket": 2510,
      "Ġgeorge": 2511,
      "expected": 2512,
      "Ġbond": 2513,
      "Ġnba": 2514,
      "Ġegypt": 2515,
      "Ġtelecom": 2516,
      "Ġauthorities": 2517,
      "ring": 2518,
      "Ġpac": 2519,
      "Ġspot": 2520,
      "field": 2521,
      "he": 2522,
      "Ġgave": 2523,
      "Ġcrim": 2524,
      "akes": 2525,
      "Ġenough": 2526,
      "Ġpract": 2527,
      "Ġpressure": 2528,
      "Ġstarting": 2529,
      "eing": 2530,
      "Ġoffers": 2531,
      "Ġstrip": 2532,
      "Ġseem": 2533,
      "Ġdrive": 2534,
      "Ġavail": 2535,
      "pro": 2536,
      "Ġdip": 2537,
      "Ġsurvey": 2538,
      "Ġfig": 2539,
      "Ġpow": 2540,
      "Ġgam": 2541,
      "Ġrights": 2542,
      "Ġeffort": 2543,
      "Ġcrisis": 2544,
      "Ġmount": 2545,
      "Ġgra": 2546,
      "update": 2547,
      "Ġseattle": 2548,
      "Ġhospital": 2549,
      "Ġitalian": 2550,
      "Ġclin": 2551,
      "Ġfinally": 2552,
      "Ġmanchester": 2553,
      "Ġconsumers": 2554,
      "Ġfears": 2555,
      "uses": 2556,
      "Ġjump": 2557,
      "Ġasia": 2558,
      "Ġcoming": 2559,
      "Ġsees": 2560,
      "Ġsuppl": 2561,
      "reme": 2562,
      "Ġcer": 2563,
      "uge": 2564,
      "Ġdevelopment": 2565,
      "Ġreached": 2566,
      "Ġruling": 2567,
      "ico": 2568,
      "Ġweak": 2569,
      "Ġbrows": 2570,
      "news": 2571,
      "Ġexecutives": 2572,
      "Ġinjury": 2573,
      "Ġmach": 2574,
      "Ġpred": 2575,
      "Ġeach": 2576,
      "Ġaward": 2577,
      "Ġside": 2578,
      "iance": 2579,
      "Ġsom": 2580,
      "Ġyards": 2581,
      "Ġquarterback": 2582,
      "men": 2583,
      "Ġexpress": 2584,
      "Ġchildren": 2585,
      "ault": 2586,
      "Ġthen": 2587,
      "Ġdell": 2588,
      "icks": 2589,
      "Ġhund": 2590,
      "Ġdie": 2591,
      "Ġsatell": 2592,
      "Ġtaken": 2593,
      "ily": 2594,
      "Ġsuicide": 2595,
      "Ġdevices": 2596,
      "astern": 2597,
      "wan": 2598,
      "Ġretailer": 2599,
      "Ġcharge": 2600,
      "Ġaimed": 2601,
      "isc": 2602,
      "Ġclash": 2603,
      "Ġivan": 2604,
      "Ġhands": 2605,
      "Ġappe": 2606,
      "ym": 2607,
      "Ġsuggest": 2608,
      ").": 2609,
      "Ġchrist": 2610,
      "Ġcisco": 2611,
      "Ġbang": 2612,
      "Ġsoccer": 2613,
      "Ġyuk": 2614,
      "Ġinvol": 2615,
      "Ġstrate": 2616,
      "Ġmont": 2617,
      "Ġgetting": 2618,
      "ga": 2619,
      "Ġguard": 2620,
      "Ġdv": 2621,
      "Ġevent": 2622,
      "Ġ23": 2623,
      "Ġfailed": 2624,
      "erv": 2625,
      "Ġstaff": 2626,
      "Ġoperations": 2627,
      "cow": 2628,
      "hl": 2629,
      "nes": 2630,
      "ane": 2631,
      "Ġchips": 2632,
      "Ġfurther": 2633,
      "ple": 2634,
      "Ġshows": 2635,
      "Ġplayoff": 2636,
      "Ġarab": 2637,
      "Ġyukos": 2638,
      "Ġproblems": 2639,
      "Ġcollege": 2640,
      "ck": 2641,
      "ually": 2642,
      "Ġhy": 2643,
      "Ġresearchers": 2644,
      "Ġelectronics": 2645,
      "rain": 2646,
      "Ġbad": 2647,
      "anced": 2648,
      "Ġcontinued": 2649,
      "Ġok": 2650,
      "Ġspokes": 2651,
      "Ġ22": 2652,
      "Ġwild": 2653,
      "Ġbasketball": 2654,
      "Ġcredit": 2655,
      "Ġestim": 2656,
      "Ġlarge": 2657,
      "Ġprivate": 2658,
      "Ġpark": 2659,
      "month": 2660,
      "ster": 2661,
      "era": 2662,
      "Ġgolf": 2663,
      "Ġdisco": 2664,
      "Ġprevious": 2665,
      "Ġsend": 2666,
      "Ġyasser": 2667,
      "Ġcomb": 2668,
      "Ġhew": 2669,
      "Ġlin": 2670,
      "Ġnat": 2671,
      "Ġstor": 2672,
      "Ġpartners": 2673,
      "Ġmiddle": 2674,
      "Ġbenef": 2675,
      "Ġpick": 2676,
      "ounds": 2677,
      "Ġhope": 2678,
      "Ġcric": 2679,
      "hal": 2680,
      "14": 2681,
      "Ġwent": 2682,
      "Ġtreat": 2683,
      "Ġjail": 2684,
      "iven": 2685,
      "Ġrising": 2686,
      "Ġmoscow": 2687,
      "Ġrivals": 2688,
      "Ġdiscuss": 2689,
      "uary": 2690,
      "Ġrac": 2691,
      "Ġdavis": 2692,
      "Ġheavy": 2693,
      "Ġroy": 2694,
      "eph": 2695,
      "Ġintroduc": 2696,
      "Ġfif": 2697,
      "Ġraised": 2698,
      "Ġpalestinians": 2699,
      "den": 2700,
      "Ġasian": 2701,
      "ulation": 2702,
      "Ġwinter": 2703,
      "Ġmissing": 2704,
      "Ġcou": 2705,
      "Ġname": 2706,
      "Ġpowerful": 2707,
      "Ġatlanta": 2708,
      "Ġsteel": 2709,
      "cp": 2710,
      "Ġlight": 2711,
      "iron": 2712,
      "Ġappeal": 2713,
      "ability": 2714,
      "Ġkills": 2715,
      "Ġworking": 2716,
      "Ġfiled": 2717,
      "Ġthink": 2718,
      "Ġabove": 2719,
      "illeg": 2720,
      "ole": 2721,
      "Ġid": 2722,
      "Ġpotential": 2723,
      "Ġwarning": 2724,
      "Ġsuspected": 2725,
      "Ġpoint": 2726,
      "12": 2727,
      "Ġdisapp": 2728,
      "Ġmerger": 2729,
      "Ġident": 2730,
      "Ġlock": 2731,
      "elph": 2732,
      "Ġdefeat": 2733,
      "ville": 2734,
      "Ġprob": 2735,
      "Ġleave": 2736,
      "Ġfirms": 2737,
      "Ġcit": 2738,
      "Ġpir": 2739,
      "icip": 2740,
      "Ġeag": 2741,
      "Ġnever": 2742,
      "Ġchallenge": 2743,
      "Ġms": 2744,
      "Ġpet": 2745,
      "aging": 2746,
      "Ġimport": 2747,
      "Ġsigns": 2748,
      "Ġyoung": 2749,
      "elphia": 2750,
      "Ġrisk": 2751,
      "Ġselling": 2752,
      "Ġsize": 2753,
      "Ġmission": 2754,
      "Ġdebt": 2755,
      "Ġpit": 2756,
      "ria": 2757,
      "Ġfaces": 2758,
      "Ġallow": 2759,
      "Ġannual": 2760,
      "aled": 2761,
      "Ġpros": 2762,
      "Ġ50": 2763,
      "Ġdesigned": 2764,
      "Ġjournal": 2765,
      "por": 2766,
      "Ġparl": 2767,
      "mir": 2768,
      "Ġbi": 2769,
      "Ġworth": 2770,
      "Ġwithdraw": 2771,
      "post": 2772,
      "Ġ2006": 2773,
      "Ġsatellite": 2774,
      "kia": 2775,
      "Ġ27": 2776,
      "Ġinvestigation": 2777,
      "Ġill": 2778,
      "Ġxp": 2779,
      "rovers": 2780,
      "ically": 2781,
      "Ġbusinesses": 2782,
      "Ġautom": 2783,
      "Ġissue": 2784,
      "Ġlink": 2785,
      "Ġraid": 2786,
      "Ġfired": 2787,
      "Ġnamed": 2788,
      "unes": 2789,
      "order": 2790,
      "rength": 2791,
      "ebr": 2792,
      "Ġchance": 2793,
      "Ġjer": 2794,
      "Ġdollars": 2795,
      "itor": 2796,
      "asters": 2797,
      "icted": 2798,
      "Ġmex": 2799,
      "Ġbody": 2800,
      "sw": 2801,
      "Ġtourn": 2802,
      "reds": 2803,
      "Ġspan": 2804,
      "Ġcricket": 2805,
      "ention": 2806,
      "apore": 2807,
      "Ġissues": 2808,
      "Ġlawsuit": 2809,
      "ss": 2810,
      "Ġ,": 2811,
      "ald": 2812,
      "Ġken": 2813,
      "Ġdelta": 2814,
      "Ġstorage": 2815,
      "Ġbud": 2816,
      "Ġking": 2817,
      "Ġplanned": 2818,
      ".'": 2819,
      "Ġarea": 2820,
      "Ġcontrovers": 2821,
      "Ġsharehold": 2822,
      "30": 2823,
      "Ġilleg": 2824,
      "Ġproject": 2825,
      "Ġshr": 2826,
      "Ġcaptain": 2827,
      "Ġtony": 2828,
      "roit": 2829,
      "iament": 2830,
      "lom": 2831,
      "Ġtell": 2832,
      "orld": 2833,
      "ector": 2834,
      "kins": 2835,
      "anked": 2836,
      "Ġprovide": 2837,
      "Ġtreas": 2838,
      "uting": 2839,
      "Ġexpectations": 2840,
      "Ġire": 2841,
      "ream": 2842,
      "Ġbell": 2843,
      "Ġhall": 2844,
      "Ġcelebr": 2845,
      "read": 2846,
      "anium": 2847,
      "Ġknow": 2848,
      "Ġorder": 2849,
      "Ġrod": 2850,
      "held": 2851,
      "Ġequip": 2852,
      "irc": 2853,
      "Ġitaly": 2854,
      "Ġseeks": 2855,
      "Ġlaunches": 2856,
      "Ġavailable": 2857,
      "Ġgroups": 2858,
      "Ġparliament": 2859,
      "Ġsites": 2860,
      "iding": 2861,
      "Ġnokia": 2862,
      "Ġdetroit": 2863,
      "Ġstrength": 2864,
      "Ġhundreds": 2865,
      "pon": 2866,
      "Ġtai": 2867,
      "Ġfront": 2868,
      "11": 2869,
      "game": 2870,
      "tal": 2871,
      "enger": 2872,
      "Ġnaj": 2873,
      "Ġregulators": 2874,
      "wart": 2875,
      "Ġfun": 2876,
      "Ġhen": 2877,
      "Ġofficer": 2878,
      "Ġsecurities": 2879,
      "ula": 2880,
      "Ġathlet": 2881,
      "Ġexperts": 2882,
      "Ġryder": 2883,
      "Ġdraw": 2884,
      "ept": 2885,
      "Ġimprove": 2886,
      "Ġscr": 2887,
      "Ġsingh": 2888,
      "ford": 2889,
      "Ġ28": 2890,
      "ably": 2891,
      "Ġruns": 2892,
      "oming": 2893,
      "han": 2894,
      "arra": 2895,
      "Ġnajaf": 2896,
      "maker": 2897,
      "uff": 2898,
      "Ġnewsp": 2899,
      "Ġsepar": 2900,
      "Ġrow": 2901,
      "under": 2902,
      "using": 2903,
      "adelphia": 2904,
      "Ġsex": 2905,
      "Ġarch": 2906,
      "Ġdrugs": 2907,
      "Ġdebate": 2908,
      "Ġprosecut": 2909,
      "play": 2910,
      "Ġmedical": 2911,
      "Ġreview": 2912,
      "Ġrecall": 2913,
      "anger": 2914,
      "Ġsingapore": 2915,
      "Ġemployees": 2916,
      "bl": 2917,
      "Ġboeing": 2918,
      "Ġwid": 2919,
      "Ġastros": 2920,
      "itness": 2921,
      "ural": 2922,
      "Ġremain": 2923,
      "Ġlooks": 2924,
      "Ġmilitant": 2925,
      "Ġlosses": 2926,
      "iet": 2927,
      "Ġacquis": 2928,
      "Ġbrowser": 2929,
      "illa": 2930,
      "vered": 2931,
      "Ġaud": 2932,
      "Ġdutch": 2933,
      "Ġgain": 2934,
      "Ġphiladelphia": 2935,
      "daq": 2936,
      "me": 2937,
      "Ġresum": 2938,
      "Ġireland": 2939,
      "pal": 2940,
      "ceed": 2941,
      "Ġdefic": 2942,
      "Ġjohnson": 2943,
      "Ġcloser": 2944,
      "ouse": 2945,
      "uted": 2946,
      "Ġsurv": 2947,
      "500": 2948,
      "Ġapproved": 2949,
      "Ġdemocratic": 2950,
      "Ġwoods": 2951,
      "Ġasked": 2952,
      "Ġcond": 2953,
      "Ġintell": 2954,
      "Ġknown": 2955,
      "yn": 2956,
      "Ġtrop": 2957,
      "atter": 2958,
      "Ġran": 2959,
      "Ġfallujah": 2960,
      "ko": 2961,
      "Ġastr": 2962,
      "tern": 2963,
      "Ġdism": 2964,
      "Ġmoon": 2965,
      "bo": 2966,
      "dam": 2967,
      "egr": 2968,
      "Ġsant": 2969,
      "oney": 2970,
      "Ġukrain": 2971,
      "Ġlines": 2972,
      "Ġsafety": 2973,
      "tors": 2974,
      "Ġdecember": 2975,
      "Ġfri": 2976,
      "Ġenterprise": 2977,
      "Ġhapp": 2978,
      "Ġislamic": 2979,
      "Ġtaiwan": 2980,
      "pan": 2981,
      "Ġrain": 2982,
      ";,": 2983,
      "Ġrole": 2984,
      "Ġsett": 2985,
      "Ġsprint": 2986,
      "Ġstatement": 2987,
      "Ġram": 2988,
      "Ġupgr": 2989,
      "Ġscand": 2990,
      "Ġunveiled": 2991,
      "Ġcritic": 2992,
      "Ġposition": 2993,
      "hi": 2994,
      "Ġcrow": 2995,
      "Ġeffect": 2996,
      "Ġterrorism": 2997,
      "Ġview": 2998,
      "term": 2999,
      "Ġrap": 3000,
      "Ġfinance": 3001,
      "Ġdecided": 3002,
      "Ġavoid": 3003,
      "ca": 3004,
      "ilt": 3005,
      "illing": 3006,
      "Ġshoot": 3007,
      "Ġurged": 3008,
      "Ġconfirmed": 3009,
      "Ġtournament": 3010,
      "Ġbird": 3011,
      "Ġgiven": 3012,
      "Ġet": 3013,
      "Ġcleric": 3014,
      "Ġtechnologies": 3015,
      "cial": 3016,
      "ption": 3017,
      "Ġhostages": 3018,
      "Ġquick": 3019,
      "Ġfla": 3020,
      "Ġslight": 3021,
      "ixed": 3022,
      "Ġdvd": 3023,
      "Ġforward": 3024,
      "Ġgoes": 3025,
      "awi": 3026,
      "Ġapplications": 3027,
      "hy": 3028,
      "Ġbull": 3029,
      "ena": 3030,
      "Ġdisney": 3031,
      "Ġholding": 3032,
      "Ġovers": 3033,
      "Ġvs": 3034,
      "Ġcirc": 3035,
      "Ġsym": 3036,
      "hic": 3037,
      "mw": 3038,
      "assin": 3039,
      "Ġputin": 3040,
      "Ġlater": 3041,
      "Ġrises": 3042,
      "Ġdetail": 3043,
      "Ġbrief": 3044,
      "Ġenviron": 3045,
      "Ġsets": 3046,
      "Ġhp": 3047,
      "imate": 3048,
      "Ġcomes": 3049,
      "Ġlawy": 3050,
      "Ġmut": 3051,
      "Ġcho": 3052,
      "Ġbuilding": 3053,
      "vet": 3054,
      "Ġgiving": 3055,
      "Ġfifth": 3056,
      "Ġtight": 3057,
      "Ġpurch": 3058,
      "rit": 3059,
      "ola": 3060,
      "Ġtem": 3061,
      "Ġalong": 3062,
      "Ġton": 3063,
      "Ġwarns": 3064,
      "Ġdeep": 3065,
      "Ġretire": 3066,
      "olph": 3067,
      "Ġkash": 3068,
      "Ġagree": 3069,
      "Ġdecl": 3070,
      "Ġcreate": 3071,
      "Ġadvert": 3072,
      "car": 3073,
      "Ġnets": 3074,
      "Ġ26": 3075,
      "Ġcode": 3076,
      "Ġcommercial": 3077,
      "eed": 3078,
      "Ġaccept": 3079,
      "Ġdeliver": 3080,
      "Ġadded": 3081,
      "Ġkashmir": 3082,
      "Ġbir": 3083,
      "Ġtough": 3084,
      "Ġjets": 3085,
      "atives": 3086,
      "Ġplant": 3087,
      "Ġprize": 3088,
      "Ġfilm": 3089,
      "Ġlosing": 3090,
      "Ġwoman": 3091,
      "Ġaccounting": 3092,
      "uits": 3093,
      "Ġmike": 3094,
      "rick": 3095,
      "Ġequipment": 3096,
      "Ġchel": 3097,
      "Ġvictim": 3098,
      "Ġbroadband": 3099,
      "Ġkidnapped": 3100,
      "Ġsomet": 3101,
      "Ġmom": 3102,
      "Ġoffensive": 3103,
      "Ġscre": 3104,
      "Ġ2003": 3105,
      "Ġtraff": 3106,
      "west": 3107,
      "Ġaverage": 3108,
      "Ġamd": 3109,
      "Ġbox": 3110,
      "ashing": 3111,
      "Ġ40": 3112,
      "Ġincreased": 3113,
      "Ġchanges": 3114,
      "Ġsanc": 3115,
      "Ġturned": 3116,
      "Ġfly": 3117,
      "ari": 3118,
      "uments": 3119,
      "Ġjoint": 3120,
      "Ġbonds": 3121,
      "Ġblood": 3122,
      "Ġford": 3123,
      "Ġrepres": 3124,
      "season": 3125,
      "vention": 3126,
      "Ġflu": 3127,
      "Ġmoved": 3128,
      "Ġplaying": 3129,
      "itional": 3130,
      "Ġreform": 3131,
      "Ġclaimed": 3132,
      "Ġacquire": 3133,
      "Ġstandard": 3134,
      "Ġinsurgents": 3135,
      "uled": 3136,
      "Ġminnes": 3137,
      "Ġgreece": 3138,
      "Ġdiffer": 3139,
      "bn": 3140,
      "ills": 3141,
      "sea": 3142,
      "Ġdebut": 3143,
      "Ġdirector": 3144,
      "Ġminnesota": 3145,
      "ively": 3146,
      "ify": 3147,
      "Ġcontent": 3148,
      "Ġdesc": 3149,
      "Ġdoz": 3150,
      "Ġposts": 3151,
      "Ġpilots": 3152,
      ".\"": 3153,
      "20": 3154,
      "da": 3155,
      "ogr": 3156,
      "Ġmeas": 3157,
      "Ġwounded": 3158,
      "Ġbob": 3159,
      "itial": 3160,
      "Ġsummer": 3161,
      "Ġindonesia": 3162,
      "Ġspokesman": 3163,
      "zz": 3164,
      "Ġbased": 3165,
      "Ġour": 3166,
      "Ġgives": 3167,
      "Ġvent": 3168,
      "Ġsteve": 3169,
      "Ġmillions": 3170,
      "Ġnhl": 3171,
      "ada": 3172,
      "Ġboss": 3173,
      "ockey": 3174,
      "Ġplane": 3175,
      "oes": 3176,
      "inger": 3177,
      "Ġmarch": 3178,
      "Ġserious": 3179,
      "nas": 3180,
      "Ġsources": 3181,
      "Ġwitness": 3182,
      "Ġpatri": 3183,
      "istry": 3184,
      "Ġopened": 3185,
      "ought": 3186,
      "Ġstreak": 3187,
      "Ġspar": 3188,
      "Ġprotect": 3189,
      "Ġmortg": 3190,
      "ma": 3191,
      "point": 3192,
      "Ġoak": 3193,
      "ilities": 3194,
      "Ġrang": 3195,
      "lywood": 3196,
      "Ġpict": 3197,
      "Ġlu": 3198,
      "ibility": 3199,
      "Ġsuspended": 3200,
      "Ġvirginia": 3201,
      "craft": 3202,
      "yle": 3203,
      "Ġairport": 3204,
      "Ġsingle": 3205,
      "Ġfunds": 3206,
      "Ġdod": 3207,
      "Ġcourse": 3208,
      "beat": 3209,
      "Ġentertain": 3210,
      "Ġevidence": 3211,
      "Ġreceived": 3212,
      "con": 3213,
      "Ġsave": 3214,
      "Ġflat": 3215,
      "Ġdidn": 3216,
      "umped": 3217,
      "Ġrock": 3218,
      "Ġhus": 3219,
      "Ġreds": 3220,
      "Ġwhy": 3221,
      "Ġresult": 3222,
      "Ġvoters": 3223,
      "Ġchelsea": 3224,
      "mers": 3225,
      "Ġdecline": 3226,
      "Ġguil": 3227,
      "Ġcheck": 3228,
      "right": 3229,
      "Ġinitial": 3230,
      "Ġgri": 3231,
      "Ġplead": 3232,
      "Ġfalls": 3233,
      "Ġhurt": 3234,
      "Ġtennis": 3235,
      "Ġhuge": 3236,
      "Ġremains": 3237,
      "Ġcontinues": 3238,
      "Ġenvironment": 3239,
      "Ġadvanced": 3240,
      "Ġtoll": 3241,
      "Ġroll": 3242,
      "Ġhaving": 3243,
      "Ġguilty": 3244,
      "bi": 3245,
      "Ġcoal": 3246,
      "Ġfiles": 3247,
      "Ġseeking": 3248,
      "mun": 3249,
      "Ġsit": 3250,
      "iring": 3251,
      "Ġshi": 3252,
      "Ġcarry": 3253,
      "Ġjustice": 3254,
      "Ġhomes": 3255,
      "atory": 3256,
      "obe": 3257,
      "Ġraise": 3258,
      "Ġdistrib": 3259,
      "Ġjuly": 3260,
      "mas": 3261,
      "yc": 3262,
      "Ġoh": 3263,
      "uries": 3264,
      "Ġleads": 3265,
      "Ġsupreme": 3266,
      "Ġdispute": 3267,
      "Ġtiger": 3268,
      "Ġlic": 3269,
      "Ġmoves": 3270,
      "Ġconfidence": 3271,
      "Ġesc": 3272,
      "Ġcross": 3273,
      "Ġvehic": 3274,
      "Ġable": 3275,
      "Ġsuit": 3276,
      "cbs": 3277,
      "Ġfle": 3278,
      "orney": 3279,
      "strong": 3280,
      "Ġcas": 3281,
      "Ġpain": 3282,
      "Ġturkey": 3283,
      "Ġcardinals": 3284,
      "Ġsettlement": 3285,
      "kn": 3286,
      "Ġtotal": 3287,
      "Ġattorney": 3288,
      "Ġslip": 3289,
      "Ġbanks": 3290,
      "Ġexplosion": 3291,
      "Ġacquisition": 3292,
      "Ġcommitt": 3293,
      "Ġsmart": 3294,
      "au": 3295,
      "source": 3296,
      "war": 3297,
      "ati": 3298,
      "Ġdevice": 3299,
      "Ġfutures": 3300,
      "Ġwel": 3301,
      "Ġstage": 3302,
      "Ġpled": 3303,
      "Ġminutes": 3304,
      "factor": 3305,
      "Ġmurder": 3306,
      "Ġdiplom": 3307,
      "ris": 3308,
      "Ġvend": 3309,
      "Ġplat": 3310,
      "Ġexpects": 3311,
      "ova": 3312,
      "Ġproposed": 3313,
      "Ġhoward": 3314,
      "Ġdeficit": 3315,
      "Ġscandal": 3316,
      "kes": 3317,
      "enc": 3318,
      "Ġnec": 3319,
      "Ġtalk": 3320,
      "Ġdoesn": 3321,
      "Ġmexico": 3322,
      "anch": 3323,
      "ask": 3324,
      "Ġzeal": 3325,
      "Ġitunes": 3326,
      "Ġteleph": 3327,
      "Ġapproach": 3328,
      "enez": 3329,
      "Ġjanuary": 3330,
      "Ġspanish": 3331,
      "bor": 3332,
      "Ġalex": 3333,
      "ences": 3334,
      "Ġnon": 3335,
      "Ġworries": 3336,
      "Ġprotection": 3337,
      "Ġsuccessful": 3338,
      "Ġclimb": 3339,
      "Ġapparent": 3340,
      "Ġplayed": 3341,
      "Ġthanks": 3342,
      "Ġbelow": 3343,
      "than": 3344,
      "Ġvac": 3345,
      "Ġmars": 3346,
      "Ġwinner": 3347,
      "Ġincreasing": 3348,
      "Ġphilipp": 3349,
      "Ġkarz": 3350,
      "200": 3351,
      "Ġpace": 3352,
      "Ġleaving": 3353,
      "ett": 3354,
      "Ġmemory": 3355,
      "Ġsad": 3356,
      "Ġexpos": 3357,
      "Ġsanctions": 3358,
      "cs": 3359,
      "ushing": 3360,
      "Ġnextel": 3361,
      "Ġcounter": 3362,
      "ray": 3363,
      "Ġgar": 3364,
      "Ġcommittee": 3365,
      "Ġkarzai": 3366,
      "igan": 3367,
      "Ġinterim": 3368,
      "Ġcarol": 3369,
      "Ġmissile": 3370,
      "Ġclassic": 3371,
      "rial": 3372,
      "fox": 3373,
      "awa": 3374,
      "Ġpowell": 3375,
      "Ġborder": 3376,
      "Ġforced": 3377,
      "Ġresc": 3378,
      "ansas": 3379,
      "Ġtrip": 3380,
      "Ġauto": 3381,
      "abul": 3382,
      "idents": 3383,
      "Ġhollywood": 3384,
      "Ġsenate": 3385,
      "Ġstarted": 3386,
      "Ġconcern": 3387,
      "Ġpoor": 3388,
      "Ġzealand": 3389,
      "Ġow": 3390,
      "istic": 3391,
      "Ġruled": 3392,
      "Ġcro": 3393,
      "Ġfreed": 3394,
      "Ġcreat": 3395,
      "eda": 3396,
      "Ġenc": 3397,
      "Ġappear": 3398,
      "Ġmovie": 3399,
      "Ġservers": 3400,
      "week": 3401,
      "Ġbit": 3402,
      "Ġkong": 3403,
      "Ġterm": 3404,
      "east": 3405,
      "Ġthese": 3406,
      "Ġhun": 3407,
      "Ġyen": 3408,
      "Ġorganization": 3409,
      "Ġcrowd": 3410,
      "bed": 3411,
      "Ġmel": 3412,
      "Ġprogress": 3413,
      "epend": 3414,
      "Ġcopy": 3415,
      "Ġsupplies": 3416,
      "Ġentertainment": 3417,
      "Ġbook": 3418,
      "Ġbeating": 3419,
      "Ġwhose": 3420,
      "Ġoutp": 3421,
      "Ġscience": 3422,
      "Ġneeds": 3423,
      "ranked": 3424,
      "Ġcab": 3425,
      "Ġcatch": 3426,
      "Ġchain": 3427,
      "Ġrepresent": 3428,
      "25": 3429,
      "Ġhat": 3430,
      "Ġreason": 3431,
      "iox": 3432,
      "Ġthreatened": 3433,
      "Ġkorean": 3434,
      "Ġembass": 3435,
      ".\\": 3436,
      "inn": 3437,
      "Ġinning": 3438,
      "Ġlay": 3439,
      "Ġweather": 3440,
      "eg": 3441,
      "Ġaircraft": 3442,
      "Ġsweep": 3443,
      "Ġoffered": 3444,
      "apping": 3445,
      "Ġexplor": 3446,
      "icon": 3447,
      "do": 3448,
      "makers": 3449,
      "Ġsir": 3450,
      "Ġmasters": 3451,
      "Ġcrack": 3452,
      "Ġquestions": 3453,
      "Ġwanted": 3454,
      "Ġinsp": 3455,
      "Ġsharply": 3456,
      "Ġapplication": 3457,
      "Ġrejected": 3458,
      "agu": 3459,
      "Ġwarner": 3460,
      "Ġtargets": 3461,
      "Ġbuying": 3462,
      "Ġstewart": 3463,
      "Ġformula": 3464,
      "Ġelectronic": 3465,
      "Ġshopping": 3466,
      "computer": 3467,
      "high": 3468,
      "Ġreduc": 3469,
      "fi": 3470,
      "irl": 3471,
      "igence": 3472,
      "Ġfirefox": 3473,
      "Ġdropped": 3474,
      "Ġslightly": 3475,
      "Ġplatform": 3476,
      "oles": 3477,
      "Ġends": 3478,
      "Ġinflation": 3479,
      "dog": 3480,
      "self": 3481,
      "Ġbol": 3482,
      "iment": 3483,
      "Ġsharp": 3484,
      "Ġreturned": 3485,
      "Ġcarrier": 3486,
      "Ġvery": 3487,
      "Ġciting": 3488,
      "Ġintegr": 3489,
      "Ġpolit": 3490,
      "Ġconnect": 3491,
      "orrow": 3492,
      "Ġproposal": 3493,
      "Ġrule": 3494,
      "Ġkabul": 3495,
      "Ġsurf": 3496,
      "Ġproblem": 3497,
      "Ġthought": 3498,
      "Ġnewspaper": 3499,
      "aeda": 3500,
      "udi": 3501,
      "Ġbecame": 3502,
      "Ġexplod": 3503,
      "mark": 3504,
      "Ġpanel": 3505,
      "Ġsong": 3506,
      "Ġjames": 3507,
      "Ġsport": 3508,
      "Ġabu": 3509,
      "Ġprix": 3510,
      "hr": 3511,
      "rust": 3512,
      "Ġdest": 3513,
      "ender": 3514,
      "Ġprovider": 3515,
      "medi": 3516,
      "Ġpcs": 3517,
      "Ġnigeria": 3518,
      "Ġukraine": 3519,
      "Ġhack": 3520,
      "Ġnames": 3521,
      "Ġjose": 3522,
      "ulf": 3523,
      "Ġ29": 3524,
      "Ġorders": 3525,
      "Ġeagles": 3526,
      "nn": 3527,
      "Ġcable": 3528,
      "Ġmys": 3529,
      "onduct": 3530,
      "Ġpatriots": 3531,
      ";.": 3532,
      "Ġhong": 3533,
      "usal": 3534,
      "ecutive": 3535,
      "Ġmortgage": 3536,
      "Ġoakland": 3537,
      "Ġten": 3538,
      "ograph": 3539,
      "Ġpatch": 3540,
      "Ġhockey": 3541,
      "Ġrange": 3542,
      "Ġkick": 3543,
      "Ġcrew": 3544,
      "Ġdan": 3545,
      "Ġspy": 3546,
      "Ġirish": 3547,
      "Ġending": 3548,
      "struct": 3549,
      "Ġsubs": 3550,
      "ined": 3551,
      "Ġbry": 3552,
      "oul": 3553,
      "rian": 3554,
      "Ġinvent": 3555,
      "Ġtonight": 3556,
      "come": 3557,
      "ients": 3558,
      "imin": 3559,
      "Ġproper": 3560,
      "Ġweigh": 3561,
      "Ġbron": 3562,
      "Ġelectric": 3563,
      "Ġvirus": 3564,
      "Ġshareholders": 3565,
      ";-": 3566,
      "Ġocc": 3567,
      "Ġdolph": 3568,
      "ched": 3569,
      "Ġtrib": 3570,
      "Ġillegal": 3571,
      "oric": 3572,
      "adian": 3573,
      "Ġexc": 3574,
      "reek": 3575,
      "Ġrecently": 3576,
      "Ġariz": 3577,
      "Ġcarolina": 3578,
      "Ġpers": 3579,
      "iders": 3580,
      "Ġprior": 3581,
      "Ġeastern": 3582,
      "Ġcompl": 3583,
      "coming": 3584,
      "Ġowners": 3585,
      "canadian": 3586,
      "Ġsector": 3587,
      "iter": 3588,
      "Ġeb": 3589,
      "Ġroom": 3590,
      "Ġeasy": 3591,
      "iar": 3592,
      "pack": 3593,
      "ystem": 3594,
      "Ġauction": 3595,
      "Ġopec": 3596,
      "Ġbroker": 3597,
      "Ġuranium": 3598,
      "Ġivory": 3599,
      "house": 3600,
      "Ġsky": 3601,
      "Ġdall": 3602,
      "Ġsecure": 3603,
      "Ġblow": 3604,
      "Ġreco": 3605,
      "iest": 3606,
      "rac": 3607,
      "Ġlose": 3608,
      "ado": 3609,
      "thing": 3610,
      "Ġspac": 3611,
      "Ġheat": 3612,
      "Ġministry": 3613,
      "Ġtools": 3614,
      "Ġembassy": 3615,
      ".&": 3616,
      "Ġlear": 3617,
      "Ġhaiti": 3618,
      "Ġindepend": 3619,
      "Ġfeder": 3620,
      "Ġprepar": 3621,
      "gery": 3622,
      "Ġbombs": 3623,
      "Ġrelief": 3624,
      "Ġedge": 3625,
      "Ġpremier": 3626,
      "ken": 3627,
      "Ġsending": 3628,
      "Ġpension": 3629,
      "Ġandre": 3630,
      "Ġmichigan": 3631,
      "Ġsolar": 3632,
      "lined": 3633,
      "Ġohio": 3634,
      "Ġ\\": 3635,
      "Ġsans": 3636,
      "Ġund": 3637,
      "Ġhoping": 3638,
      "Ġcandidate": 3639,
      "Ġventure": 3640,
      "Ġobs": 3641,
      "ecraft": 3642,
      "force": 3643,
      "though": 3644,
      "Ġbrought": 3645,
      "Ġlonger": 3646,
      "Ġnegotiations": 3647,
      "Ġspacecraft": 3648,
      "Ġthail": 3649,
      "idge": 3650,
      "Ġamaz": 3651,
      "Ġ35": 3652,
      "Ġtests": 3653,
      "Ġbombing": 3654,
      "Ġclosed": 3655,
      "Ġjeff": 3656,
      "Ġcertain": 3657,
      "ten": 3658,
      "iled": 3659,
      "Ġarms": 3660,
      "bert": 3661,
      "Ġmerck": 3662,
      "Ġmsn": 3663,
      ",\\": 3664,
      "lad": 3665,
      "Ġaol": 3666,
      "real": 3667,
      "isters": 3668,
      "Ġalthough": 3669,
      "Ġmicro": 3670,
      "Ġsurgery": 3671,
      "Ġterrorist": 3672,
      "Ġearthqu": 3673,
      "Ġrequest": 3674,
      "Ġroyal": 3675,
      "ha": 3676,
      "Ġkept": 3677,
      "ishing": 3678,
      "Ġmush": 3679,
      "Ġbatt": 3680,
      "nyse": 3681,
      "Ġfeatures": 3682,
      "Ġfavor": 3683,
      "burgh": 3684,
      "Ġdolphins": 3685,
      "Ġindic": 3686,
      "Ġtrain": 3687,
      "Ġcoop": 3688,
      "Ġthailand": 3689,
      "Ġcra": 3690,
      "Ġfrank": 3691,
      "Ġbegins": 3692,
      "ificant": 3693,
      "Ġneeded": 3694,
      "Ġchristmas": 3695,
      "Ġdallas": 3696,
      "light": 3697,
      "my": 3698,
      "Ġcards": 3699,
      "tery": 3700,
      "Ġmakers": 3701,
      "Ġimpact": 3702,
      "nasdaq": 3703,
      "Ġtack": 3704,
      "isl": 3705,
      "Ġoptim": 3706,
      "Ġcool": 3707,
      "Ġliver": 3708,
      "Ġpasses": 3709,
      "Ġ.": 3710,
      "Ġcast": 3711,
      "Ġindex": 3712,
      "Ġtraining": 3713,
      "Ġcommit": 3714,
      "Ġconsecutive": 3715,
      "Ġissued": 3716,
      "night": 3717,
      "star": 3718,
      "Ġworldwide": 3719,
      "Ġstriker": 3720,
      "idel": 3721,
      "alled": 3722,
      "Ġbrand": 3723,
      "Ġariel": 3724,
      "Ġpractice": 3725,
      "Ġintelligence": 3726,
      "Ġtie": 3727,
      "Ġnik": 3728,
      "iles": 3729,
      "Ġrank": 3730,
      "Ġjean": 3731,
      "Ġscheduled": 3732,
      "Ġstrategy": 3733,
      "ery": 3734,
      "Ġmets": 3735,
      "Ġkansas": 3736,
      "Ġimmedi": 3737,
      "Ġassault": 3738,
      "Ġprograms": 3739,
      "iny": 3740,
      "Ġvill": 3741,
      "Ġhighest": 3742,
      "Ġcarl": 3743,
      "Ġdeadline": 3744,
      "Ġmotors": 3745,
      "Ġipo": 3746,
      "Ġimportant": 3747,
      "larg": 3748,
      "Ġwide": 3749,
      "Ġplanning": 3750,
      "Ġrelations": 3751,
      "Ġrefug": 3752,
      "Ġeyes": 3753,
      "Ġdismiss": 3754,
      "Ġdifferent": 3755,
      ",\"": 3756,
      "Ġfix": 3757,
      "Ġmis": 3758,
      "uty": 3759,
      "estic": 3760,
      "Ġdeploy": 3761,
      "Ġmarsh": 3762,
      "Ġhamas": 3763,
      "Ġunveils": 3764,
      "itions": 3765,
      "arian": 3766,
      "Ġdream": 3767,
      "Ġvice": 3768,
      "Ġsha": 3769,
      "izon": 3770,
      "Ġcontroversial": 3771,
      "Ġmour": 3772,
      "Ġda": 3773,
      "Ġvan": 3774,
      "Ġenron": 3775,
      "ction": 3776,
      "Ġfeel": 3777,
      "Ġhimself": 3778,
      "Ġveter": 3779,
      "Ġmanufactur": 3780,
      "Ġfigures": 3781,
      "ever": 3782,
      "ho": 3783,
      "olis": 3784,
      "Ġscore": 3785,
      "Ġesp": 3786,
      "Ġcubs": 3787,
      "duce": 3788,
      "iling": 3789,
      "elves": 3790,
      "ading": 3791,
      "Ġsurge": 3792,
      "Ġcalling": 3793,
      "Ġlawsuits": 3794,
      "Ġgeorg": 3795,
      "itzer": 3796,
      "Ġide": 3797,
      "Ġties": 3798,
      "Ġson": 3799,
      "Ġstem": 3800,
      "Ġvenez": 3801,
      "Ġpalm": 3802,
      "Ġangels": 3803,
      "Ġvenezuel": 3804,
      "igning": 3805,
      "Ġjav": 3806,
      "Ġkne": 3807,
      "veland": 3808,
      "Ġraises": 3809,
      "Ġwi": 3810,
      "Ġtog": 3811,
      "Ġsaudi": 3812,
      "Ġ31": 3813,
      "ansion": 3814,
      "Ġdeveloped": 3815,
      "Ġphoto": 3816,
      "Ġsi": 3817,
      "Ġmixed": 3818,
      "iconduct": 3819,
      "Ġnob": 3820,
      "Ġprosp": 3821,
      "izing": 3822,
      "Ġbuys": 3823,
      "Ġpatent": 3824,
      "Ġlegisl": 3825,
      "Ġcleveland": 3826,
      "Ġoutput": 3827,
      "Ġrecovery": 3828,
      "Ġtogether": 3829,
      "Ġsel": 3830,
      "Ġinnings": 3831,
      "ashed": 3832,
      "Ġconfl": 3833,
      "Ġforec": 3834,
      "Ġreduce": 3835,
      "Ġnovell": 3836,
      "Ġeye": 3837,
      "ios": 3838,
      "Ġcat": 3839,
      "Ġpen": 3840,
      "arial": 3841,
      "endo": 3842,
      "Ġaftern": 3843,
      "Ġextra": 3844,
      "Ġknock": 3845,
      "uke": 3846,
      "Ġlack": 3847,
      "verd": 3848,
      "Ġhostile": 3849,
      "Ġpitts": 3850,
      "bre": 3851,
      "Ġpenn": 3852,
      "Ġrum": 3853,
      "Ġmarketing": 3854,
      "Ġswed": 3855,
      "Ġsoldier": 3856,
      "Ġsemiconduct": 3857,
      "Ġstruggling": 3858,
      "100": 3859,
      "Ġawa": 3860,
      "enced": 3861,
      "Ġdro": 3862,
      "Ġshock": 3863,
      "Ġcritical": 3864,
      "Ġcommon": 3865,
      "Ġdamage": 3866,
      "Ġrevealed": 3867,
      "Ġthom": 3868,
      "Ġthings": 3869,
      "Ġthrew": 3870,
      "Ġlive": 3871,
      "Ġserif": 3872,
      "=\"#": 3873,
      "=\"-": 3874,
      "Ġcaused": 3875,
      "helvet": 3876,
      "Ġmartin": 3877,
      "666666": 3878,
      "Ġadvertising": 3879,
      "Ġsubsid": 3880,
      "verdana": 3881,
      "helvetica": 3882,
      "itors": 3883,
      "Ġgoals": 3884,
      "Ġfacing": 3885,
      "Ġpublished": 3886,
      "Ġconflict": 3887,
      "inary": 3888,
      "Ġdanger": 3889,
      "Ġpakistani": 3890,
      "Ġinstead": 3891,
      "outh": 3892,
      "Ġworst": 3893,
      "Ġresol": 3894,
      "Ġairbus": 3895,
      "Ġapproval": 3896,
      "ioxx": 3897,
      "Ġvioxx": 3898,
      "osed": 3899,
      "Ġsaw": 3900,
      "rict": 3901,
      "Ġparts": 3902,
      "Ġvirt": 3903,
      "usalem": 3904,
      "Ġjet": 3905,
      "apolis": 3906,
      "Ġunl": 3907,
      "Ġplot": 3908,
      "aily": 3909,
      "Ġbuilt": 3910,
      "Ġprocessor": 3911,
      "Ġafternoon": 3912,
      "rill": 3913,
      "oma": 3914,
      "Ġsurprise": 3915,
      "Ġproducer": 3916,
      "Ġoperation": 3917,
      "Ġjerusalem": 3918,
      "iod": 3919,
      "ties": 3920,
      "cher": 3921,
      "Ġgreens": 3922,
      "Ġhotel": 3923,
      "Ġdow": 3924,
      "Ġstruck": 3925,
      "Ġ60": 3926,
      "Ġadvance": 3927,
      "Ġretailers": 3928,
      "Ġpittsburgh": 3929,
      "onstr": 3930,
      "Ġwake": 3931,
      "Ġlog": 3932,
      "Ġgreek": 3933,
      "Ġclimate": 3934,
      "portun": 3935,
      "Ġebay": 3936,
      "80": 3937,
      "Ġpent": 3938,
      "angu": 3939,
      "Ġtroubled": 3940,
      "arraf": 3941,
      "iation": 3942,
      "Ġmember": 3943,
      "Ġdaily": 3944,
      "Ġnint": 3945,
      "Ġisn": 3946,
      "Ġitself": 3947,
      "Ġhelping": 3948,
      "Ġmanufacturing": 3949,
      "stand": 3950,
      "Ġinterview": 3951,
      "keep": 3952,
      "Ġimage": 3953,
      "Ġ400": 3954,
      "Ġsmith": 3955,
      "Ġindustrial": 3956,
      "scri": 3957,
      "Ġrepublican": 3958,
      "Ġdetails": 3959,
      "Ġfederer": 3960,
      "pool": 3961,
      "oph": 3962,
      "Ġrecover": 3963,
      "Ġsignificant": 3964,
      "Ġwrong": 3965,
      "Ġordered": 3966,
      "Ġarizona": 3967,
      "ystems": 3968,
      "Ġmusharraf": 3969,
      "Ġring": 3970,
      "Ġalliance": 3971,
      "Ġdecades": 3972,
      "Ġargent": 3973,
      "Ġestimates": 3974,
      "Ġnintendo": 3975,
      "la": 3976,
      "Ġky": 3977,
      "Ġbears": 3978,
      "Ġnoteb": 3979,
      "Ġmoz": 3980,
      "ania": 3981,
      "Ġlif": 3982,
      "Ġanim": 3983,
      "Ġconvention": 3984,
      "Ġzone": 3985,
      "Ġvoting": 3986,
      "Ġmoment": 3987,
      "Ġopportun": 3988,
      "Ġministers": 3989,
      "Ġdelhi": 3990,
      "Ġsummit": 3991,
      "Ġbudget": 3992,
      "ara": 3993,
      "omber": 3994,
      "Ġdisappoin": 3995,
      "Ġvictims": 3996,
      "Ġknee": 3997,
      "dney": 3998,
      "ented": 3999,
      "Ġfort": 4000,
      "Ġconc": 4001,
      "Ġterms": 4002,
      "ields": 4003,
      "16": 4004,
      "fire": 4005,
      "uation": 4006,
      "Ġhous": 4007,
      "Ġoperator": 4008,
      "Ġpulled": 4009,
      "Ġtrophy": 4010,
      "Ġcause": 4011,
      "Ġmean": 4012,
      "going": 4013,
      "Ġrespons": 4014,
      "pers": 4015,
      "Ġgirl": 4016,
      "Ġleban": 4017,
      "Ġspl": 4018,
      "Ġ80": 4019,
      "backs": 4020,
      "fect": 4021,
      "itution": 4022,
      "kei": 4023,
      "Ġfinds": 4024,
      "Ġsydney": 4025,
      "Ġsurpr": 4026,
      "Ġputs": 4027,
      "Ġholds": 4028,
      "Ġowner": 4029,
      "Ġmachines": 4030,
      "Ġsam": 4031,
      "Ġcing": 4032,
      "Ġatom": 4033,
      "Ġshowing": 4034,
      "Ġprobably": 4035,
      "Ġrangers": 4036,
      "Ġnikkei": 4037,
      "13": 4038,
      "Ġmassive": 4039,
      "Ġmalays": 4040,
      "Ġcomplete": 4041,
      "Ġcingular": 4042,
      "Ġmp": 4043,
      "Ġmad": 4044,
      "Ġrare": 4045,
      "Ġjacks": 4046,
      "Ġopens": 4047,
      "Ġscott": 4048,
      "Ġdomestic": 4049,
      "iscal": 4050,
      "Ġracing": 4051,
      "Ġintroduced": 4052,
      "17": 4053,
      "box": 4054,
      "rad": 4055,
      "Ġhon": 4056,
      "Ġlands": 4057,
      "Ġcommunity": 4058,
      "Ġcelt": 4059,
      "Ġsaddam": 4060,
      "well": 4061,
      "world": 4062,
      "Ġped": 4063,
      "Ġgather": 4064,
      "Ġvul": 4065,
      "Ġenrich": 4066,
      "Ġabb": 4067,
      "Ġwarming": 4068,
      "Ġliverpool": 4069,
      "fer": 4070,
      "yard": 4071,
      "inet": 4072,
      "Ġfa": 4073,
      "Ġkh": 4074,
      "ags": 4075,
      "arta": 4076,
      "Ġflights": 4077,
      "Ġmoving": 4078,
      "Ġdemands": 4079,
      "Ġdeadly": 4080,
      "Ġreturns": 4081,
      "Ġnumbers": 4082,
      "Ġdies": 4083,
      "Ġstun": 4084,
      "imir": 4085,
      "Ġarmed": 4086,
      "Ġdisplay": 4087,
      "Ġswitch": 4088,
      "Ġsubscri": 4089,
      "Ġaddress": 4090,
      "Ġtyph": 4091,
      "Ġreplace": 4092,
      "largest": 4093,
      "Ġjackson": 4094,
      "Ġplanet": 4095,
      "Ġtouchdowns": 4096,
      "Ġappeared": 4097,
      "Ġcow": 4098,
      "Ġhor": 4099,
      "Ġdame": 4100,
      "Ġrook": 4101,
      "Ġperiod": 4102,
      "Ġnotre": 4103,
      "ology": 4104,
      "Ġfalling": 4105,
      "Ġextended": 4106,
      "Ġstars": 4107,
      "Ġpositive": 4108,
      "roup": 4109,
      "amb": 4110,
      "Ġvlad": 4111,
      "Ġspent": 4112,
      "Ġrol": 4113,
      "Ġ49": 4114,
      "Ġinside": 4115,
      "Ġspecies": 4116,
      "Ġalleg": 4117,
      "annie": 4118,
      "Ġbeginning": 4119,
      "Ġpitcher": 4120,
      "Ġbenefits": 4121,
      "half": 4122,
      "Ġsemiconductor": 4123,
      "ark": 4124,
      "Ġ(\\$": 4125,
      "isted": 4126,
      "Ġadmit": 4127,
      "Ġdise": 4128,
      "Ġdecade": 4129,
      "Ġsomething": 4130,
      "Ġfair": 4131,
      "Ġsevent": 4132,
      "Ġpolls": 4133,
      "ding": 4134,
      "not": 4135,
      "tm": 4136,
      "emb": 4137,
      "ished": 4138,
      "Ġteen": 4139,
      "Ġcolomb": 4140,
      "Ġjim": 4141,
      "Ġspread": 4142,
      "Ġblog": 4143,
      "Ġtehr": 4144,
      "Ġhighs": 4145,
      "Ġprevent": 4146,
      "Ġcars": 4147,
      "ification": 4148,
      "):": 4149,
      "Ġrenew": 4150,
      "Ġron": 4151,
      "Ġplc": 4152,
      "Ġdeveloping": 4153,
      "Ġpassed": 4154,
      "Ġcancer": 4155,
      "va": 4156,
      "une": 4157,
      "Ġroger": 4158,
      "Ġflash": 4159,
      "Ġbroke": 4160,
      "Ġdiego": 4161,
      "Ġnl": 4162,
      "Ġrav": 4163,
      "Ġshift": 4164,
      "Ġexpansion": 4165,
      "Ġprofession": 4166,
      "oys": 4167,
      "Ġbelieve": 4168,
      "Ġcriminal": 4169,
      "fe": 4170,
      "lades": 4171,
      "Ġts": 4172,
      "Ġpair": 4173,
      "Ġask": 4174,
      "appers": 4175,
      "Ġtehran": 4176,
      "inter": 4177,
      "Ġluc": 4178,
      "Ġupset": 4179,
      "Ġoppon": 4180,
      "lett": 4181,
      "Ġaims": 4182,
      "Ġverizon": 4183,
      "Ġutah": 4184,
      "Ġdiscovered": 4185,
      "eu": 4186,
      "Ġfannie": 4187,
      "Ġadds": 4188,
      "Ġhurricanes": 4189,
      "Ġarrived": 4190,
      "Ġvladimir": 4191,
      "Ġansw": 4192,
      "Ġjason": 4193,
      "apt": 4194,
      "ival": 4195,
      "Ġiraqis": 4196,
      "Ġorig": 4197,
      "Ġ2000": 4198,
      "Ġextend": 4199,
      "Ġbryant": 4200,
      "Ġnar": 4201,
      "utions": 4202,
      "Ġsalv": 4203,
      "Ġopener": 4204,
      "Ġwatchdog": 4205,
      "Ġbanglades": 4206,
      "Ġlinks": 4207,
      "fr": 4208,
      "lan": 4209,
      "sy": 4210,
      "Ġsand": 4211,
      "ensions": 4212,
      "Ġadop": 4213,
      "Ġscot": 4214,
      "ielder": 4215,
      "washing": 4216,
      "Ġtosh": 4217,
      "Ġupd": 4218,
      "speed": 4219,
      "Ġvulner": 4220,
      "Ġic": 4221,
      "Ġsure": 4222,
      "Ġder": 4223,
      "Ġlad": 4224,
      "ucks": 4225,
      "Ġrecords": 4226,
      "Ġenglish": 4227,
      "Ġdodgers": 4228,
      "washington": 4229,
      "Ġsea": 4230,
      "Ġseconds": 4231,
      "Ġannounces": 4232,
      "Ġmessage": 4233,
      "Ġastrona": 4234,
      "Ġpenal": 4235,
      "Ġdone": 4236,
      "Ġunions": 4237,
      "Ġremained": 4238,
      "Ġthreats": 4239,
      "timore": 4240,
      "Ġmater": 4241,
      "Ġlot": 4242,
      "ounts": 4243,
      "Ġquit": 4244,
      "Ġslam": 4245,
      "Ġassociated": 4246,
      "Ġvalue": 4247,
      "Ġtyphoon": 4248,
      "Ġfiscal": 4249,
      "Ġappears": 4250,
      "Ġmiles": 4251,
      "ody": 4252,
      "Ġwebs": 4253,
      "Ġantit": 4254,
      "Ġfalluja": 4255,
      "hard": 4256,
      "Ġml": 4257,
      "Ġstory": 4258,
      "Ġfiling": 4259,
      "Ġstudents": 4260,
      "Ġbaltimore": 4261,
      "Ġamazon": 4262,
      "ques": 4263,
      "iba": 4264,
      "Ġbeck": 4265,
      "Ġdram": 4266,
      "wards": 4267,
      "Ġwrap": 4268,
      "Ġpaid": 4269,
      "Ġsession": 4270,
      "Ġconst": 4271,
      "Ġseed": 4272,
      "Ġannan": 4273,
      "Ġmontreal": 4274,
      "gu": 4275,
      "Ġtig": 4276,
      "Ġjak": 4277,
      "Ġmicrosystems": 4278,
      "Ġassets": 4279,
      "Ġtesting": 4280,
      "Ġurges": 4281,
      "Ġhistoric": 4282,
      "Ġbarg": 4283,
      "Ġdub": 4284,
      "Ġcorporation": 4285,
      "Ġantitrust": 4286,
      "Ġneigh": 4287,
      "Ġoffense": 4288,
      "Ġheating": 4289,
      "Ġ64": 4290,
      "Ġcaps": 4291,
      "Ġtried": 4292,
      "Ġforest": 4293,
      "amsung": 4294,
      "Ġsilver": 4295,
      "finals": 4296,
      "reg": 4297,
      "Ġfear": 4298,
      "Ġnort": 4299,
      "action": 4300,
      "Ġcolin": 4301,
      "Ġdoctors": 4302,
      "Ġmodel": 4303,
      "Ġindonesian": 4304,
      "Ġhewlett": 4305,
      "Ġresume": 4306,
      "Ġfal": 4307,
      "ality": 4308,
      "isions": 4309,
      "ication": 4310,
      "Ġrestruct": 4311,
      "Ġrush": 4312,
      "Ġvia": 4313,
      "Ġdeter": 4314,
      "Ġoptions": 4315,
      "Ġdefence": 4316,
      "Ġprovince": 4317,
      "Ġmozilla": 4318,
      "cel": 4319,
      "dick": 4320,
      "Ġtick": 4321,
      "Ġsamsung": 4322,
      "Ġfel": 4323,
      "che": 4324,
      "Ġmary": 4325,
      "Ġmoder": 4326,
      "Ġcruc": 4327,
      "Ġforecasts": 4328,
      "Ġcoc": 4329,
      "Ġfish": 4330,
      "Ġny": 4331,
      "Ġexports": 4332,
      "Ġresidents": 4333,
      "Ġassist": 4334,
      "Ġsteps": 4335,
      "Ġvotes": 4336,
      "Ġleaves": 4337,
      "Ġexplorer": 4338,
      "Ġdraft": 4339,
      "Ġliving": 4340,
      "Ġgm": 4341,
      "Ġpharm": 4342,
      "Ġtraders": 4343,
      "Ġtelephone": 4344,
      "Ġseventh": 4345,
      "Ġster": 4346,
      "Ġbacks": 4347,
      "Ġnin": 4348,
      "Ġep": 4349,
      "Ġdeals": 4350,
      "Ġ500": 4351,
      "Ġformat": 4352,
      "Ġshuttle": 4353,
      "Ġgeorgia": 4354,
      "Ġcos": 4355,
      "Ġfan": 4356,
      "Ġpurs": 4357,
      "Ġgulf": 4358,
      "Ġholdings": 4359,
      "Ġdriver": 4360,
      "Ġportable": 4361,
      "Ġhewitt": 4362,
      "Ġrookie": 4363,
      "ato": 4364,
      "Ġlank": 4365,
      "ils": 4366,
      "Ġstead": 4367,
      "Ġkid": 4368,
      "Ġreportedly": 4369,
      "Ġbeats": 4370,
      "Ġtreasury": 4371,
      "Ġjakarta": 4372,
      "gency": 4373,
      "Ġanc": 4374,
      "eth": 4375,
      "Ġtwice": 4376,
      "Ġdefensive": 4377,
      "Ġsixth": 4378,
      "Ġcolorado": 4379,
      "Ġpurchase": 4380,
      "Ġcabinet": 4381,
      "Ġgreenspan": 4382,
      "Ġpip": 4383,
      "Ġband": 4384,
      "Ġdate": 4385,
      "Ġbeach": 4386,
      "Ġmanning": 4387,
      "Ġstarts": 4388,
      "Ġnascar": 4389,
      "Ġsudanese": 4390,
      "Ġannouncement": 4391,
      "Ġtigers": 4392,
      "mc": 4393,
      "orters": 4394,
      "arters": 4395,
      "Ġtoy": 4396,
      "Ġrand": 4397,
      "oping": 4398,
      "usted": 4399,
      "Ġresolution": 4400,
      "Ġblasts": 4401,
      "Ġbanking": 4402,
      "Ġtomorrow": 4403,
      "Ġexploded": 4404,
      "lah": 4405,
      "pts": 4406,
      "ope": 4407,
      "Ġincome": 4408,
      "Ġnothing": 4409,
      "Ġ2002": 4410,
      "athon": 4411,
      "Ġraising": 4412,
      "Ġfastest": 4413,
      "Ġupgrade": 4414,
      "Ġmaterial": 4415,
      "Ġwil": 4416,
      "Ġconduc": 4417,
      "Ġspir": 4418,
      "ahe": 4419,
      "Ġbills": 4420,
      "Ġharm": 4421,
      "Ġvoice": 4422,
      "Ġdelayed": 4423,
      "packard": 4424,
      "Ġmun": 4425,
      "Ġtext": 4426,
      "Ġcharl": 4427,
      "Ġbraves": 4428,
      "imbab": 4429,
      "Ġwounding": 4430,
      "Ġqualifying": 4431,
      "Ġcopyright": 4432,
      "Ġjava": 4433,
      "nam": 4434,
      "Ġsie": 4435,
      "Ġgates": 4436,
      "Ġrall": 4437,
      "aks": 4438,
      "Ġflaw": 4439,
      "Ġearn": 4440,
      "Ġsaturn": 4441,
      "Ġoklah": 4442,
      "Ġtoshiba": 4443,
      "Ġfox": 4444,
      "atings": 4445,
      "Ġmae": 4446,
      "Ġmanagers": 4447,
      "Ġhomer": 4448,
      "Ġdozens": 4449,
      "imbabwe": 4450,
      "cat": 4451,
      "don": 4452,
      "oud": 4453,
      "Ġchen": 4454,
      "ighth": 4455,
      "abad": 4456,
      "Ġoklahoma": 4457,
      "sa": 4458,
      "eman": 4459,
      "Ġword": 4460,
      "aren": 4461,
      "Ġallowed": 4462,
      "ounded": 4463,
      "Ġhalt": 4464,
      "Ġsemif": 4465,
      "Ġpartnership": 4466,
      "Ġtheft": 4467,
      "Ġfaster": 4468,
      "illed": 4469,
      "Ġjack": 4470,
      "Ġbecoming": 4471,
      "Ġzimbabwe": 4472,
      "Ġstrikes": 4473,
      "Ġbern": 4474,
      "Ġku": 4475,
      "izer": 4476,
      "Ġassociates": 4477,
      "Ġroddick": 4478,
      "Ġcoalition": 4479,
      "Ġallegations": 4480,
      "inks": 4481,
      "Ġank": 4482,
      "tha": 4483,
      "Ġareas": 4484,
      "Ġflood": 4485,
      "Ġadvant": 4486,
      "Ġsuffered": 4487,
      "Ġcandidates": 4488,
      "Ġlas": 4489,
      "Ġreally": 4490,
      "Ġcomputing": 4491,
      "Ġgov": 4492,
      "Ġdefending": 4493,
      "Ġwalk": 4494,
      "Ġbroadcast": 4495,
      "Ġlevels": 4496,
      "Ġtraffic": 4497,
      "Ġpra": 4498,
      "Ġbin": 4499,
      "acher": 4500,
      "Ġtitan": 4501,
      "Ġspeech": 4502,
      "Ġjune": 4503,
      "Ġconsidering": 4504,
      "fin": 4505,
      "Ġthing": 4506,
      "Ġ34": 4507,
      "Ġpartner": 4508,
      "Ġstandards": 4509,
      "Ġappeals": 4510,
      "Ġenrichment": 4511,
      "jan": 4512,
      "no": 4513,
      "roke": 4514,
      "Ġscores": 4515,
      "Ġ2001": 4516,
      "phone": 4517,
      "Ġsri": 4518,
      "roy": 4519,
      "Ġnepal": 4520,
      "munications": 4521,
      "Ġprompt": 4522,
      "long": 4523,
      "ni": 4524,
      "Ġbes": 4525,
      "oty": 4526,
      "Ġdemonstr": 4527,
      "Ġheaded": 4528,
      "Ġclosing": 4529,
      "Ġkeeps": 4530,
      "Ġtenness": 4531,
      "Ġlawyers": 4532,
      "Ġwitnesses": 4533,
      "Ġbangladesh": 4534,
      "Ġcrucial": 4535,
      "aheim": 4536,
      "Ġthems": 4537,
      "Ġtwins": 4538,
      "Ġguer": 4539,
      "Ġcurrency": 4540,
      "Ġtreatment": 4541,
      "Ġthemselves": 4542,
      "24": 4543,
      "Ġways": 4544,
      "Ġinn": 4545,
      "Ġanaheim": 4546,
      "enses": 4547,
      "Ġgrew": 4548,
      "weight": 4549,
      "Ġhandheld": 4550,
      "Ġrockets": 4551,
      "Ġnotebook": 4552,
      "Ġatomic": 4553,
      "iot": 4554,
      "Ġult": 4555,
      "Ġmatter": 4556,
      "Ġgh": 4557,
      "Ġjac": 4558,
      "Ġunexpected": 4559,
      "Ġdoubt": 4560,
      "'re": 4561,
      "Ġtren": 4562,
      "Ġba": 4563,
      "Ġmaster": 4564,
      "Ġdual": 4565,
      "Ġease": 4566,
      "Ġspaces": 4567,
      "Ġovert": 4568,
      "Ġads": 4569,
      "Ġhearing": 4570,
      "Ġpackage": 4571,
      "Ġemergency": 4572,
      "Ġrichard": 4573,
      "Ġtennessee": 4574,
      "omm": 4575,
      "ument": 4576,
      "Ġdatab": 4577,
      "Ġfamiliar": 4578,
      "Ġsocial": 4579,
      "Ġcoup": 4580,
      "board": 4581,
      "esc": 4582,
      "Ġoften": 4583,
      "Ġgunmen": 4584,
      "Ġpacific": 4585,
      "Ġindependent": 4586,
      "Ġninth": 4587,
      "wis": 4588,
      "Ġbey": 4589,
      "Ġallows": 4590,
      "Ġsolid": 4591,
      "Ġsafe": 4592,
      "Ġrejects": 4593,
      "Ġpiracy": 4594,
      "washingtonpost": 4595,
      "aries": 4596,
      "Ġattend": 4597,
      "ussels": 4598,
      "Ġturns": 4599,
      "Ġcustomer": 4600,
      "Ġbodies": 4601,
      "encies": 4602,
      "tered": 4603,
      "Ġchile": 4604,
      "ried": 4605,
      "Ġdiscl": 4606,
      "Ġsyria": 4607,
      "market": 4608,
      "Ġspring": 4609,
      "Ġschedule": 4610,
      "icult": 4611,
      "Ġoption": 4612,
      "Ġamb": 4613,
      "Ġdelays": 4614,
      "Ġ70": 4615,
      "Ġgoods": 4616,
      "Ġwales": 4617,
      "Ġdeaths": 4618,
      "Ġlinked": 4619,
      "Ġshiite": 4620,
      "Ġdisease": 4621,
      "mond": 4622,
      "tech": 4623,
      "Ġva": 4624,
      "Ġven": 4625,
      "ither": 4626,
      "Ġcutting": 4627,
      "Ġturk": 4628,
      "Ġmaintain": 4629,
      "Ġretirement": 4630,
      "ius": 4631,
      "Ġpun": 4632,
      "Ġpact": 4633,
      "Ġmist": 4634,
      "Ġchann": 4635,
      "Ġbehead": 4636,
      "Ġproj": 4637,
      "Ġspur": 4638,
      "ially": 4639,
      "Ġallawi": 4640,
      "Ġregular": 4641,
      "Ġcentury": 4642,
      "Ġtelecommunications": 4643,
      "Ġseems": 4644,
      "Ġphilippines": 4645,
      "75": 4646,
      "erate": 4647,
      "Ġfigh": 4648,
      "Ġmarathon": 4649,
      "Ġswiss": 4650,
      "burg": 4651,
      "Ġinqu": 4652,
      "Ġhub": 4653,
      "Ġmartha": 4654,
      "Ġbrussels": 4655,
      "Ġagrees": 4656,
      "Ġsupercomputer": 4657,
      "Ġprosecutors": 4658,
      "ional": 4659,
      "eline": 4660,
      "Ġrout": 4661,
      "ampa": 4662,
      "Ġdecide": 4663,
      "Ġreleases": 4664,
      "Ġcreated": 4665,
      "Ġbeyond": 4666,
      ".-": 4667,
      "Ġcities": 4668,
      "Ġbooks": 4669,
      "Ġunbeat": 4670,
      "Ġrefer": 4671,
      "Ġbott": 4672,
      "Ġinflu": 4673,
      "Ġmagaz": 4674,
      "Ġwait": 4675,
      "Ġpacers": 4676,
      "Ġquickly": 4677,
      "bury": 4678,
      "Ġmine": 4679,
      "Ġali": 4680,
      "elled": 4681,
      "Ġabuse": 4682,
      "Ġsuppor": 4683,
      "Ġconfident": 4684,
      "Ġedition": 4685,
      "Ġdeveloper": 4686,
      "Ġsuspects": 4687,
      "Ġdocuments": 4688,
      "Ġchanged": 4689,
      "Ġcompleted": 4690,
      "Ġprepared": 4691,
      "met": 4692,
      "Ġsens": 4693,
      "Ġlen": 4694,
      "Ġmissed": 4695,
      "Ġfrances": 4696,
      "Ġcuba": 4697,
      "where": 4698,
      "jay": 4699,
      "rec": 4700,
      "Ġcore": 4701,
      "Ġcold": 4702,
      "Ġimages": 4703,
      "Ġgrant": 4704,
      "Ġrelated": 4705,
      "Ġlooked": 4706,
      "Ġhamm": 4707,
      "Ġjew": 4708,
      "Ġcyber": 4709,
      "Ġdeclared": 4710,
      "35": 4711,
      "life": 4712,
      "ports": 4713,
      "te": 4714,
      "Ġach": 4715,
      "Ġiniti": 4716,
      "Ġage": 4717,
      "ordan": 4718,
      "Ġmajority": 4719,
      "Ġdistrict": 4720,
      "Ġmutual": 4721,
      "Ġredskins": 4722,
      "otype": 4723,
      "Ġfat": 4724,
      "Ġfine": 4725,
      "Ġwife": 4726,
      "sein": 4727,
      "Ġelimin": 4728,
      "Ġcharles": 4729,
      "Ġentire": 4730,
      "Ġfinished": 4731,
      "Ġpredict": 4732,
      "Ġpreviously": 4733,
      "Ġveteran": 4734,
      "Ġnortel": 4735,
      "bro": 4736,
      "card": 4737,
      "Ġgeneration": 4738,
      "Ġbeckham": 4739,
      "pc": 4740,
      "orter": 4741,
      "terror": 4742,
      "Ġcondit": 4743,
      "ounder": 4744,
      "elling": 4745,
      "ctic": 4746,
      "Ġbringing": 4747,
      "Ġconditions": 4748,
      "ias": 4749,
      "Ġdra": 4750,
      "ione": 4751,
      "Ġexec": 4752,
      "Ġmov": 4753,
      "Ġboy": 4754,
      "Ġcolumb": 4755,
      "Ġgenes": 4756,
      "Ġhelps": 4757,
      "Ġsmaller": 4758,
      "Ġapparently": 4759,
      "oke": 4760,
      "Ġta": 4761,
      "aded": 4762,
      "Ġsav": 4763,
      "Ġplus": 4764,
      "Ġheads": 4765,
      "Ġanticip": 4766,
      "Ġadding": 4767,
      "Ġactivity": 4768,
      "Ġpreparing": 4769,
      "Ġpga": 4770,
      "Ġholy": 4771,
      "Ġdenied": 4772,
      "Ġvoted": 4773,
      "Ġdifficult": 4774,
      "pre": 4775,
      "Ġburn": 4776,
      "Ġbought": 4777,
      "eded": 4778,
      "Ġagent": 4779,
      "struction": 4780,
      "Ġinclude": 4781,
      "Ġjoined": 4782,
      "Ġregional": 4783,
      "lus": 4784,
      "nd": 4785,
      "Ġhills": 4786,
      "icop": 4787,
      "Ġjumped": 4788,
      "Ġprop": 4789,
      "uburn": 4790,
      "ght": 4791,
      "Ġsought": 4792,
      "Ġdenver": 4793,
      "Ġwithdrawal": 4794,
      "orth": 4795,
      "Ġriver": 4796,
      "anda": 4797,
      "Ġalan": 4798,
      "Ġovertime": 4799,
      "Ġparties": 4800,
      "Ġputting": 4801,
      "Ġcommissioner": 4802,
      "Ġnatural": 4803,
      "Ġcraig": 4804,
      "Ġmagazine": 4805,
      "sol": 4806,
      "Ġcents": 4807,
      "Ġandy": 4808,
      "Ġworm": 4809,
      "inez": 4810,
      "Ġhelicop": 4811,
      "Ġbombings": 4812,
      "Ġclean": 4813,
      "Ġspyware": 4814,
      "bar": 4815,
      "Ġjury": 4816,
      "Ġflo": 4817,
      "aval": 4818,
      "Ġconserv": 4819,
      "Ġsetting": 4820,
      "Ġsells": 4821,
      "Ġspeculation": 4822,
      "hol": 4823,
      "Ġgone": 4824,
      "Ġgym": 4825,
      "Ġeighth": 4826,
      "Ġjordan": 4827,
      "Ġplays": 4828,
      "Ġupcoming": 4829,
      "iban": 4830,
      "Ġindiana": 4831,
      "Ġmartinez": 4832,
      "Ġpicture": 4833,
      "Ġinquir": 4834,
      "Ġaz": 4835,
      "Ġhole": 4836,
      "acity": 4837,
      "Ġchart": 4838,
      "Ġvod": 4839,
      "lands": 4840,
      "Ġschilling": 4841,
      "Ġterrorists": 4842,
      "Ġreceiver": 4843,
      "Ġkidnappers": 4844,
      "Ġprisoners": 4845,
      "Ġopportunity": 4846,
      "Ġjam": 4847,
      "ivid": 4848,
      "Ġperfect": 4849,
      "Ġprince": 4850,
      "clus": 4851,
      "Ġpriority": 4852,
      "Ġtent": 4853,
      "Ġtiny": 4854,
      "Ġauburn": 4855,
      "onse": 4856,
      "Ġpad": 4857,
      "Ġhaw": 4858,
      "ously": 4859,
      "Ġtops": 4860,
      "Ġchiefs": 4861,
      "Ġeduc": 4862,
      "ruption": 4863,
      "Ġchampionships": 4864,
      "Ġturning": 4865,
      "Ġdonald": 4866,
      "Ġstrateg": 4867,
      "side": 4868,
      "ami": 4869,
      "Ġkev": 4870,
      "emy": 4871,
      "Ġrooney": 4872,
      "Ġgovernor": 4873,
      "Ġindianapolis": 4874,
      "Ġfinding": 4875,
      "Ġtrouble": 4876,
      "Ġnigerian": 4877,
      "Ġravens": 4878,
      "aling": 4879,
      "Ġchase": 4880,
      "Ġbarry": 4881,
      "Ġhamid": 4882,
      "Ġfriend": 4883,
      "Ġenvironmental": 4884,
      "Ġearthquake": 4885,
      "win": 4886,
      "Ġplun": 4887,
      "ecting": 4888,
      "eful": 4889,
      "Ġinstant": 4890,
      "Ġbreaking": 4891,
      "dow": 4892,
      "Ġsbc": 4893,
      "Ġholl": 4894,
      "Ġcomments": 4895,
      "acked": 4896,
      "abilities": 4897,
      "izes": 4898,
      "Ġcommand": 4899,
      "afone": 4900,
      "Ġincreases": 4901,
      "castle": 4902,
      "Ġdirectors": 4903,
      "Ġboosted": 4904,
      "Ġclashes": 4905,
      "tml": 4906,
      "horn": 4907,
      "ki": 4908,
      "eme": 4909,
      "Ġquiet": 4910,
      "iber": 4911,
      "aze": 4912,
      "Ġroundup": 4913,
      "ikely": 4914,
      "Ġchris": 4915,
      "generation": 4916,
      "Ġshooting": 4917,
      "Ġvacc": 4918,
      "Ġpedro": 4919,
      "iro": 4920,
      "Ġdi": 4921,
      "ador": 4922,
      "aint": 4923,
      "ocol": 4924,
      "Ġalways": 4925,
      "ablish": 4926,
      "rys": 4927,
      "bean": 4928,
      "Ġstronger": 4929,
      "Ġadvis": 4930,
      "Ġinstit": 4931,
      "Ġbreaks": 4932,
      "Ġresponse": 4933,
      "assini": 4934,
      "Ġhussein": 4935,
      "rig": 4936,
      "Ġott": 4937,
      "election": 4938,
      "Ġworks": 4939,
      "Ġcolts": 4940,
      "Ġextension": 4941,
      "Ġcamera": 4942,
      "Ġbelieved": 4943,
      "Ġmultip": 4944,
      "Ġproperty": 4945,
      "Ġlanka": 4946,
      "Ġmovies": 4947,
      "Ġkevin": 4948,
      "mates": 4949,
      "wing": 4950,
      "Ġcassini": 4951,
      "igroup": 4952,
      "Ġspect": 4953,
      "Ġwilling": 4954,
      "Ġtruck": 4955,
      "Ġmilan": 4956,
      "Ġincludes": 4957,
      "incinn": 4958,
      "atoday": 4959,
      "Ġunbeaten": 4960,
      "Ġvodafone": 4961,
      "incinnati": 4962,
      "fielder": 4963,
      "Ġwond": 4964,
      "Ġwenger": 4965,
      "Ġmig": 4966,
      "Ġdun": 4967,
      "Ġrub": 4968,
      "Ġcongo": 4969,
      "Ġminor": 4970,
      "Ġphel": 4971,
      "ierce": 4972,
      "Ġkeeping": 4973,
      "Ġimproved": 4974,
      "Ġcrashed": 4975,
      "Ġsilicon": 4976,
      "Ġinvolved": 4977,
      "Ġnarrow": 4978,
      "Ġladen": 4979,
      "cr": 4980,
      "hit": 4981,
      "lers": 4982,
      "Ġcincinnati": 4983,
      "Ġbab": 4984,
      "enty": 4985,
      "Ġarth": 4986,
      "Ġremote": 4987,
      "Ġdrops": 4988,
      "Ġbeta": 4989,
      "Ġqaeda": 4990,
      "Ġtransport": 4991,
      "Ġcamer": 4992,
      "Ġlibr": 4993,
      "Ġpremiers": 4994,
      "Ġsymb": 4995,
      "Ġscotland": 4996,
      "Ġphelps": 4997,
      "Ġice": 4998,
      "Ġtampa": 4999,
      "Ġsle": 5000,
      "eland": 5001,
      "Ġchech": 5002,
      "Ġrobert": 5003,
      "Ġdisaster": 5004,
      "Ġ300": 5005,
      "Ġbigley": 5006,
      "Ġtries": 5007,
      "Ġberlin": 5008,
      "Ġactivities": 5009,
      "Ġbelieves": 5010,
      "Ġcitiz": 5011,
      "html": 5012,
      "ero": 5013,
      "Ġthr": 5014,
      "Ġnom": 5015,
      "Ġchem": 5016,
      "Ġnewcastle": 5017,
      "Ġdevast": 5018,
      "Ġhardware": 5019,
      "Ġvirtual": 5020,
      "Ġspaceship": 5021,
      "Ġbomber": 5022,
      "Ġlions": 5023,
      "Ġprelim": 5024,
      "Ġassassin": 5025,
      "Ġtaliban": 5026,
      "Ġsolution": 5027,
      "Ġislamabad": 5028,
      "Ġreplac": 5029,
      "Ġcommerce": 5030,
      "Ġcarrying": 5031,
      "Ġdatabase": 5032,
      "Ġsupporters": 5033,
      "ao": 5034,
      "bour": 5035,
      "eas": 5036,
      "work": 5037,
      "Ġpaper": 5038,
      "Ġble": 5039,
      "ription": 5040,
      "Ġspin": 5041,
      "Ġseoul": 5042,
      "Ġblu": 5043,
      "Ġbroken": 5044,
      "enna": 5045,
      "Ġfailure": 5046,
      "ucture": 5047,
      "Ġsteelers": 5048,
      "Ġargentina": 5049,
      "Ġturkish": 5050,
      "cont": 5051,
      "za": 5052,
      "edia": 5053,
      "Ġmat": 5054,
      "Ġlows": 5055,
      "urch": 5056,
      "earing": 5057,
      "Ġcover": 5058,
      "Ġ32": 5059,
      "Ġrebounds": 5060,
      "Ġfollow": 5061,
      "Ġdemocracy": 5062,
      "400": 5063,
      "cle": 5064,
      "hib": 5065,
      "lins": 5066,
      "rd": 5067,
      "Ġhung": 5068,
      "Ġjon": 5069,
      "Ġdrives": 5070,
      "Ġallegedly": 5071,
      "Ġlimited": 5072,
      "Ġrescue": 5073,
      "eastern": 5074,
      "iners": 5075,
      "ilar": 5076,
      "Ġkod": 5077,
      "Ġlewis": 5078,
      "Ġattention": 5079,
      "Ġslide": 5080,
      "Ġsentenced": 5081,
      "Ġcomeback": 5082,
      "ka": 5083,
      "part": 5084,
      "Ġds": 5085,
      "Ġunf": 5086,
      "isting": 5087,
      "abor": 5088,
      "Ġlawmakers": 5089,
      "Ġlabour": 5090,
      "Ġpromot": 5091,
      "Ġsemi": 5092,
      "Ġcarlos": 5093,
      "40": 5094,
      "Ġod": 5095,
      "asc": 5096,
      "Ġstan": 5097,
      "Ġrather": 5098,
      "Ġjagu": 5099,
      "ogn": 5100,
      "Ġ33": 5101,
      "Ġmatches": 5102,
      "Ġestablish": 5103,
      "Ġrapid": 5104,
      "Ġvenezuela": 5105,
      "ique": 5106,
      "pir": 5107,
      "Ġfields": 5108,
      "Ġrein": 5109,
      "Ġspend": 5110,
      "ibly": 5111,
      "aves": 5112,
      "Ġofficers": 5113,
      "Ġcounty": 5114,
      "Ġnationwide": 5115,
      "Ġpackers": 5116,
      "Ġpushed": 5117,
      "Ġpetro": 5118,
      "19": 5119,
      "Ġens": 5120,
      "Ġwave": 5121,
      "Ġanth": 5122,
      "ersey": 5123,
      "Ġheading": 5124,
      "Ġbegun": 5125,
      "million": 5126,
      "Ġpi": 5127,
      "etary": 5128,
      "apse": 5129,
      "Ġcontest": 5130,
      "Ġsurged": 5131,
      "Ġdoing": 5132,
      "Ġleadership": 5133,
      "Ġlove": 5134,
      "Ġpoised": 5135,
      "Ġinquiry": 5136,
      "rysler": 5137,
      "ano": 5138,
      "station": 5139,
      "Ġrick": 5140,
      "Ġrepe": 5141,
      "Ġgraph": 5142,
      "Ġcrown": 5143,
      "55": 5144,
      "power": 5145,
      "san": 5146,
      "aceut": 5147,
      "Ġsues": 5148,
      "Ġfees": 5149,
      "Ġentered": 5150,
      "Ġmotorola": 5151,
      "Ġcrimes": 5152,
      "Ġcitigroup": 5153,
      "Ġwebsite": 5154,
      "Ġscoring": 5155,
      "Ġappl": 5156,
      "Ġrecomm": 5157,
      "Ġprin": 5158,
      "Ġsued": 5159,
      "Ġinvestor": 5160,
      "Ġmotion": 5161,
      "Ġradical": 5162,
      "Ġerup": 5163,
      "Ġcontinuing": 5164,
      "Ġadmitted": 5165,
      "Ġeric": 5166,
      "Ġsides": 5167,
      "Ġgord": 5168,
      "aming": 5169,
      "umn": 5170,
      "ivity": 5171,
      "Ġindivid": 5172,
      "Ġplanes": 5173,
      "Ġjoe": 5174,
      "Ġrevolution": 5175,
      "Ġpremiership": 5176,
      "cos": 5177,
      "gian": 5178,
      "oning": 5179,
      "Ġkind": 5180,
      "Ġaltern": 5181,
      "Ġmarg": 5182,
      "Ġphill": 5183,
      "Ġimpress": 5184,
      "certain": 5185,
      "sharing": 5186,
      "Ġsimilar": 5187,
      "Ġscreen": 5188,
      "Ġvehicle": 5189,
      "Ġottawa": 5190,
      "zy": 5191,
      "Ġbul": 5192,
      "ata": 5193,
      "Ġagencies": 5194,
      "Ġwasn": 5195,
      "Ġfranch": 5196,
      "Ġuef": 5197,
      "Ġphotos": 5198,
      "Ġfeature": 5199,
      "Ġclinch": 5200,
      "Ġchoice": 5201,
      "Ġnobel": 5202,
      "Ġadvantage": 5203,
      "Ġuefa": 5204,
      "aver": 5205,
      "sis": 5206,
      "sym": 5207,
      "Ġbh": 5208,
      "Ġlives": 5209,
      "omo": 5210,
      "Ġwords": 5211,
      "Ġaband": 5212,
      "type": 5213,
      "Ġhanded": 5214,
      "Ġschools": 5215,
      "Ġinvestigating": 5216,
      "Ġorganiz": 5217,
      "prof": 5218,
      "Ġseparate": 5219,
      "Ġhousing": 5220,
      "Ġrenewed": 5221,
      ")--": 5222,
      "65": 5223,
      "aur": 5224,
      "cape": 5225,
      "Ġdog": 5226,
      "agon": 5227,
      "Ġalive": 5228,
      "Ġcontrib": 5229,
      "Ġ45": 5230,
      "Ġmayor": 5231,
      "Ġshrine": 5232,
      "Ġsituation": 5233,
      "racts": 5234,
      "Ġunlikely": 5235,
      "Ġmcl": 5236,
      "Ġjr": 5237,
      "Ġdeclined": 5238,
      "Ġgolden": 5239,
      "Ġmorgan": 5240,
      "Ġdescrib": 5241,
      "Ġsplit": 5242,
      "yad": 5243,
      "Ġmr": 5244,
      "Ġdial": 5245,
      "Ġren": 5246,
      "Ġasks": 5247,
      "Ġpreview": 5248,
      "Ġii": 5249,
      "Ġsubst": 5250,
      "Ġpromised": 5251,
      "Ġatlantic": 5252,
      "Ġresigned": 5253,
      "Ġtackle": 5254,
      "Ġdisappointing": 5255,
      "bes": 5256,
      "ales": 5257,
      "oto": 5258,
      "Ġke": 5259,
      "Ġkmart": 5260,
      "Ġplaced": 5261,
      "istons": 5262,
      "Ġovernight": 5263,
      "Ġbuff": 5264,
      "Ġmedic": 5265,
      "Ġemail": 5266,
      "Ġdeadl": 5267,
      "minent": 5268,
      "Ġjoins": 5269,
      "Ġexplosives": 5270,
      "Ġimmediately": 5271,
      "cons": 5272,
      "Ġsound": 5273,
      "Ġnewly": 5274,
      "ipped": 5275,
      "Ġsoaring": 5276,
      "place": 5277,
      "Ġremaining": 5278,
      "rawl": 5279,
      "Ġviolent": 5280,
      "Ġvoip": 5281,
      "Ġincreasingly": 5282,
      "finance": 5283,
      "Ġgymn": 5284,
      "oom": 5285,
      "Ġtend": 5286,
      "eld": 5287,
      "oworld": 5288,
      "Ġ90": 5289,
      "Ġcaught": 5290,
      "attled": 5291,
      "22": 5292,
      "die": 5293,
      "hu": 5294,
      "had": 5295,
      "Ġcarter": 5296,
      "Ġful": 5297,
      "Ġhang": 5298,
      "assi": 5299,
      "airo": 5300,
      "Ġprotocol": 5301,
      "Ġwayne": 5302,
      "Ġlineup": 5303,
      "Ġathletics": 5304,
      "Ġwidely": 5305,
      "Ġvendors": 5306,
      "Ġmalaysia": 5307,
      "Ġself": 5308,
      "Ġsidel": 5309,
      "anmar": 5310,
      "Ġparent": 5311,
      "otel": 5312,
      "Ġabduc": 5313,
      "Ġliqu": 5314,
      "Ġstret": 5315,
      "Ġacquired": 5316,
      "Ġgreater": 5317,
      "Ġgrab": 5318,
      "irac": 5319,
      "Ġjersey": 5320,
      "uggle": 5321,
      "Ġtrig": 5322,
      "Ġels": 5323,
      "Ġprim": 5324,
      "Ġgovernments": 5325,
      "Ġcapacity": 5326,
      "Ġdeputy": 5327,
      "Ġauthority": 5328,
      "Ġmyanmar": 5329,
      "Ġmiller": 5330,
      "Ġmountain": 5331,
      "Ġcriticism": 5332,
      "gas": 5333,
      "ril": 5334,
      "aters": 5335,
      "Ġadobe": 5336,
      "Ġdefend": 5337,
      "rent": 5338,
      "Ġnewsfactor": 5339,
      "Ġgrid": 5340,
      "Ġlaunching": 5341,
      "Ġcentre": 5342,
      "Ġchallenges": 5343,
      "general": 5344,
      "Ġferg": 5345,
      "Ġseparat": 5346,
      "Ġlawyer": 5347,
      "Ġpreliminary": 5348,
      "mission": 5349,
      "ern": 5350,
      "Ġpf": 5351,
      "Ġwood": 5352,
      "Ġchances": 5353,
      "apers": 5354,
      "Ġuncertain": 5355,
      "Ġlee": 5356,
      "Ġexam": 5357,
      "Ġweight": 5358,
      "Ġmeans": 5359,
      "Ġviet": 5360,
      "Ġsharing": 5361,
      "Ġtraditional": 5362,
      "Ġpeacekeep": 5363,
      "Ġera": 5364,
      "newsfactor": 5365,
      "Ġfriends": 5366,
      "60": 5367,
      "hman": 5368,
      "pa": 5369,
      "Ġpath": 5370,
      "Ġelse": 5371,
      "Ġbarcel": 5372,
      "Ġcompete": 5373,
      "Ġrespond": 5374,
      "Ġwaiting": 5375,
      "Ġegyptian": 5376,
      "Ġmachine": 5377,
      "Ġvehicles": 5378,
      "Ġconstruction": 5379,
      "Ġ38": 5380,
      "Ġtechnical": 5381,
      "Ġgener": 5382,
      "Ġiranian": 5383,
      "Ġstatus": 5384,
      "Ġcondem": 5385,
      "Ġencour": 5386,
      "Ġsongs": 5387,
      "Ġrefugee": 5388,
      "Ġrestructuring": 5389,
      "Ġpharmaceut": 5390,
      "uing": 5391,
      "arq": 5392,
      "room": 5393,
      "Ġgary": 5394,
      "Ġrevers": 5395,
      "vez": 5396,
      "Ġapart": 5397,
      "Ġoverall": 5398,
      "Ġenh": 5399,
      "Ġphys": 5400,
      "Ġ41": 5401,
      "Ġpatients": 5402,
      "Ġsucceed": 5403,
      "Ġsumm": 5404,
      "Ġidea": 5405,
      "Ġkodak": 5406,
      "Ġrent": 5407,
      "Ġunits": 5408,
      "umble": 5409,
      "argo": 5410,
      "berry": 5411,
      "Ġofficially": 5412,
      "Ġrecording": 5413,
      "Ġjobless": 5414,
      "Ġsharap": 5415,
      "Ġthreatens": 5416,
      "Ġevening": 5417,
      "Ġbrian": 5418,
      "Ġwelcom": 5419,
      "Ġvendor": 5420,
      "ini": 5421,
      "Ġsue": 5422,
      "Ġsears": 5423,
      "oth": 5424,
      "Ġkim": 5425,
      "aints": 5426,
      "Ġheav": 5427,
      "istance": 5428,
      "Ġenj": 5429,
      "Ġwinds": 5430,
      "berg": 5431,
      "Ġattract": 5432,
      "Ġattacked": 5433,
      "iversary": 5434,
      "Ġscientific": 5435,
      "Ġbanned": 5436,
      "Ġinstall": 5437,
      "Ġtowards": 5438,
      "Ġporn": 5439,
      "Ġrat": 5440,
      "Ġalert": 5441,
      "Ġbright": 5442,
      "Ġguid": 5443,
      "Ġbids": 5444,
      "Ġedwards": 5445,
      "Ġsuspect": 5446,
      "Ġprofessional": 5447,
      "Ġsteady": 5448,
      "Ġjewish": 5449,
      "Ġsharapova": 5450,
      "Ġpt": 5451,
      "Ġmail": 5452,
      "Ġnick": 5453,
      "Ġgap": 5454,
      "Ġkobe": 5455,
      "Ġvowed": 5456,
      "Ġseized": 5457,
      "Ġreporting": 5458,
      "ookup": 5459,
      "Ġworker": 5460,
      "buster": 5461,
      "Ġcaptured": 5462,
      "Ġhackers": 5463,
      "Ġchechen": 5464,
      "arqawi": 5465,
      "05": 5466,
      "bel": 5467,
      "hen": 5468,
      "rast": 5469,
      "Ġboun": 5470,
      "asion": 5471,
      "Ġray": 5472,
      "issions": 5473,
      "Ġanniversary": 5474,
      "Ġbacked": 5475,
      "Ġbrew": 5476,
      "Ġstudios": 5477,
      "Ġwalt": 5478,
      "Ġbirth": 5479,
      "Ġlebanon": 5480,
      "Ġsteroid": 5481,
      "Ġchannel": 5482,
      "Ġbarcelona": 5483,
      ".;": 5484,
      "Ġko": 5485,
      "Ġvows": 5486,
      "Ġusa": 5487,
      "Ġagassi": 5488,
      "ipe": 5489,
      "Ġmarines": 5490,
      "antec": 5491,
      "Ġappoin": 5492,
      "Ġallowing": 5493,
      "Ġclaiming": 5494,
      "Ġpassenger": 5495,
      "Ġcurt": 5496,
      "Ġconvicted": 5497,
      "Ġplayoffs": 5498,
      "Ġrw": 5499,
      "Ġunless": 5500,
      "seeded": 5501,
      "Ġcorner": 5502,
      "Ġmilitia": 5503,
      "Ġvienna": 5504,
      "Ġevents": 5505,
      "Ġcollapse": 5506,
      "Ġoutsour": 5507,
      "Ġsnow": 5508,
      "Ġshipping": 5509,
      "Ġspammers": 5510,
      "Ġlifted": 5511,
      "Ġjeanne": 5512,
      "Ġgordon": 5513,
      "cost": 5514,
      "jhtml": 5515,
      "py": 5516,
      "pass": 5517,
      "Ġwick": 5518,
      "Ġnavy": 5519,
      "urning": 5520,
      "Ġspitzer": 5521,
      "ective": 5522,
      "Ġresources": 5523,
      "Ġstreets": 5524,
      "Ġdevelopers": 5525,
      "Ġbench": 5526,
      "ofi": 5527,
      "Ġmulti": 5528,
      "Ġbriefly": 5529,
      "Ġjacques": 5530,
      "Ġachie": 5531,
      "Ġvietnam": 5532,
      "Ġstern": 5533,
      "Ġfred": 5534,
      "Ġmand": 5535,
      "Ġmatt": 5536,
      "igious": 5537,
      "Ġshell": 5538,
      "Ġshots": 5539,
      "Ġups": 5540,
      "Ġmariners": 5541,
      "ords": 5542,
      "Ġ700": 5543,
      "Ġvijay": 5544,
      "Ġdemocrats": 5545,
      "Ġlarry": 5546,
      "Ġdefeated": 5547,
      "Ġcerem": 5548,
      "Ġrallied": 5549,
      "49": 5550,
      "dom": 5551,
      "iary": 5552,
      "sf": 5553,
      "Ġbos": 5554,
      "Ġgate": 5555,
      "uth": 5556,
      "quotel": 5557,
      "Ġshan": 5558,
      "Ġdeleg": 5559,
      "Ġinfotype": 5560,
      "Ġtitans": 5561,
      "Ġqcat": 5562,
      "Ġqtype": 5563,
      "Ġblockbuster": 5564,
      "Ġferr": 5565,
      "Ġsymantec": 5566,
      "Ġlux": 5567,
      "financequotel": 5568,
      "financequotelookup": 5569,
      "Ġign": 5570,
      "ination": 5571,
      "Ġhike": 5572,
      "Ġcontracts": 5573,
      "iction": 5574,
      "Ġpartic": 5575,
      "spam": 5576,
      "Ġassemb": 5577,
      "Ġproviders": 5578,
      "Ġlegislation": 5579,
      "Ġancient": 5580,
      "Ġpfizer": 5581,
      "aug": 5582,
      "link": 5583,
      "sadr": 5584,
      "inos": 5585,
      "Ġfounder": 5586,
      "Ġol": 5587,
      "arily": 5588,
      "Ġhunt": 5589,
      "idered": 5590,
      "Ġstruggle": 5591,
      "Ġtrail": 5592,
      "Ġsquare": 5593,
      "Ġastronom": 5594,
      "Ġgymnast": 5595,
      "road": 5596,
      "Ġuser": 5597,
      "Ġedged": 5598,
      "Ġdenies": 5599,
      "Ġjailed": 5600,
      "Ġtempor": 5601,
      "Ġcowb": 5602,
      "fall": 5603,
      "Ġcry": 5604,
      "Ġfam": 5605,
      "Ġpistons": 5606,
      "icious": 5607,
      "Ġforum": 5608,
      "aked": 5609,
      "Ġsurround": 5610,
      "Ġterrit": 5611,
      "Ġreaches": 5612,
      "Ġmosque": 5613,
      "Ġmessaging": 5614,
      "Ġsquad": 5615,
      "Ġoccup": 5616,
      "Ġoce": 5617,
      "Ġonto": 5618,
      "aped": 5619,
      "Ġambit": 5620,
      "ibur": 5621,
      "Ġrecogn": 5622,
      "Ġcru": 5623,
      "Ġmeg": 5624,
      "ode": 5625,
      "Ġpromises": 5626,
      "Ġimproving": 5627,
      "Ġgaming": 5628,
      "Ġpolitic": 5629,
      "Ġvaccine": 5630,
      "Ġsummary": 5631,
      "state": 5632,
      "urity": 5633,
      "Ġfrust": 5634,
      "Ġability": 5635,
      "Ġrefused": 5636,
      "Ġinjuries": 5637,
      "Ġthreatening": 5638,
      "Ġloses": 5639,
      "Ġbrazilian": 5640,
      "Ġmeasures": 5641,
      "iburton": 5642,
      "fort": 5643,
      "Ġfda": 5644,
      "Ġmah": 5645,
      "Ġnca": 5646,
      "Ġgard": 5647,
      "ello": 5648,
      "Ġpervez": 5649,
      "Ġprepare": 5650,
      "Ġexpressed": 5651,
      "Ġhalliburton": 5652,
      "Ġthomas": 5653,
      "col": 5654,
      "Ġfcc": 5655,
      "Ġpione": 5656,
      "enko": 5657,
      "Ġgall": 5658,
      "ume": 5659,
      "Ġshowdown": 5660,
      "Ġviruses": 5661,
      "Ġcritics": 5662,
      "Ġidentity": 5663,
      "Ġpictures": 5664,
      "Ġbolster": 5665,
      "Ġsemifinals": 5666,
      "sec": 5667,
      "Ġfit": 5668,
      "iana": 5669,
      "Ġarctic": 5670,
      "Ġnetworking": 5671,
      "Ġextends": 5672,
      "Ġevac": 5673,
      "Ġprocessors": 5674,
      "Ġshoppers": 5675,
      "Ġbitter": 5676,
      "Ġgenesis": 5677,
      "Ġncaa": 5678,
      "gs": 5679,
      "haps": 5680,
      "oen": 5681,
      "Ġsadr": 5682,
      "Ġfoods": 5683,
      "Ġbuc": 5684,
      "Ġhd": 5685,
      "Ġdiam": 5686,
      "leans": 5687,
      "Ġkur": 5688,
      "Ġinterf": 5689,
      "efin": 5690,
      "Ġrefl": 5691,
      "Ġmerc": 5692,
      "roll": 5693,
      "Ġfactory": 5694,
      "Ġinvolving": 5695,
      "Ġeducation": 5696,
      "04": 5697,
      "hood": 5698,
      "ser": 5699,
      "Ġfather": 5700,
      "Ġbbc": 5701,
      "Ġbrawl": 5702,
      "Ġanton": 5703,
      "Ġeased": 5704,
      "ste": 5705,
      "estone": 5706,
      "ager": 5707,
      "Ġquite": 5708,
      "Ġoffset": 5709,
      "Ġpostseason": 5710,
      "Ġtaxes": 5711,
      "Ġmessages": 5712,
      "Ġdoubled": 5713,
      "Ġarchit": 5714,
      "Ġcreating": 5715,
      "Ġdramatic": 5716,
      "Ġankle": 5717,
      "dollar": 5718,
      "gb": 5719,
      "oil": 5720,
      "zen": 5721,
      "icals": 5722,
      "lement": 5723,
      "Ġaggress": 5724,
      "Ġpresent": 5725,
      "Ġorleans": 5726,
      "Ġinternal": 5727,
      "Ġsoy": 5728,
      "posed": 5729,
      "Ġtransfer": 5730,
      "related": 5731,
      "Ġbrowns": 5732,
      "Ġpowers": 5733,
      "Ġdangerous": 5734,
      "70": 5735,
      "sters": 5736,
      "Ġtab": 5737,
      "Ġsigning": 5738,
      "engers": 5739,
      "Ġll": 5740,
      "Ġgren": 5741,
      "Ġreject": 5742,
      "Ġchurch": 5743,
      "Ġprove": 5744,
      "Ġworry": 5745,
      "Ġconsidered": 5746,
      "elson": 5747,
      "Ġfailing": 5748,
      "Ġeverything": 5749,
      "Ġcondition": 5750,
      "Ġdrove": 5751,
      "Ġcapsule": 5752,
      "21": 5753,
      "Ġpushing": 5754,
      "Ġlapt": 5755,
      "Ġru": 5756,
      "Ġjays": 5757,
      "rier": 5758,
      "Ġabs": 5759,
      "Ġseasons": 5760,
      "Ġinfring": 5761,
      "Ġeditor": 5762,
      "shot": 5763,
      "Ġpractices": 5764,
      "Ġcombat": 5765,
      "Ġbenefit": 5766,
      "Ġhenman": 5767,
      "Ġtied": 5768,
      "ican": 5769,
      "Ġlangu": 5770,
      "ivo": 5771,
      "Ġexpands": 5772,
      "Ġperhaps": 5773,
      "Ġslump": 5774,
      "plan": 5775,
      "central": 5776,
      "ements": 5777,
      "Ġcease": 5778,
      "Ġpole": 5779,
      "Ġrobot": 5780,
      "Ġcivilians": 5781,
      "Ġpicked": 5782,
      "ritis": 5783,
      "Ġranking": 5784,
      "final": 5785,
      "irus": 5786,
      "rav": 5787,
      "Ġlonghorn": 5788,
      "Ġtraded": 5789,
      "Ġemerged": 5790,
      "Ġcooperation": 5791,
      "Ġdismissed": 5792,
      "Ġmanufacturer": 5793,
      "Ġsurprising": 5794,
      "Ġsiege": 5795,
      "Ġaer": 5796,
      "inch": 5797,
      "Ġmir": 5798,
      "itude": 5799,
      "ature": 5800,
      "Ġhamp": 5801,
      "Ġchirac": 5802,
      "Ġbrain": 5803,
      "Ġrecr": 5804,
      "Ġfaced": 5805,
      "Ġpossibly": 5806,
      "Ġvegas": 5807,
      "Ġgarc": 5808,
      "Ġtrigger": 5809,
      "Ġdiamond": 5810,
      "wich": 5811,
      "Ġeither": 5812,
      "Ġtrium": 5813,
      "web": 5814,
      "Ġsudden": 5815,
      "Ġblackberry": 5816,
      "Ġpolitics": 5817,
      "Ġfighters": 5818,
      "Ġgraphics": 5819,
      "aida": 5820,
      "xim": 5821,
      "Ġthai": 5822,
      "Ġdoping": 5823,
      "Ġgal": 5824,
      "Ġkofi": 5825,
      "Ġbea": 5826,
      "Ġapril": 5827,
      "Ġannouncing": 5828,
      "italia": 5829,
      "Ġsuspension": 5830,
      "awks": 5831,
      "Ġdriving": 5832,
      "Ġcitizens": 5833,
      "dy": 5834,
      "Ġnv": 5835,
      "Ġongoing": 5836,
      "etts": 5837,
      "thro": 5838,
      "emen": 5839,
      "Ġexport": 5840,
      "Ġserena": 5841,
      "Ġaccident": 5842,
      "Ġrelie": 5843,
      "Ġdriven": 5844,
      "Ġjournalists": 5845,
      "Ġcircuit": 5846,
      "Ġbobby": 5847,
      "Ġcolombia": 5848,
      "Ġbottom": 5849,
      "Ġarthritis": 5850,
      "Ġspaceshipone": 5851,
      "Ġfranchise": 5852,
      "Ġoutsourcing": 5853,
      "Ġtriumph": 5854,
      "bu": 5855,
      "ui": 5856,
      "erc": 5857,
      "tering": 5858,
      "quarters": 5859,
      "Ġalitalia": 5860,
      "Ġwars": 5861,
      "Ġbacking": 5862,
      "Ġ65": 5863,
      "Ġswe": 5864,
      "Ġorganis": 5865,
      "Ġfigure": 5866,
      "known": 5867,
      "Ġsubscribers": 5868,
      "Ġhill": 5869,
      "Ġlyn": 5870,
      "Ġcrime": 5871,
      "Ġboom": 5872,
      "Ġswim": 5873,
      "Ġthroughout": 5874,
      "Ġpassengers": 5875,
      "Ġapproves": 5876,
      "inois": 5877,
      "Ġryan": 5878,
      "Ġresignation": 5879,
      "Ġresolve": 5880,
      "Ġastronauts": 5881,
      "Ġtoyota": 5882,
      "18": 5883,
      "Ġho": 5884,
      "usetts": 5885,
      "omes": 5886,
      "achusetts": 5887,
      "Ġbigger": 5888,
      "Ġdrivers": 5889,
      "Ġreceive": 5890,
      "Ġflying": 5891,
      "Ġcowboys": 5892,
      "29": 5893,
      "47": 5894,
      "eason": 5895,
      "ground": 5896,
      "oned": 5897,
      "Ġnether": 5898,
      "Ġpreseason": 5899,
      "Ġbrings": 5900,
      "Ġplaystation": 5901,
      "ghai": 5902,
      "Ġparticip": 5903,
      "Ġvik": 5904,
      "Ġexplo": 5905,
      "Ġinjuring": 5906,
      "Ġvisiting": 5907,
      "Ġexpert": 5908,
      "Ġmassachusetts": 5909,
      "Ġlibya": 5910,
      "Ġlockout": 5911,
      "Ġoverseas": 5912,
      "aa": 5913,
      "aret": 5914,
      "Ġweaker": 5915,
      "Ġbridge": 5916,
      "Ġfloods": 5917,
      "Ġcorruption": 5918,
      "Ġdefin": 5919,
      "Ġremo": 5920,
      "Ġrebound": 5921,
      "Ġindians": 5922,
      "Ġdiscount": 5923,
      "Ġcleared": 5924,
      "Ġeveryone": 5925,
      "Ġresigns": 5926,
      "Ġexpanding": 5927,
      "Ġroman": 5928,
      "Ġtells": 5929,
      "Ġkyoto": 5930,
      "Ġshanghai": 5931,
      "bac": 5932,
      "big": 5933,
      "kore": 5934,
      "Ġpct": 5935,
      "amo": 5936,
      "Ġholes": 5937,
      "Ġjoining": 5938,
      "Ġmosul": 5939,
      "Ġliber": 5940,
      "Ġconnection": 5941,
      "Ġobser": 5942,
      "Ġopponents": 5943,
      "Ġnetherlands": 5944,
      "rect": 5945,
      "Ġfires": 5946,
      "Ġmol": 5947,
      "Ġlake": 5948,
      "Ġaside": 5949,
      "Ġserve": 5950,
      "Ġperu": 5951,
      "Ġflags": 5952,
      "Ġcarib": 5953,
      "azer": 5954,
      "Ġcolumn": 5955,
      "Ġmanaged": 5956,
      "Ġfoundation": 5957,
      "Ġsuccessor": 5958,
      "Ġdownloads": 5959,
      "Ġdozen": 5960,
      "Ġmaryland": 5961,
      "Ġcameras": 5962,
      "Ġfergus": 5963,
      "reen": 5964,
      "Ġdur": 5965,
      "Ġgained": 5966,
      "Ġash": 5967,
      "Ġkenn": 5968,
      "Ġcompens": 5969,
      "endum": 5970,
      "Ġmarlins": 5971,
      "Ġimpl": 5972,
      "lando": 5973,
      "Ġ76": 5974,
      "Ġwashingtonpost": 5975,
      "Ġadditional": 5976,
      "Ġscientist": 5977,
      "Ġexperiment": 5978,
      "Ġtreasuries": 5979,
      "Ġhappy": 5980,
      "Ġdiplomats": 5981,
      "Ġconclud": 5982,
      "\"\\": 5983,
      "core": 5984,
      "Ġfate": 5985,
      "Ġgad": 5986,
      "Ġorlando": 5987,
      "Ġwarnings": 5988,
      "Ġpostpon": 5989,
      "Ġinsisted": 5990,
      "Ġremember": 5991,
      "ooth": 5992,
      "Ġpaying": 5993,
      "Ġfreeze": 5994,
      "Ġhotels": 5995,
      "Ġlandmark": 5996,
      "Ġmodest": 5997,
      "Ġsuggests": 5998,
      "Ġillinois": 5999,
      "Ġmeasure": 6000,
      "Ġupdates": 6001,
      "Ġcoca": 6002,
      "arents": 6003,
      "piracy": 6004,
      "Ġantonio": 6005,
      "rate": 6006,
      "Ġmother": 6007,
      "Ġtrust": 6008,
      "Ġpeter": 6009,
      "Ġorbit": 6010,
      "Ġmeets": 6011,
      "Ġanyone": 6012,
      "Ġheard": 6013,
      "Ġespn": 6014,
      "Ġdetermin": 6015,
      "mate": 6016,
      "netw": 6017,
      "Ġcart": 6018,
      "Ġnorm": 6019,
      "Ġgear": 6020,
      "Ġbrands": 6021,
      "Ġfined": 6022,
      "Ġmind": 6023,
      "Ġsunni": 6024,
      "Ġdeser": 6025,
      "msft": 6026,
      "Ġmedals": 6027,
      "Ġextrem": 6028,
      "ennan": 6029,
      "Ġreaching": 6030,
      "Ġcollabor": 6031,
      "Ġreforms": 6032,
      "Ġpipeline": 6033,
      "Ġreferendum": 6034,
      "Ġcaribbean": 6035,
      "mens": 6036,
      "qaida": 6037,
      "Ġfen": 6038,
      "Ġfro": 6039,
      "Ġdrew": 6040,
      "employ": 6041,
      "Ġserb": 6042,
      "Ġbrad": 6043,
      "Ġminute": 6044,
      "Ġaccounts": 6045,
      "Ġbrother": 6046,
      "Ġtelesc": 6047,
      "Ġdivid": 6048,
      "Ġprotests": 6049,
      "Ġarabia": 6050,
      "Ġscreens": 6051,
      "Ġinventories": 6052,
      "Ġmclennan": 6053,
      "pm": 6054,
      "Ġsamp": 6055,
      "Ġcases": 6056,
      "anded": 6057,
      "Ġagents": 6058,
      "Ġmonetary": 6059,
      "Ġoverha": 6060,
      "ashion": 6061,
      "Ġreturning": 6062,
      "Ġregard": 6063,
      "Ġtalking": 6064,
      "Ġanything": 6065,
      "Ġcommunist": 6066,
      "Ġpirates": 6067,
      "standing": 6068,
      "Ġlifts": 6069,
      "Ġassistant": 6070,
      "Ġhollinger": 6071,
      "Ġenjoy": 6072,
      "goo": 6073,
      "lv": 6074,
      "Ġhug": 6075,
      "Ġchap": 6076,
      "Ġknew": 6077,
      "Ġblamed": 6078,
      "Ġ48": 6079,
      "Ġecl": 6080,
      "Ġschum": 6081,
      "Ġfellow": 6082,
      "Ġuniversal": 6083,
      "Ġcancel": 6084,
      "Ġpalmone": 6085,
      "Ġtrend": 6086,
      "Ġcolumbia": 6087,
      "Ġassembly": 6088,
      "Ġferguson": 6089,
      "aire": 6090,
      "dles": 6091,
      "Ġtap": 6092,
      "Ġdc": 6093,
      "Ġga": 6094,
      "lying": 6095,
      "Ġproduce": 6096,
      "Ġlehman": 6097,
      "Ġpresence": 6098,
      "Ġoffices": 6099,
      "Ġplants": 6100,
      "Ġprovided": 6101,
      "Ġmcc": 6102,
      "Ġboosts": 6103,
      "Ġengineers": 6104,
      "Ġembattled": 6105,
      "Ġstopped": 6106,
      "Ġexplosions": 6107,
      "Ġintroduce": 6108,
      "Ġaffair": 6109,
      "Ġpredicted": 6110,
      "Ġcontroversy": 6111,
      "Ġbronze": 6112,
      "Ġanswer": 6113,
      "Ġprojects": 6114,
      "Ġvikings": 6115,
      "bod": 6116,
      "su": 6117,
      "Ġ)": 6118,
      "Ġcz": 6119,
      "Ġhour": 6120,
      "Ġabd": 6121,
      "Ġblame": 6122,
      "Ġmining": 6123,
      "uresmo": 6124,
      "Ġcoaches": 6125,
      "Ġknicks": 6126,
      "Ġgasol": 6127,
      "Ġfavour": 6128,
      "Ġceremony": 6129,
      "Ġtall": 6130,
      "Ġsap": 6131,
      "esters": 6132,
      "Ġousted": 6133,
      "Ġdesert": 6134,
      "Ġsoutheast": 6135,
      "Ġhitting": 6136,
      "Ġinsurgent": 6137,
      "Ġboxing": 6138,
      "Ġpledged": 6139,
      "Ġdestroy": 6140,
      "Ġhelicopter": 6141,
      "mits": 6142,
      "yan": 6143,
      "Ġpounds": 6144,
      "Ġrig": 6145,
      "imp": 6146,
      "Ġbeef": 6147,
      "Ġamount": 6148,
      "ichiro": 6149,
      "Ġaustria": 6150,
      "avez": 6151,
      "views": 6152,
      "Ġxbox": 6153,
      "Ġanalysis": 6154,
      "Ġmodels": 6155,
      "Ġpilot": 6156,
      "Ġharmony": 6157,
      "qt": 6158,
      "rell": 6159,
      "Ġvar": 6160,
      "Ġdoor": 6161,
      "Ġnortheast": 6162,
      "Ġapprove": 6163,
      "azaa": 6164,
      "Ġsentiment": 6165,
      "Ġclimbed": 6166,
      "Ġarchitect": 6167,
      "300": 6168,
      "eers": 6169,
      "Ġtask": 6170,
      "Ġsr": 6171,
      "Ġsust": 6172,
      "Ġcult": 6173,
      "Ġkazaa": 6174,
      "osen": 6175,
      "Ġuses": 6176,
      "Ġhassan": 6177,
      "Ġacad": 6178,
      "Ġhighly": 6179,
      "Ġmauresmo": 6180,
      "Ġheadquarters": 6181,
      "Ġhowever": 6182,
      "cliff": 6183,
      "Ġstronghold": 6184,
      "Ġclosely": 6185,
      "Ġdocomo": 6186,
      "Ġentry": 6187,
      "Ġqualifier": 6188,
      "awaited": 6189,
      "Ġmanufacturers": 6190,
      "90": 6191,
      "gm": 6192,
      "western": 6193,
      "Ġsac": 6194,
      "Ġbon": 6195,
      "around": 6196,
      "stone": 6197,
      "level": 6198,
      "Ġrail": 6199,
      "Ġcompon": 6200,
      "abil": 6201,
      "Ġrepair": 6202,
      "antas": 6203,
      "Ġtrump": 6204,
      "Ġworlds": 6205,
      "Ġinfrast": 6206,
      "Ġpayments": 6207,
      "Ġrome": 6208,
      "Ġprepares": 6209,
      "Ġcharlott": 6210,
      "Ġinfrastr": 6211,
      "cd": 6212,
      "Ġace": 6213,
      "Ġpage": 6214,
      "Ġpound": 6215,
      "Ġparents": 6216,
      "Ġinstr": 6217,
      "Ġhin": 6218,
      "americ": 6219,
      "Ġrf": 6220,
      "iller": 6221,
      "Ġproceed": 6222,
      "emens": 6223,
      "Ġrovers": 6224,
      "Ġmarri": 6225,
      "Ġadrian": 6226,
      "Ġallies": 6227,
      "Ġimm": 6228,
      "ovo": 6229,
      "Ġsolutions": 6230,
      "Ġeasier": 6231,
      "Ġcarried": 6232,
      "Ġreduced": 6233,
      "Ġconstitution": 6234,
      "cliffe": 6235,
      "46": 6236,
      "dem": 6237,
      "nel": 6238,
      "Ġbreat": 6239,
      "Ġwoes": 6240,
      "Ġloy": 6241,
      "imes": 6242,
      "Ġwhe": 6243,
      "ifying": 6244,
      "Ġross": 6245,
      "artner": 6246,
      "igned": 6247,
      "Ġfeed": 6248,
      "Ġrisks": 6249,
      "Ġfails": 6250,
      "Ġclemens": 6251,
      "Ġrequire": 6252,
      "Ġmuslims": 6253,
      "Ġlicens": 6254,
      "Ġcasino": 6255,
      "Ġceltic": 6256,
      "Ġcheney": 6257,
      "45": 6258,
      "oe": 6259,
      "Ġinaug": 6260,
      "Ġchavez": 6261,
      "Ġexhib": 6262,
      "enda": 6263,
      "Ġtrim": 6264,
      "Ġcannot": 6265,
      "Ġsuite": 6266,
      "Ġtargeting": 6267,
      "Ġsuffering": 6268,
      "Ġseemed": 6269,
      "Ġsurface": 6270,
      "Ġsweden": 6271,
      "Ġell": 6272,
      "Ġpav": 6273,
      "Ġlets": 6274,
      "othing": 6275,
      "Ġraf": 6276,
      "Ġcomment": 6277,
      "Ġdeuts": 6278,
      "iab": 6279,
      "Ġintens": 6280,
      "Ġregister": 6281,
      "Ġmeetings": 6282,
      "Ġstepped": 6283,
      "Ġharry": 6284,
      "Ġequity": 6285,
      "Ġdominated": 6286,
      "Ġexpanded": 6287,
      "Ġpleaded": 6288,
      "know": 6289,
      "Ġpenalty": 6290,
      "Ġbeslan": 6291,
      "Ġanticipated": 6292,
      "qtada": 6293,
      "Ġsore": 6294,
      "Ġhu": 6295,
      "Ġdna": 6296,
      "agging": 6297,
      "Ġunw": 6298,
      "achi": 6299,
      "Ġslash": 6300,
      "Ġbackup": 6301,
      "Ġfeared": 6302,
      "Ġpalace": 6303,
      "Ġimplement": 6304,
      "Ġlarger": 6305,
      "Ġshoulder": 6306,
      "Ġwatched": 6307,
      "Ġskip": 6308,
      "Ġshipments": 6309,
      "Ġemerging": 6310,
      "Ġpotentially": 6311,
      "Ġcrackdown": 6312,
      "Ġstretch": 6313,
      "Ġinfrastructure": 6314,
      "bat": 6315,
      "burn": 6316,
      "like": 6317,
      "Ġwiz": 6318,
      "Ġreact": 6319,
      "Ġrug": 6320,
      "Ġspurs": 6321,
      "rah": 6322,
      "Ġworried": 6323,
      "anson": 6324,
      "Ġdisrupt": 6325,
      "Ġeuros": 6326,
      "Ġretired": 6327,
      "Ġglazer": 6328,
      "Ġisraelis": 6329,
      "Ġaviation": 6330,
      "Ġsentence": 6331,
      "Ġballot": 6332,
      "Ġosama": 6333,
      "mohan": 6334,
      "Ġraptors": 6335,
      "Ġbrokerage": 6336,
      "Ġinstitute": 6337,
      "cola": 6338,
      "lor": 6339,
      "wom": 6340,
      "Ġtar": 6341,
      "Ġthin": 6342,
      "Ġcaval": 6343,
      "edge": 6344,
      "Ġnic": 6345,
      "Ġcha": 6346,
      "Ġexit": 6347,
      "Ġlargely": 6348,
      "Ġbreed": 6349,
      "Ġdark": 6350,
      "Ġinvestigators": 6351,
      "Ġdemocrat": 6352,
      "Ġfamilies": 6353,
      "Ġcambod": 6354,
      "Ġslipped": 6355,
      "Ġsuccessfully": 6356,
      "Ġsolaris": 6357,
      "Ġsiemens": 6358,
      "Ġocean": 6359,
      "po": 6360,
      "vin": 6361,
      "Ġtank": 6362,
      "Ġtable": 6363,
      "Ġbare": 6364,
      "Ġhired": 6365,
      "usion": 6366,
      "illy": 6367,
      "Ġkl": 6368,
      "Ġhelens": 6369,
      "Ġindustries": 6370,
      "Ġvalley": 6371,
      "Ġmagic": 6372,
      "Ġcapture": 6373,
      "Ġlimit": 6374,
      "Ġtsun": 6375,
      "Ġinnov": 6376,
      "Ġstrategic": 6377,
      "Ġalternative": 6378,
      "mes": 6379,
      "Ġuc": 6380,
      "Ġhamil": 6381,
      "ili": 6382,
      "Ġgartner": 6383,
      "outs": 6384,
      "ental": 6385,
      "olic": 6386,
      "Ġspons": 6387,
      "Ġcomplex": 6388,
      "Ġtrue": 6389,
      "Ġpeters": 6390,
      "Ġimac": 6391,
      "Ġinvasion": 6392,
      "Ġgenet": 6393,
      "phere": 6394,
      "Ġcharley": 6395,
      "Ġfinancing": 6396,
      "Ġfunding": 6397,
      "Ġhumans": 6398,
      "uggish": 6399,
      "Ġpitched": 6400,
      "Ġpublisher": 6401,
      "Ġflaws": 6402,
      "oenix": 6403,
      "Ġoverhaul": 6404,
      "Ġschumacher": 6405,
      "Ġdeutsche": 6406,
      "giving": 6407,
      "tor": 6408,
      "Ġtape": 6409,
      "inf": 6410,
      "inho": 6411,
      "Ġfem": 6412,
      "Ġmall": 6413,
      "Ġstands": 6414,
      "Ġapolog": 6415,
      "Ġclient": 6416,
      "Ġaren": 6417,
      "Ġphoenix": 6418,
      "ahawks": 6419,
      "azz": 6420,
      "Ġ55": 6421,
      "ressed": 6422,
      "Ġmostly": 6423,
      "Ġimports": 6424,
      "Ġofferings": 6425,
      "Ġpatents": 6426,
      "Ġprogramme": 6427,
      "Ġmemph": 6428,
      "Ġpositions": 6429,
      "Ġpushes": 6430,
      "Ġclinton": 6431,
      "Ġraiders": 6432,
      "Ġresponsible": 6433,
      "Ġspirit": 6434,
      "Ġhamilton": 6435,
      "qaeda": 6436,
      "Ġauss": 6437,
      "itas": 6438,
      "Ġlob": 6439,
      "Ġthatcher": 6440,
      "Ġusc": 6441,
      "Ġmanmohan": 6442,
      "Ġaccel": 6443,
      "Ġproviding": 6444,
      "Ġ198": 6445,
      "Ġadvances": 6446,
      "Ġcausing": 6447,
      "Ġtropical": 6448,
      "Ġowen": 6449,
      "Ġbattles": 6450,
      "Ġsubsidiary": 6451,
      "Ġmultiple": 6452,
      "Ġterritory": 6453,
      "through": 6454,
      "Ġcharlotte": 6455,
      "Ġmemphis": 6456,
      "best": 6457,
      "hill": 6458,
      "rone": 6459,
      "rated": 6460,
      "tw": 6461,
      "Ġtay": 6462,
      "Ġcnn": 6463,
      "Ġrut": 6464,
      "Ġsab": 6465,
      "Ġexact": 6466,
      "Ġclar": 6467,
      "Ġorange": 6468,
      "Ġstring": 6469,
      "Ġmaybe": 6470,
      "Ġproduced": 6471,
      "Ġwrites": 6472,
      "minute": 6473,
      "Ġinsurers": 6474,
      "Ġhomeland": 6475,
      "Ġversions": 6476,
      "Ġarrives": 6477,
      "Ġsettles": 6478,
      "Ġfavorite": 6479,
      "Ġrelationship": 6480,
      "Ġdescribed": 6481,
      "woman": 6482,
      "28": 6483,
      "lon": 6484,
      "tv": 6485,
      "Ġwre": 6486,
      "Ġhugh": 6487,
      "iant": 6488,
      "Ġseahawks": 6489,
      "Ġacknow": 6490,
      "onda": 6491,
      "Ġadj": 6492,
      "Ġbusy": 6493,
      "Ġwhole": 6494,
      "Ġcommander": 6495,
      "Ġmonthly": 6496,
      "Ġassess": 6497,
      "efe": 6498,
      "Ġwriter": 6499,
      "Ġmovement": 6500,
      "Ġcurb": 6501,
      "Ġmcn": 6502,
      "Ġpossibility": 6503,
      "Ġstorms": 6504,
      "Ġmagn": 6505,
      "Ġobtain": 6506,
      "Ġheavyweight": 6507,
      "Ġcouple": 6508,
      "Ġlicense": 6509,
      "azeera": 6510,
      "54": 6511,
      "mic": 6512,
      "ining": 6513,
      "Ġps": 6514,
      "Ġbug": 6515,
      "alo": 6516,
      "inea": 6517,
      "Ġmarks": 6518,
      "Ġfinals": 6519,
      "active": 6520,
      "Ġboyc": 6521,
      "Ġtargeted": 6522,
      "Ġlowest": 6523,
      "Ġislands": 6524,
      "Ġeffective": 6525,
      "Ġnetscape": 6526,
      "Ġpentagon": 6527,
      "Ġdividend": 6528,
      "rison": 6529,
      "ux": 6530,
      "Ġtan": 6531,
      "Ġax": 6532,
      "Ġflex": 6533,
      "Ġhorn": 6534,
      "Ġdick": 6535,
      "Ġlyc": 6536,
      "Ġratings": 6537,
      "Ġvital": 6538,
      "Ġmaria": 6539,
      "ancing": 6540,
      "anged": 6541,
      "Ġconsol": 6542,
      "Ġreality": 6543,
      "Ġpromise": 6544,
      "Ġvolunt": 6545,
      "Ġhenry": 6546,
      "Ġmodern": 6547,
      "Ġinitiative": 6548,
      "Ġliquid": 6549,
      "Ġloyal": 6550,
      "Ġacknowled": 6551,
      "born": 6552,
      "cut": 6553,
      "des": 6554,
      "worth": 6555,
      "Ġfoss": 6556,
      "Ġbund": 6557,
      "Ġov": 6558,
      "isner": 6559,
      "Ġdust": 6560,
      "Ġlun": 6561,
      "Ġlakers": 6562,
      "oum": 6563,
      "Ġshad": 6564,
      "empts": 6565,
      "Ġagenda": 6566,
      "enson": 6567,
      "Ġprovides": 6568,
      "Ġdemanding": 6569,
      "Ġwatching": 6570,
      "Ġletter": 6571,
      "Ġdoubles": 6572,
      "Ġphotograph": 6573,
      "Ġcalm": 6574,
      "Ġsuggested": 6575,
      "Ġdiscovery": 6576,
      "Ġdelivered": 6577,
      "Ġrolls": 6578,
      "Ġdistribution": 6579,
      "Ġrepresentatives": 6580,
      "Ġprospects": 6581,
      "Ġceltics": 6582,
      ".\\\\": 6583,
      "gl": 6584,
      "nie": 6585,
      "wire": 6586,
      "Ġhiring": 6587,
      "ently": 6588,
      "Ġeisner": 6589,
      "stop": 6590,
      "Ġjos": 6591,
      "Ġ150": 6592,
      "aste": 6593,
      "Ġclothing": 6594,
      "ables": 6595,
      "Ġearned": 6596,
      "Ġsluggish": 6597,
      "ologists": 6598,
      "Ġengines": 6599,
      "inking": 6600,
      "Ġgreatest": 6601,
      "Ġconvoy": 6602,
      "Ġestimated": 6603,
      "Ġillegally": 6604,
      "Ġhorse": 6605,
      "making": 6606,
      "pres": 6607,
      "sch": 6608,
      "Ġfierce": 6609,
      "Ġbor": 6610,
      "ulate": 6611,
      "Ġconver": 6612,
      "Ġunpre": 6613,
      "Ġexerc": 6614,
      "ocket": 6615,
      "astic": 6616,
      "Ġally": 6617,
      "Ġcompared": 6618,
      "Ġarena": 6619,
      "Ġbranch": 6620,
      "Ġ2007": 6621,
      "Ġslowing": 6622,
      "Ġguinea": 6623,
      "Ġtitles": 6624,
      "Ġcompetitors": 6625,
      "Ġlanding": 6626,
      "Ġfleet": 6627,
      "Ġorigin": 6628,
      "Ġtentative": 6629,
      "Ġanthony": 6630,
      "cor": 6631,
      "cap": 6632,
      "foot": 6633,
      "wal": 6634,
      "Ġ/": 6635,
      "Ġbt": 6636,
      "atively": 6637,
      "arant": 6638,
      "Ġtobac": 6639,
      "leum": 6640,
      "Ġitanium": 6641,
      "Ġshake": 6642,
      "Ġunemploy": 6643,
      "Ġexclus": 6644,
      "Ġbln": 6645,
      "Ġbusch": 6646,
      "Ġcrush": 6647,
      "space": 6648,
      "Ġswing": 6649,
      "Ġoperators": 6650,
      "Ġpayment": 6651,
      "Ġreligious": 6652,
      "Ġprotesters": 6653,
      "Ġcells": 6654,
      "Ġballmer": 6655,
      "Ġrepublicans": 6656,
      "Ġenvoy": 6657,
      "Ġshareholder": 6658,
      "Ġsirius": 6659,
      "Ġmln": 6660,
      "sfeld": 6661,
      "Ġtsunami": 6662,
      "Ġtobacco": 6663,
      "Ġsoph": 6664,
      "Ġpy": 6665,
      "Ġconcess": 6666,
      "rif": 6667,
      "Ġ2008": 6668,
      "Ġ42": 6669,
      "Ġ66": 6670,
      "Ġcouldn": 6671,
      "Ġmuse": 6672,
      "Ġsuspend": 6673,
      "Ġplea": 6674,
      "Ġconfirms": 6675,
      "Ġsupplier": 6676,
      "Ġlandsl": 6677,
      "Ġabbey": 6678,
      "Ġlanguage": 6679,
      "Ġgasoline": 6680,
      "Ġlycos": 6681,
      "hour": 6682,
      "uz": 6683,
      "Ġtun": 6684,
      "Ġdh": 6685,
      "ayed": 6686,
      "stroke": 6687,
      "Ġopin": 6688,
      "Ġreporters": 6689,
      "antan": 6690,
      "Ġ36": 6691,
      "Ġdefends": 6692,
      "Ġelected": 6693,
      "Ġ600": 6694,
      "ported": 6695,
      "athan": 6696,
      "Ġradcliffe": 6697,
      "remlin": 6698,
      "Ġtyco": 6699,
      "Ġwithdra": 6700,
      "Ġfelt": 6701,
      "Ġseparatist": 6702,
      "stein": 6703,
      "99": 6704,
      "more": 6705,
      "wall": 6706,
      "roc": 6707,
      "Ġcong": 6708,
      "rip": 6709,
      "ordin": 6710,
      "Ġconsort": 6711,
      "Ġmemor": 6712,
      "Ġfollowed": 6713,
      "ikes": 6714,
      "Ġstephen": 6715,
      "Ġcompetitive": 6716,
      "Ġconcerned": 6717,
      "Ġmcdon": 6718,
      "Ġpopulation": 6719,
      "Ġexperience": 6720,
      "Ġarrests": 6721,
      "Ġpolicies": 6722,
      "Ġawards": 6723,
      "Ġprosecutor": 6724,
      "Ġoptimism": 6725,
      "Ġrumsfeld": 6726,
      "Ġensure": 6727,
      "Ġmargaret": 6728,
      "Ġgateway": 6729,
      "Ġfamous": 6730,
      "Ġczech": 6731,
      "cell": 6732,
      "gate": 6733,
      "ivery": 6734,
      "mal": 6735,
      "mad": 6736,
      "vic": 6737,
      "works": 6738,
      "icle": 6739,
      "icial": 6740,
      "ecially": 6741,
      "Ġstick": 6742,
      "Ġrays": 6743,
      "Ġmarine": 6744,
      "Ġsubject": 6745,
      "Ġlegend": 6746,
      "Ġformally": 6747,
      "Ġrevenues": 6748,
      "Ġchechn": 6749,
      "Ġcurrently": 6750,
      "Ġpleads": 6751,
      "Ġsweeping": 6752,
      "Ġrolled": 6753,
      "Ġmaterials": 6754,
      "Ġpetroleum": 6755,
      "Ġindividual": 6756,
      "Ġastronomers": 6757,
      "Ġgymnastics": 6758,
      "Ġwizards": 6759,
      "billion": 6760,
      "dis": 6761,
      "ien": 6762,
      "match": 6763,
      "oard": 6764,
      "Ġcbc": 6765,
      "organ": 6766,
      "Ġdu": 6767,
      "Ġviv": 6768,
      "Ġplenty": 6769,
      "ipse": 6770,
      "Ġopt": 6771,
      "Ġfiring": 6772,
      "Ġpeer": 6773,
      "Ġorb": 6774,
      "Ġmini": 6775,
      "pled": 6776,
      "ahead": 6777,
      "Ġnorthwest": 6778,
      "Ġnasdaq": 6779,
      "Ġmembership": 6780,
      "Ġsurviv": 6781,
      "Ġreasons": 6782,
      "Ġparticular": 6783,
      "Ġconsortium": 6784,
      "Ġchechnya": 6785,
      "kar": 6786,
      "Ġfinger": 6787,
      "enport": 6788,
      "Ġkremlin": 6789,
      "Ġvast": 6790,
      "Ġcontact": 6791,
      "Ġmanage": 6792,
      "Ġjustin": 6793,
      "Ġknows": 6794,
      "Ġstudio": 6795,
      "Ġmerge": 6796,
      "Ġfacility": 6797,
      "Ġstruggles": 6798,
      "Ġcasual": 6799,
      "Ġrushed": 6800,
      "Ġmunich": 6801,
      "Ġkuwa": 6802,
      "Ġappointed": 6803,
      "Ġcavaliers": 6804,
      "53": 6805,
      "away": 6806,
      "Ġpunch": 6807,
      "Ġmap": 6808,
      "omer": 6809,
      "utious": 6810,
      "Ġrape": 6811,
      "vement": 6812,
      "Ġquake": 6813,
      "Ġmarked": 6814,
      "roper": 6815,
      "Ġattempts": 6816,
      "cedented": 6817,
      "Ġbecomes": 6818,
      "Ġtrials": 6819,
      "Ġhero": 6820,
      "Ġincluded": 6821,
      "Ġdetain": 6822,
      "Ġpoison": 6823,
      "Ġregulator": 6824,
      "Ġregulatory": 6825,
      "Ġfewer": 6826,
      "Ġadministr": 6827,
      "Ġslowdown": 6828,
      "Ġeclipse": 6829,
      "bank": 6830,
      "tar": 6831,
      "Ġort": 6832,
      "Ġaide": 6833,
      "echn": 6834,
      "Ġhaven": 6835,
      "obile": 6836,
      "Ġaboard": 6837,
      "Ġsco": 6838,
      "Ġbriton": 6839,
      "Ġsteam": 6840,
      "Ġeffects": 6841,
      "Ġdavenport": 6842,
      "Ġvisits": 6843,
      "Ġhandset": 6844,
      "Ġaccepted": 6845,
      "Ġoptimistic": 6846,
      "Ġrefugees": 6847,
      "Ġabbas": 6848,
      "Ġjaguar": 6849,
      "Ġorganizations": 6850,
      "48": 6851,
      "sson": 6852,
      "vard": 6853,
      "wag": 6854,
      "Ġie": 6855,
      "Ġcrop": 6856,
      "Ġcath": 6857,
      "Ġpicks": 6858,
      "Ġbcs": 6859,
      "Ġandrew": 6860,
      "Ġvision": 6861,
      "Ġshak": 6862,
      "aine": 6863,
      "abled": 6864,
      "Ġaccusing": 6865,
      "grade": 6866,
      "Ġvictor": 6867,
      "Ġ78": 6868,
      "Ġnears": 6869,
      "Ġgrad": 6870,
      "Ġembar": 6871,
      "Ġprivately": 6872,
      "Ġfocused": 6873,
      "aska": 6874,
      "Ġgarcia": 6875,
      "'ve": 6876,
      "fol": 6877,
      "sized": 6878,
      "Ġtens": 6879,
      "Ġfool": 6880,
      "Ġfashion": 6881,
      "Ġanger": 6882,
      "teries": 6883,
      "olves": 6884,
      "Ġcomfort": 6885,
      "Ġquality": 6886,
      "ectors": 6887,
      "ifts": 6888,
      "Ġupbeat": 6889,
      "Ġcoff": 6890,
      "ache": 6891,
      "inson": 6892,
      "Ġcellular": 6893,
      "Ġdocument": 6894,
      "Ġguns": 6895,
      "Ġstruggled": 6896,
      "Ġawarded": 6897,
      "Ġbiot": 6898,
      "Ġimmediate": 6899,
      "Ġespecially": 6900,
      "Ġcompensation": 6901,
      "Ġtelescope": 6902,
      "Ġunemployment": 6903,
      "Ġtumb": 6904,
      "itarian": 6905,
      "Ġhonda": 6906,
      "Ġlley": 6907,
      "eck": 6908,
      "Ġjama": 6909,
      "Ġallen": 6910,
      "Ġtermin": 6911,
      "Ġpassing": 6912,
      "Ġloans": 6913,
      "Ġreading": 6914,
      "rington": 6915,
      "Ġmystery": 6916,
      "Ġbroncos": 6917,
      "Ġpentium": 6918,
      "korea": 6919,
      "lvania": 6920,
      "Ġrfid": 6921,
      "Ġunprecedented": 6922,
      "Ġlleyton": 6923,
      "Ġug": 6924,
      "Ġpocket": 6925,
      "eng": 6926,
      "Ġox": 6927,
      "Ġlon": 6928,
      "irt": 6929,
      "Ġraces": 6930,
      "Ġshown": 6931,
      "Ġdiss": 6932,
      "Ġphishing": 6933,
      "Ġserving": 6934,
      "neal": 6935,
      "Ġdelivery": 6936,
      "Ġfeet": 6937,
      "Ġcred": 6938,
      "Ġphilips": 6939,
      "Ġsafin": 6940,
      "Ġeverton": 6941,
      "ippi": 6942,
      "Ġcarriers": 6943,
      "Ġbirds": 6944,
      "Ġtrafford": 6945,
      "Ġwelcome": 6946,
      "Ġphilippine": 6947,
      "Ġfriendly": 6948,
      "Ġwonder": 6949,
      "Ġevacu": 6950,
      "Ġ39": 6951,
      "Ġbed": 6952,
      "Ġmull": 6953,
      "Ġtow": 6954,
      "iga": 6955,
      "ections": 6956,
      "Ġpresc": 6957,
      "Ġdispl": 6958,
      "Ġsetback": 6959,
      "Ġwrite": 6960,
      "Ġdepot": 6961,
      "Ġloan": 6962,
      "Ġsimple": 6963,
      "Ġdoubts": 6964,
      "Ġescal": 6965,
      "Ġresponsibility": 6966,
      "Ġpeacekeepers": 6967,
      "Ġpostponed": 6968,
      "antanamo": 6969,
      "'ll": 6970,
      "43": 6971,
      "ded": 6972,
      "zard": 6973,
      "Ġtail": 6974,
      "Ġtivo": 6975,
      "Ġailing": 6976,
      "Ġsar": 6977,
      "Ġpool": 6978,
      "Ġmu": 6979,
      "Ġrams": 6980,
      "owa": 6981,
      "Ġplug": 6982,
      "Ġamster": 6983,
      "Ġresort": 6984,
      "Ġbuzz": 6985,
      "Ġdesper": 6986,
      "Ġ43": 6987,
      "Ġproducers": 6988,
      "Ġhopeful": 6989,
      "Ġ800": 6990,
      "Ġcautious": 6991,
      "Ġtowns": 6992,
      "Ġutility": 6993,
      "Ġappearance": 6994,
      "Ġcommitted": 6995,
      "Ġmomentum": 6996,
      "Ġfemale": 6997,
      "Ġamsterdam": 6998,
      "nand": 6999,
      "zarqawi": 7000,
      "Ġsven": 7001,
      "Ġsense": 7002,
      "Ġata": 7003,
      "aka": 7004,
      "Ġunh": 7005,
      "enders": 7006,
      "Ġrough": 7007,
      "Ġcrm": 7008,
      "Ġcoaching": 7009,
      "Ġcopies": 7010,
      "meter": 7011,
      "Ġchapter": 7012,
      "85": 7013,
      "dou": 7014,
      "mt": 7015,
      "mos": 7016,
      "with": 7017,
      "Ġcairo": 7018,
      "enham": 7019,
      "Ġtoys": 7020,
      "icut": 7021,
      "Ġuns": 7022,
      "emic": 7023,
      "artoum": 7024,
      "Ġwinners": 7025,
      "Ġ37": 7026,
      "Ġsupposed": 7027,
      "Ġmeters": 7028,
      "oking": 7029,
      "Ġguide": 7030,
      "Ġformal": 7031,
      "atorial": 7032,
      "Ġevolution": 7033,
      "Ġestate": 7034,
      "apster": 7035,
      "Ġfrequ": 7036,
      "Ġconnecticut": 7037,
      "Ġwickets": 7038,
      "Ġrugby": 7039,
      "Ġsends": 7040,
      "oral": 7041,
      "Ġwto": 7042,
      "Ġwides": 7043,
      "Ġwaters": 7044,
      "Ġhij": 7045,
      "Ġchad": 7046,
      "Ġjay": 7047,
      "Ġdeterm": 7048,
      "ulated": 7049,
      "Ġshel": 7050,
      "ifies": 7051,
      "Ġclients": 7052,
      "Ġwarn": 7053,
      "Ġprinc": 7054,
      "Ġsearching": 7055,
      "Ġthreaten": 7056,
      "backed": 7057,
      "Ġhomered": 7058,
      "Ġengineering": 7059,
      "Ġveritas": 7060,
      "Ġconfirm": 7061,
      "Ġmultim": 7062,
      "Ġhandsets": 7063,
      "doch": 7064,
      "Ġticket": 7065,
      "Ġflagship": 7066,
      "Ġbarely": 7067,
      "Ġconsolid": 7068,
      "23": 7069,
      "dro": 7070,
      "due": 7071,
      "fri": 7072,
      "iks": 7073,
      "Ġbail": 7074,
      "Ġwider": 7075,
      "ali": 7076,
      "Ġwholes": 7077,
      "Ġmonitor": 7078,
      "Ġdisarm": 7079,
      "Ġendang": 7080,
      "Ġrelatives": 7081,
      "Ġiowa": 7082,
      "Ġcaution": 7083,
      "Ġlowered": 7084,
      "Ġrestaur": 7085,
      "Ġdomain": 7086,
      "Ġbreakthrough": 7087,
      "Ġpitching": 7088,
      "Ġ1990": 7089,
      "Ġcooper": 7090,
      "Ġswedish": 7091,
      "Ġunexpectedly": 7092,
      "Ġblew": 7093,
      "Ġbosn": 7094,
      "Ġinfringement": 7095,
      "gent": 7096,
      "kers": 7097,
      "rant": 7098,
      "will": 7099,
      "Ġnapster": 7100,
      "ayer": 7101,
      "eted": 7102,
      "Ġkaz": 7103,
      "endi": 7104,
      "Ġdisk": 7105,
      "Ġconsole": 7106,
      "Ġgene": 7107,
      "Ġguantanamo": 7108,
      "Ġchargers": 7109,
      "Ġangry": 7110,
      "Ġcollaps": 7111,
      "Ġeasily": 7112,
      "Ġmurdoch": 7113,
      "Ġspotlight": 7114,
      "Ġkenya": 7115,
      "Ġbloody": 7116,
      "ette": 7117,
      "said": 7118,
      "Ġinfluence": 7119,
      "Ġphillies": 7120,
      "Ġmcdonald": 7121,
      "mouth": 7122,
      "Ġaw": 7123,
      "Ġfought": 7124,
      "iced": 7125,
      "Ġstations": 7126,
      "Ġstarter": 7127,
      "Ġjul": 7128,
      "ocide": 7129,
      "Ġhasn": 7130,
      "Ġpricing": 7131,
      "Ġstrained": 7132,
      "Ġcapabilities": 7133,
      "Ġtrojan": 7134,
      "Ġeriks": 7135,
      "Ġtyp": 7136,
      "Ġpulls": 7137,
      "business": 7138,
      "ointment": 7139,
      "Ġdestr": 7140,
      "Ġknocked": 7141,
      "ukee": 7142,
      "Ġgathered": 7143,
      "Ġassassination": 7144,
      "networks": 7145,
      "money": 7146,
      "alore": 7147,
      "Ġded": 7148,
      "chet": 7149,
      "Ġteammates": 7150,
      "Ġrevamp": 7151,
      "Ġemployee": 7152,
      "Ġdisputed": 7153,
      "Ġnato": 7154,
      "Ġthanksgiving": 7155,
      "Ġprospect": 7156,
      "Ġkhartoum": 7157,
      "Ġbuffalo": 7158,
      "Ġluxury": 7159,
      "Ġlunar": 7160,
      "range": 7161,
      "Ġgil": 7162,
      "Ġgaz": 7163,
      "oms": 7164,
      "Ġexisting": 7165,
      "Ġhav": 7166,
      "Ġenters": 7167,
      "Ġenforce": 7168,
      "Ġretreat": 7169,
      "Ġnorway": 7170,
      "Ġremove": 7171,
      "Ġrestore": 7172,
      "Ġcivilian": 7173,
      "Ġjournalist": 7174,
      "attered": 7175,
      "Ġintegration": 7176,
      "Ġferrari": 7177,
      "planes": 7178,
      "Ġkenneth": 7179,
      "Ġmuseum": 7180,
      "echnology": 7181,
      "600": 7182,
      "ae": 7183,
      "pread": 7184,
      "sbc": 7185,
      "whel": 7186,
      "zed": 7187,
      "Ġsach": 7188,
      "Ġwine": 7189,
      "Ġwisc": 7190,
      "Ġstir": 7191,
      "Ġstol": 7192,
      "agues": 7193,
      "Ġunus": 7194,
      "Ġadmits": 7195,
      "Ġemc": 7196,
      "Ġemissions": 7197,
      "Ġsomeone": 7198,
      "Ġ75": 7199,
      "onsin": 7200,
      "Ġcreation": 7201,
      "Ġextending": 7202,
      "ventus": 7203,
      "Ġadvoc": 7204,
      "Ġbeng": 7205,
      "Ġreserves": 7206,
      "Ġviews": 7207,
      "Ġbangalore": 7208,
      "Ġaudio": 7209,
      "Ġlibrary": 7210,
      "Ġfossil": 7211,
      "Ġeriksson": 7212,
      "27": 7213,
      "ea": 7214,
      "gor": 7215,
      "nst": 7216,
      "usts": 7217,
      "Ġrice": 7218,
      "Ġride": 7219,
      "Ġitem": 7220,
      "Ġcomprom": 7221,
      "Ġslowed": 7222,
      "Ġmilwa": 7223,
      "Ġinvestments": 7224,
      "Ġsubmar": 7225,
      "Ġowned": 7226,
      "Ġrevised": 7227,
      "Ġathletes": 7228,
      "Ġspark": 7229,
      "Ġsparked": 7230,
      "Ġlearn": 7231,
      "Ġopponent": 7232,
      "Ġambass": 7233,
      "Ġhughes": 7234,
      "Ġwidespread": 7235,
      "Ġdetermine": 7236,
      "Ġwisconsin": 7237,
      "Ġmilwaukee": 7238,
      "person": 7239,
      "sl": 7240,
      "sen": 7241,
      "Ġpino": 7242,
      "Ġtoss": 7243,
      "Ġdw": 7244,
      "Ġly": 7245,
      "Ġrh": 7246,
      "Ġkent": 7247,
      "Ġexporters": 7248,
      "Ġarbit": 7249,
      "Ġscene": 7250,
      "Ġinsurer": 7251,
      "Ġdetained": 7252,
      "Ġaiming": 7253,
      "Ġproposals": 7254,
      "Ġsnap": 7255,
      "Ġpanthers": 7256,
      "Ġdominant": 7257,
      "Ġsexual": 7258,
      "Ġnecess": 7259,
      "breaking": 7260,
      "Ġrolling": 7261,
      "Ġpinochet": 7262,
      "mac": 7263,
      "Ġluk": 7264,
      "istics": 7265,
      "Ġmarc": 7266,
      "Ġnotes": 7267,
      "Ġfled": 7268,
      "Ġsuz": 7269,
      "Ġemot": 7270,
      "string": 7271,
      "Ġpromote": 7272,
      "Ġlineback": 7273,
      "peer": 7274,
      "Ġarsene": 7275,
      "Ġfactories": 7276,
      "Ġobject": 7277,
      "Ġmontg": 7278,
      "Ġgranted": 7279,
      "Ġexecs": 7280,
      "Ġbaby": 7281,
      "Ġricky": 7282,
      "american": 7283,
      "bing": 7284,
      "ratings": 7285,
      "words": 7286,
      "inhu": 7287,
      "rep": 7288,
      "Ġwage": 7289,
      "Ġdyn": 7290,
      "Ġresistance": 7291,
      "Ġbru": 7292,
      "Ġeli": 7293,
      "ancy": 7294,
      "Ġprec": 7295,
      "Ġvictories": 7296,
      "Ġthrown": 7297,
      "aimler": 7298,
      "Ġboosting": 7299,
      "Ġportfol": 7300,
      "Ġpollution": 7301,
      "Ġolder": 7302,
      "Ġjuventus": 7303,
      "Ġjumps": 7304,
      "Ġweakness": 7305,
      "Ġshrug": 7306,
      "Ġsettled": 7307,
      "break": 7308,
      "Ġdiamondbacks": 7309,
      "Ġsuzuk": 7310,
      "care": 7311,
      "kel": 7312,
      "prom": 7313,
      "Ġdre": 7314,
      "Ġgop": 7315,
      "uster": 7316,
      "omet": 7317,
      "agers": 7318,
      "Ġplaces": 7319,
      "Ġoverwhel": 7320,
      "ocked": 7321,
      "ological": 7322,
      "Ġembr": 7323,
      "Ġsignal": 7324,
      "Ġtested": 7325,
      "Ġpaypal": 7326,
      "ikh": 7327,
      "Ġemployment": 7328,
      "Ġactivists": 7329,
      "Ġraids": 7330,
      "Ġkenned": 7331,
      "Ġgrip": 7332,
      "Ġpiece": 7333,
      "Ġpharmaceutical": 7334,
      "Ġheavily": 7335,
      "bon": 7336,
      "Ġwer": 7337,
      "Ġdaimler": 7338,
      "Ġlie": 7339,
      "eling": 7340,
      "Ġeve": 7341,
      "Ġstyle": 7342,
      "Ġjoy": 7343,
      "agement": 7344,
      "Ġexceed": 7345,
      "Ġalco": 7346,
      "Ġgrows": 7347,
      "sey": 7348,
      "Ġslips": 7349,
      "osevic": 7350,
      "Ġjoh": 7351,
      "Ġsuspic": 7352,
      "Ġhalo": 7353,
      "Ġxm": 7354,
      "Ġpromising": 7355,
      "itten": 7356,
      "Ġballots": 7357,
      "Ġcrashes": 7358,
      "Ġathletic": 7359,
      "Ġmutu": 7360,
      "Ġsometimes": 7361,
      "Ġneck": 7362,
      "Ġdaniel": 7363,
      "Ġlearned": 7364,
      "Ġsweet": 7365,
      "serv": 7366,
      "yl": 7367,
      "atically": 7368,
      "icient": 7369,
      "Ġlsu": 7370,
      "Ġramp": 7371,
      "Ġproved": 7372,
      "ulting": 7373,
      "Ġunch": 7374,
      "Ġinterior": 7375,
      "Ġcoverage": 7376,
      "Ġaccom": 7377,
      "Ġprett": 7378,
      "Ġsyn": 7379,
      "Ġasset": 7380,
      "Ġ51": 7381,
      "Ġfebr": 7382,
      "Ġimproper": 7383,
      "Ġmississ": 7384,
      "Ġrounds": 7385,
      "Ġrealnetworks": 7386,
      "Ġforeigners": 7387,
      "anny": 7388,
      "Ġreveal": 7389,
      "Ġreveals": 7390,
      "Ġwildlife": 7391,
      "Ġidc": 7392,
      "Ġidentified": 7393,
      "Ġowens": 7394,
      "Ġabducted": 7395,
      "Ġlaptop": 7396,
      "Ġfebruary": 7397,
      "800": 7398,
      "jet": 7399,
      "wr": 7400,
      "Ġcd": 7401,
      "Ġfixed": 7402,
      "idg": 7403,
      "ups": 7404,
      "oper": 7405,
      "Ġwash": 7406,
      "ellor": 7407,
      "aching": 7408,
      "Ġperman": 7409,
      "Ġlaure": 7410,
      "Ġhighlight": 7411,
      "Ġweekly": 7412,
      "Ġgenocide": 7413,
      "Ġrelay": 7414,
      "Ġnortheastern": 7415,
      "Ġstudent": 7416,
      "Ġmete": 7417,
      "Ġ1999": 7418,
      "Ġramad": 7419,
      "Ġdescription": 7420,
      "Ġcrowded": 7421,
      "Ġandreas": 7422,
      "Ġearthquakes": 7423,
      "Ġkids": 7424,
      "holm": 7425,
      "Ġfully": 7426,
      "Ġwelcomed": 7427,
      "Ġlicensing": 7428,
      "Ġendangered": 7429,
      "38": 7430,
      "bek": 7431,
      "bling": 7432,
      "dp": 7433,
      "jo": 7434,
      "lights": 7435,
      "Ġsight": 7436,
      "Ġsoci": 7437,
      "rey": 7438,
      "Ġmath": 7439,
      "Ġhell": 7440,
      "omed": 7441,
      "Ġforbes": 7442,
      "allah": 7443,
      "Ġworse": 7444,
      "Ġadap": 7445,
      "Ġori": 7446,
      "ogue": 7447,
      "Ġcorrect": 7448,
      "Ġimf": 7449,
      "Ġmilosevic": 7450,
      "spy": 7451,
      "Ġ77": 7452,
      "Ġbuyers": 7453,
      "Ġbuyout": 7454,
      "prises": 7455,
      "Ġbillions": 7456,
      "Ġdevil": 7457,
      "Ġequatorial": 7458,
      "Ġlimits": 7459,
      "Ġcombined": 7460,
      "Ġsanta": 7461,
      "Ġseriously": 7462,
      "Ġneighb": 7463,
      "Ġbeheaded": 7464,
      "Ġaggressive": 7465,
      "Ġsurvivors": 7466,
      "Ġlinebacker": 7467,
      "armed": 7468,
      "Ġgib": 7469,
      "Ġstroke": 7470,
      "chenko": 7471,
      "Ġkhan": 7472,
      "Ġincent": 7473,
      "Ġindies": 7474,
      "Ġcoordin": 7475,
      "Ġflow": 7476,
      "Ġaccus": 7477,
      "Ġswitzer": 7478,
      "Ġguarant": 7479,
      "fully": 7480,
      "flix": 7481,
      "Ġrestric": 7482,
      "Ġsimply": 7483,
      "scar": 7484,
      "ception": 7485,
      "Ġcheap": 7486,
      "Ġpledges": 7487,
      "Ġdiplomatic": 7488,
      "Ġpersu": 7489,
      "Ġguerr": 7490,
      "Ġboycott": 7491,
      "Ġkennedy": 7492,
      "Ġorioles": 7493,
      "town": 7494,
      "Ġft": 7495,
      "Ġfault": 7496,
      "Ġhire": 7497,
      "icated": 7498,
      "idia": 7499,
      "acing": 7500,
      "Ġforget": 7501,
      "style": 7502,
      "Ġnewest": 7503,
      "Ġcloud": 7504,
      "Ġmarion": 7505,
      "anted": 7506,
      "Ġscan": 7507,
      "comm": 7508,
      "Ġconspiracy": 7509,
      "Ġpatrick": 7510,
      "Ġbeaten": 7511,
      "Ġhealthy": 7512,
      "Ġpullout": 7513,
      "Ġvisitors": 7514,
      "Ġcelebrate": 7515,
      "Ġinstruments": 7516,
      "Ġexhibition": 7517,
      "Ġtaylor": 7518,
      "pric": 7519,
      "test": 7520,
      "uan": 7521,
      "Ġ\\\\": 7522,
      "leading": 7523,
      "Ġkir": 7524,
      "iable": 7525,
      "Ġscam": 7526,
      "Ġinvit": 7527,
      "Ġworked": 7528,
      "Ġmaver": 7529,
      "Ġguy": 7530,
      "Ġbarb": 7531,
      "Ġextin": 7532,
      "rowing": 7533,
      "Ġcontrols": 7534,
      "Ġastronaut": 7535,
      "bourne": 7536,
      "Ġrecommend": 7537,
      "Ġexactly": 7538,
      "gn": 7539,
      "here": 7540,
      "ront": 7541,
      "vp": 7542,
      "Ġub": 7543,
      "stal": 7544,
      "store": 7545,
      "Ġchanc": 7546,
      "Ġconway": 7547,
      "Ġunc": 7548,
      "Ġsean": 7549,
      "Ġadam": 7550,
      "Ġbranson": 7551,
      "Ġbattered": 7552,
      "Ġsubmit": 7553,
      "Ġcharac": 7554,
      "Ġ2012": 7555,
      "Ġjudges": 7556,
      "Ġnetflix": 7557,
      "Ġvolcan": 7558,
      "Ġchecks": 7559,
      "Ġnewspapers": 7560,
      "Ġcriticized": 7561,
      "Ġlebanese": 7562,
      "Ġstunning": 7563,
      "Ġhubble": 7564,
      "Ġwreck": 7565,
      "250": 7566,
      "rist": 7567,
      "Ġtip": 7568,
      "Ġtact": 7569,
      "aron": 7570,
      "Ġnav": 7571,
      "Ġgaining": 7572,
      "Ġones": 7573,
      "agged": 7574,
      "uls": 7575,
      "Ġunix": 7576,
      "Ġminers": 7577,
      "Ġslug": 7578,
      "Ġplanets": 7579,
      "Ġ69": 7580,
      "Ġenterprises": 7581,
      "Ġcloses": 7582,
      "Ġviolations": 7583,
      "Ġsender": 7584,
      "sylvania": 7585,
      "Ġconservative": 7586,
      "Ġdeadliest": 7587,
      "Ġpoliticians": 7588,
      "Ġnvidia": 7589,
      "Ġmississippi": 7590,
      "Ġswitzerland": 7591,
      "44": 7592,
      "Ġcraft": 7593,
      "Ġpensions": 7594,
      "Ġot": 7595,
      "Ġmits": 7596,
      "Ġdump": 7597,
      "aying": 7598,
      "Ġgay": 7599,
      "elect": 7600,
      "usatoday": 7601,
      "acom": 7602,
      "Ġstuff": 7603,
      "Ġforg": 7604,
      "ura": 7605,
      "Ġrating": 7606,
      "Ġoffsh": 7607,
      "Ġwealth": 7608,
      "Ġfinland": 7609,
      "hnic": 7610,
      "Ġ56": 7611,
      "airn": 7612,
      "Ġbelg": 7613,
      "Ġpatrol": 7614,
      "print": 7615,
      "bridge": 7616,
      "Ġprocessing": 7617,
      "Ġvolume": 7618,
      "Ġinsurgency": 7619,
      "Ġranks": 7620,
      "Ġfreedom": 7621,
      "Ġoriginal": 7622,
      "Ġlenovo": 7623,
      "Ġchemical": 7624,
      "Ġdetermined": 7625,
      "Ġovitz": 7626,
      "Ġvivendi": 7627,
      "Ġambassador": 7628,
      "Ġpretty": 7629,
      "cats": 7630,
      "ram": 7631,
      "vo": 7632,
      "eries": 7633,
      "Ġports": 7634,
      "Ġpump": 7635,
      "Ġmick": 7636,
      "Ġlp": 7637,
      "Ġspa": 7638,
      "Ġusatoday": 7639,
      "Ġalb": 7640,
      "Ġiron": 7641,
      "Ġgover": 7642,
      "Ġnote": 7643,
      "Ġsoared": 7644,
      "Ġmeant": 7645,
      "Ġ62": 7646,
      "Ġcourts": 7647,
      "Ġextrad": 7648,
      "Ġwalker": 7649,
      "Ġactually": 7650,
      "Ġdemanded": 7651,
      "Ġprivacy": 7652,
      "Ġrobust": 7653,
      "Ġcheaper": 7654,
      "Ġquestioned": 7655,
      "produc": 7656,
      "Ġcommitment": 7657,
      "Ġdeployment": 7658,
      "Ġmourinho": 7659,
      "Ġscottish": 7660,
      "Ġdubai": 7661,
      "Ġpadres": 7662,
      "Ġlynch": 7663,
      "Ġfenway": 7664,
      "Ġshadow": 7665,
      "bell": 7666,
      "ez": 7667,
      "fc": 7668,
      "fir": 7669,
      "mand": 7670,
      "vi": 7671,
      "Ġfill": 7672,
      "enters": 7673,
      "itely": 7674,
      "Ġdivers": 7675,
      "ecl": 7676,
      "stra": 7677,
      "Ġrid": 7678,
      "chrysler": 7679,
      "Ġprominent": 7680,
      "Ġplum": 7681,
      "Ġpeak": 7682,
      "Ġbutton": 7683,
      "owned": 7684,
      "Ġwarri": 7685,
      "Ġpoland": 7686,
      "Ġbrothers": 7687,
      "ughter": 7688,
      "Ġsurren": 7689,
      "Ġcapable": 7690,
      "lington": 7691,
      "Ġhoped": 7692,
      "Ġversus": 7693,
      "Ġharvard": 7694,
      "Ġpope": 7695,
      "Ġbroadc": 7696,
      "Ġmassac": 7697,
      "Ġrevenge": 7698,
      "Ġmelbourne": 7699,
      "Ġsamarra": 7700,
      "Ġopinion": 7701,
      "Ġportfolio": 7702,
      "kin": 7703,
      "watch": 7704,
      "Ġah": 7705,
      "ono": 7706,
      "Ġcert": 7707,
      "Ġpover": 7708,
      "Ġntt": 7709,
      "chip": 7710,
      "Ġrover": 7711,
      "Ġexpensive": 7712,
      "Ġintr": 7713,
      "Ġdefended": 7714,
      "Ġswap": 7715,
      "Ġsouthwest": 7716,
      "Ġqantas": 7717,
      "Ġdiscip": 7718,
      "Ġhousehold": 7719,
      "Ġmeth": 7720,
      "Ġrespect": 7721,
      "Ġmalicious": 7722,
      "Ġhydro": 7723,
      "Ġstrengthen": 7724,
      "Ġsettlers": 7725,
      "Ġencoun": 7726,
      "Ġvillage": 7727,
      "Ġpennsylvania": 7728,
      "Ġderail": 7729,
      "Ġaziz": 7730,
      "friend": 7731,
      "Ġdestruction": 7732,
      "Ġbengals": 7733,
      "Ġgoverning": 7734,
      "Ġpoverty": 7735,
      "mr": 7736,
      "rass": 7737,
      "vis": 7738,
      "Ġfu": 7739,
      "Ġwed": 7740,
      "Ġoks": 7741,
      "Ġnative": 7742,
      "ids": 7743,
      "ira": 7744,
      "Ġrushing": 7745,
      "Ġkris": 7746,
      "Ġshed": 7747,
      "Ġquits": 7748,
      "Ġalone": 7749,
      "Ġrot": 7750,
      "ellow": 7751,
      "Ġblade": 7752,
      "Ġbuil": 7753,
      "Ġcounting": 7754,
      "Ġregime": 7755,
      "Ġmao": 7756,
      "Ġbombard": 7757,
      "Ġthrow": 7758,
      "Ġantiv": 7759,
      "Ġchallenger": 7760,
      "Ġsettlements": 7761,
      "Ġhumanitarian": 7762,
      "Ġaffect": 7763,
      "Ġgamers": 7764,
      "Ġintroduces": 7765,
      "Ġrodrig": 7766,
      "Ġchoose": 7767,
      "Ġsubsidies": 7768,
      "Ġconduct": 7769,
      "Ġprompting": 7770,
      "Ġdraws": 7771,
      "Ġreplacement": 7772,
      "Ġsteroids": 7773,
      "Ġorganisation": 7774,
      "Ġaffairs": 7775,
      "Ġbelgium": 7776,
      "nation": 7777,
      "poin": 7778,
      "ziff": 7779,
      "rets": 7780,
      "Ġhip": 7781,
      "Ġlanger": 7782,
      "Ġstraw": 7783,
      "Ġstakes": 7784,
      "Ġjen": 7785,
      "Ġasking": 7786,
      "Ġkath": 7787,
      "open": 7788,
      "Ġreporter": 7789,
      "Ġmanh": 7790,
      "Ġphase": 7791,
      "Ġslower": 7792,
      "Ġdefender": 7793,
      "Ġimpose": 7794,
      "Ġziff": 7795,
      "Ġmerrill": 7796,
      "Ġmidfielder": 7797,
      "Ġbaseman": 7798,
      "Ġyankee": 7799,
      "Ġberth": 7800,
      "Ġtourists": 7801,
      "Ġcybers": 7802,
      "trust": 7803,
      "Ġmortar": 7804,
      "Ġtreaty": 7805,
      "Ġthinking": 7806,
      "Ġhunting": 7807,
      "control": 7808,
      "Ġsurrounding": 7809,
      "Ġimmig": 7810,
      "Ġkuwait": 7811,
      "Ġdaimlerchrysler": 7812,
      "Ġantivirus": 7813,
      "41": 7814,
      "dd": 7815,
      "sm": 7816,
      "Ġwish": 7817,
      "Ġwta": 7818,
      "eless": 7819,
      "quel": 7820,
      "Ġcomcast": 7821,
      "osing": 7822,
      "Ġunrest": 7823,
      "Ġroute": 7824,
      "Ġintended": 7825,
      "Ġeliot": 7826,
      "Ġflag": 7827,
      "Ġsurging": 7828,
      "Ġswift": 7829,
      "Ġdebuts": 7830,
      "Ġrocked": 7831,
      "Ġinvestigate": 7832,
      "Ġrivalry": 7833,
      "Ġportug": 7834,
      "Ġfarm": 7835,
      "Ġstormed": 7836,
      "Ġcuban": 7837,
      "coni": 7838,
      "Ġfeeling": 7839,
      "Ġprompted": 7840,
      "Ġquietly": 7841,
      "Ġsymbol": 7842,
      "Ġimpressive": 7843,
      "Ġregarding": 7844,
      "Ġhugo": 7845,
      "cling": 7846,
      "fast": 7847,
      "tz": 7848,
      "isk": 7849,
      "Ġlcd": 7850,
      "Ġreign": 7851,
      "idays": 7852,
      "Ġstood": 7853,
      "Ġatop": 7854,
      "Ġtwin": 7855,
      "ibm": 7856,
      "Ġpolish": 7857,
      "Ġsatis": 7858,
      "Ġ67": 7859,
      "Ġquarterfinals": 7860,
      "Ġtriple": 7861,
      "Ġmissiles": 7862,
      "Ġsenator": 7863,
      "Ġentering": 7864,
      "Ġcompeting": 7865,
      "Ġfarmers": 7866,
      "Ġsupermarket": 7867,
      "Ġsprin": 7868,
      "Ġchanging": 7869,
      "Ġburied": 7870,
      "valley": 7871,
      "Ġjunk": 7872,
      "Ġramallah": 7873,
      "Ġconnections": 7874,
      "Ġmourning": 7875,
      "Ġfalcons": 7876,
      "Ġtickets": 7877,
      "Ġtemporary": 7878,
      "infoworld": 7879,
      "Ġembarrass": 7880,
      "82": 7881,
      "dri": 7882,
      "look": 7883,
      "taking": 7884,
      "Ġdot": 7885,
      "Ġlure": 7886,
      "oured": 7887,
      "ads": 7888,
      "imax": 7889,
      "Ġheight": 7890,
      "Ġoutfielder": 7891,
      "berts": 7892,
      "Ġsyrac": 7893,
      "Ġeconomists": 7894,
      "Ġmanaging": 7895,
      "Ġexplain": 7896,
      "Ġdropping": 7897,
      "Ġstanding": 7898,
      "Ġernie": 7899,
      "Ġtransform": 7900,
      "Ġartest": 7901,
      "Ġcongressional": 7902,
      "Ġfunction": 7903,
      "Ġkicked": 7904,
      "Ġvenus": 7905,
      "profile": 7906,
      "Ġrental": 7907,
      "spyware": 7908,
      "Ġsyracuse": 7909,
      "86": 7910,
      "equ": 7911,
      "free": 7912,
      "rum": 7913,
      "rising": 7914,
      "Ġpays": 7915,
      "itable": 7916,
      "Ġstalled": 7917,
      "Ġrup": 7918,
      "estyle": 7919,
      "iev": 7920,
      "Ġindicted": 7921,
      "Ġnotice": 7922,
      "Ġelite": 7923,
      "Ġmusab": 7924,
      "Ġsignals": 7925,
      "Ġtroop": 7926,
      "Ġstockholm": 7927,
      "Ġsevere": 7928,
      "Ġseeing": 7929,
      "ospace": 7930,
      "Ġcaptors": 7931,
      "Ġlocked": 7932,
      "Ġautomaker": 7933,
      "Ġsurvived": 7934,
      "Ġtemper": 7935,
      "boro": 7936,
      "Ġrecovered": 7937,
      "Ġrandy": 7938,
      "Ġoverturn": 7939,
      "iences": 7940,
      "Ġtensions": 7941,
      "erve": 7942,
      "esh": 7943,
      "Ġgift": 7944,
      "Ġforcing": 7945,
      "rie": 7946,
      "Ġhait": 7947,
      "Ġelectoral": 7948,
      "Ġ44": 7949,
      "Ġrecorded": 7950,
      "Ġ54": 7951,
      "Ġguards": 7952,
      "Ġthrowing": 7953,
      "Ġrebu": 7954,
      "Ġbelar": 7955,
      "Ġrefin": 7956,
      "Ġurge": 7957,
      "offs": 7958,
      "Ġvisa": 7959,
      "lining": 7960,
      "Ġengineer": 7961,
      "newratings": 7962,
      "Ġroma": 7963,
      "Ġtelling": 7964,
      "Ġrecalled": 7965,
      "Ġrockies": 7966,
      "Ġgrizz": 7967,
      "ography": 7968,
      "Ġteenager": 7969,
      "Ġicc": 7970,
      "Ġminority": 7971,
      "Ġcambodia": 7972,
      "Ġmeteor": 7973,
      "Ġchancellor": 7974,
      "eclick": 7975,
      "cnn": 7976,
      "pi": 7977,
      "south": 7978,
      "yang": 7979,
      "Ġpages": 7980,
      "Ġbc": 7981,
      "Ġwaves": 7982,
      "Ġhikes": 7983,
      "unction": 7984,
      "Ġseats": 7985,
      "Ġcompat": 7986,
      "Ġresident": 7987,
      "Ġbloom": 7988,
      "Ġscare": 7989,
      "Ġmoham": 7990,
      "oya": 7991,
      "Ġswept": 7992,
      "Ġ84": 7993,
      "Ġauthent": 7994,
      "mingham": 7995,
      "Ġmarking": 7996,
      "eneg": 7997,
      "Ġships": 7998,
      "Ġreplaced": 7999,
      "Ġarrive": 8000,
      "Ġdominate": 8001,
      "Ġchristian": 8002,
      "Ġhappened": 8003,
      "Ġrepresenting": 8004,
      "Ġconcessions": 8005,
      "Ġsociety": 8006,
      "dec": 8007,
      "jazeera": 8008,
      "overs": 8009,
      "orcl": 8010,
      "Ġwrest": 8011,
      "Ġhide": 8012,
      "icts": 8013,
      "Ġstamp": 8014,
      "Ġlaid": 8015,
      "Ġfinale": 8016,
      "Ġsingles": 8017,
      "eva": 8018,
      "Ġstandings": 8019,
      "Ġbuildings": 8020,
      "uggets": 8021,
      "Ġvalu": 8022,
      "Ġeasing": 8023,
      "Ġstripped": 8024,
      "Ġrecalls": 8025,
      "Ġethnic": 8026,
      "Ġhusband": 8027,
      "Ġpatches": 8028,
      "Ġawaited": 8029,
      "Ġgarden": 8030,
      "Ġremoved": 8031,
      "biggest": 8032,
      "Ġdestroyed": 8033,
      "Ġortiz": 8034,
      "Ġstolen": 8035,
      "mandu": 8036,
      "gment": 8037,
      "pac": 8038,
      "Ġfest": 8039,
      "Ġling": 8040,
      "Ġnuggets": 8041,
      "ecurity": 8042,
      "irty": 8043,
      "Ġchrysler": 8044,
      "Ġshape": 8045,
      "Ġmonit": 8046,
      "Ġupon": 8047,
      "Ġabroad": 8048,
      "ishi": 8049,
      "Ġworkforce": 8050,
      "Ġbillionaire": 8051,
      "Ġtimber": 8052,
      "Ġsupporting": 8053,
      "Ġphilip": 8054,
      "Ġhammer": 8055,
      "Ġshortage": 8056,
      "Ġemployers": 8057,
      "Ġemerge": 8058,
      "Ġdiscover": 8059,
      "Ġpledge": 8060,
      "Ġoccur": 8061,
      "Ġcomplaint": 8062,
      "Ġjacksonville": 8063,
      "Ġneighbor": 8064,
      "Ġconducted": 8065,
      "Ġrwanda": 8066,
      "Ġpioneer": 8067,
      "Ġsuddenly": 8068,
      "Ġliberty": 8069,
      "Ġnormal": 8070,
      "Ġenforcement": 8071,
      "Ġsubmarine": 8072,
      "lies": 8073,
      "mind": 8074,
      "size": 8075,
      "Ġia": 8076,
      "Ġfame": 8077,
      "atile": 8078,
      "Ġtoug": 8079,
      "Ġdict": 8080,
      "Ġanwar": 8081,
      "Ġgmail": 8082,
      "Ġstops": 8083,
      "agn": 8084,
      "kswag": 8085,
      "Ġqual": 8086,
      "arett": 8087,
      "Ġhailed": 8088,
      "Ġovercome": 8089,
      "Ġfines": 8090,
      "Ġimag": 8091,
      "Ġkiller": 8092,
      "Ġimposed": 8093,
      "Ġmichel": 8094,
      "Ġdirection": 8095,
      "peg": 8096,
      "Ġtrees": 8097,
      "otten": 8098,
      "Ġrobinson": 8099,
      "Ġsuffer": 8100,
      "146": 8101,
      "Ġadvertis": 8102,
      "Ġbirmingham": 8103,
      "Ġescape": 8104,
      "Ġsalvation": 8105,
      "Ġvulnerable": 8106,
      "Ġdisclosed": 8107,
      "Ġpunish": 8108,
      "Ġwholesale": 8109,
      "kswagen": 8110,
      "ean": 8111,
      "press": 8112,
      "Ġsoun": 8113,
      "Ġbuck": 8114,
      "Ġmood": 8115,
      "ateral": 8116,
      "Ġtott": 8117,
      "Ġdamp": 8118,
      "eces": 8119,
      "Ġjol": 8120,
      "Ġkil": 8121,
      "Ġkings": 8122,
      "oster": 8123,
      "ateg": 8124,
      "Ġsep": 8125,
      "raib": 8126,
      "ongyang": 8127,
      "Ġmedi": 8128,
      "Ġmedium": 8129,
      "Ġdealers": 8130,
      "Ġcolon": 8131,
      "Ġfederation": 8132,
      "Ġinsists": 8133,
      "Ġurban": 8134,
      "Ġdoug": 8135,
      "Ġqb": 8136,
      "Ġberlus": 8137,
      "Ġsimpl": 8138,
      "Ġtreo": 8139,
      "psft": 8140,
      "Ġvolkswagen": 8141,
      "Ġlouisville": 8142,
      "Ġmexican": 8143,
      "Ġimprovement": 8144,
      "Ġelectricity": 8145,
      "Ġtribun": 8146,
      "rillas": 8147,
      "Ġupdated": 8148,
      "Ġpenalties": 8149,
      "Ġghraib": 8150,
      "record": 8151,
      "Ġguidant": 8152,
      "linked": 8153,
      "Ġcrystal": 8154,
      "Ġvarious": 8155,
      "Ġchaos": 8156,
      "president": 8157,
      "Ġprincip": 8158,
      "Ġgrizzlies": 8159,
      "aware": 8160,
      "body": 8161,
      "ew": 8162,
      "Ġichiro": 8163,
      "Ġsights": 8164,
      "Ġthor": 8165,
      "Ġcraw": 8166,
      "anim": 8167,
      "Ġbaker": 8168,
      "Ġreward": 8169,
      "Ġri": 8170,
      "Ġkel": 8171,
      "Ġconced": 8172,
      "essor": 8173,
      "Ġintense": 8174,
      "ubishi": 8175,
      "Ġtrapped": 8176,
      "izz": 8177,
      "Ġaccuses": 8178,
      "Ġretain": 8179,
      "Ġconfront": 8180,
      "Ġbidding": 8181,
      "Ġ197": 8182,
      "Ġ86": 8183,
      "Ġholmes": 8184,
      "Ġholidays": 8185,
      "Ġaddition": 8186,
      "Ġsupercomp": 8187,
      "Ġfavre": 8188,
      "Ġfinishing": 8189,
      "Ġlouisiana": 8190,
      "Ġeventually": 8191,
      "Ġspokeswoman": 8192,
      "Ġinventory": 8193,
      "Ġattendants": 8194,
      "Ġdevastating": 8195,
      "Ġsoyuz": 8196,
      "Ġexclusive": 8197,
      "Ġunusual": 8198,
      "Ġsouness": 8199,
      "Ġberlusconi": 8200,
      "iat": 8201,
      "kok": 8202,
      "rim": 8203,
      "rors": 8204,
      "Ġmd": 8205,
      "arch": 8206,
      "Ġhague": 8207,
      "isse": 8208,
      "Ġgill": 8209,
      "start": 8210,
      "Ġyellow": 8211,
      "Ġqueen": 8212,
      "Ġworms": 8213,
      "Ġreput": 8214,
      "Ġdeclines": 8215,
      "itsch": 8216,
      "Ġ63": 8217,
      "Ġterry": 8218,
      "Ġgrace": 8219,
      "perform": 8220,
      "Ġyanks": 8221,
      "Ġbehav": 8222,
      "Ġverge": 8223,
      "Ġaids": 8224,
      "scale": 8225,
      "Ġspeedway": 8226,
      "Ġfreshman": 8227,
      "Ġovershad": 8228,
      "encia": 8229,
      "Ġguerrillas": 8230,
      "Ġeliminate": 8231,
      "Ġpyongyang": 8232,
      "Ġjamaica": 8233,
      "food": 8234,
      "gets": 8235,
      "wmt": 8236,
      "zn": 8237,
      "zone": 8238,
      "Ġ_": 8239,
      "Ġcenters": 8240,
      "Ġpin": 8241,
      "Ġpounded": 8242,
      "Ġwolf": 8243,
      "Ġmoss": 8244,
      "terious": 8245,
      "Ġstays": 8246,
      "ches": 8247,
      "akh": 8248,
      "andan": 8249,
      "Ġ250": 8250,
      "Ġquarters": 8251,
      "istide": 8252,
      "Ġincident": 8253,
      "Ġbloc": 8254,
      "ampton": 8255,
      "eyer": 8256,
      "Ġ47": 8257,
      "Ġ52": 8258,
      "Ġzook": 8259,
      "Ġhamstring": 8260,
      "Ġbayern": 8261,
      "Ġtommy": 8262,
      "Ġwithdrew": 8263,
      "Ġbangkok": 8264,
      "Ġprobes": 8265,
      "Ġeager": 8266,
      "Ġpitc": 8267,
      "Ġintellect": 8268,
      "Ġindependence": 8269,
      "Ġambitions": 8270,
      "Ġmarriage": 8271,
      "Ġmassacre": 8272,
      "Ġvaluable": 8273,
      "51": 8274,
      "cies": 8275,
      "uals": 8276,
      "Ġtree": 8277,
      "eder": 8278,
      "Ġmud": 8279,
      "Ġmvp": 8280,
      "Ġlind": 8281,
      "Ġni": 8282,
      "Ġrena": 8283,
      "Ġbear": 8284,
      "umber": 8285,
      "ineon": 8286,
      "Ġabc": 8287,
      "Ġserge": 8288,
      "Ġboys": 8289,
      "Ġwarm": 8290,
      "Ġmilestone": 8291,
      "Ġglitch": 8292,
      "Ġposting": 8293,
      "Ġlongest": 8294,
      "Ġeds": 8295,
      "Ġurging": 8296,
      "Ġglobe": 8297,
      "Ġspecific": 8298,
      "Ġstandoff": 8299,
      "uja": 8300,
      "Ġnegative": 8301,
      "Ġclearing": 8302,
      "Ġcycling": 8303,
      "Ġlaboratory": 8304,
      "what": 8305,
      "Ġtelecoms": 8306,
      "Ġparliamentary": 8307,
      "Ġweighed": 8308,
      "Ġshawn": 8309,
      "Ġsavings": 8310,
      "Ġrapidly": 8311,
      "Ġbrewers": 8312,
      "Ġaerospace": 8313,
      "omerie": 8314,
      "Ġtribunal": 8315,
      "called": 8316,
      "mont": 8317,
      "Ġtort": 8318,
      "Ġaides": 8319,
      "Ġfo": 8320,
      "Ġfis": 8321,
      "Ġfights": 8322,
      "Ġbure": 8323,
      "Ġwis": 8324,
      "thursday": 8325,
      "ighter": 8326,
      "Ġunle": 8327,
      "Ġalt": 8328,
      "Ġgross": 8329,
      "Ġendors": 8330,
      "azi": 8331,
      "Ġparaly": 8332,
      "onym": 8333,
      "Ġthrows": 8334,
      "Ġwalked": 8335,
      "Ġdirectly": 8336,
      "Ġblackburn": 8337,
      "Ġcompleting": 8338,
      "Ġclears": 8339,
      "Ġjuan": 8340,
      "Ġnegotiators": 8341,
      "Ġsuggesting": 8342,
      "Ġsantander": 8343,
      "Ġhappen": 8344,
      "Ġdistribut": 8345,
      "Ġcertainly": 8346,
      "Ġmadison": 8347,
      "hardt": 8348,
      "Ġearnhardt": 8349,
      "Ġsleep": 8350,
      "Ġreplacing": 8351,
      "Ġobservers": 8352,
      "Ġmontgomerie": 8353,
      "Ġsurrender": 8354,
      "Ġpitcairn": 8355,
      "book": 8356,
      "Ġtd": 8357,
      "Ġtas": 8358,
      "Ġsaints": 8359,
      "rocess": 8360,
      "Ġunable": 8361,
      "Ġbruce": 8362,
      "Ġblaz": 8363,
      "Ġdelivers": 8364,
      "Ġinfoworld": 8365,
      "Ġinfineon": 8366,
      "Ġremark": 8367,
      "Ġ99": 8368,
      "intc": 8369,
      "Ġdoctor": 8370,
      "screen": 8371,
      "Ġinvolvement": 8372,
      "Ġroyals": 8373,
      "Ġmysterious": 8374,
      "Ġobserv": 8375,
      "Ġrankings": 8376,
      "Ġfaith": 8377,
      "Ġanswers": 8378,
      "Ġhawks": 8379,
      "Ġplunged": 8380,
      "Ġtransportation": 8381,
      "ascus": 8382,
      "ipei": 8383,
      "Ġtanks": 8384,
      "mn": 8385,
      "oa": 8386,
      "pur": 8387,
      "rage": 8388,
      "rang": 8389,
      "water": 8390,
      "inated": 8391,
      "Ġfbi": 8392,
      "Ġpsy": 8393,
      "Ġmumb": 8394,
      "Ġing": 8395,
      "Ġnuke": 8396,
      "ila": 8397,
      "acts": 8398,
      "Ġstal": 8399,
      "Ġstro": 8400,
      "this": 8401,
      "Ġker": 8402,
      "oses": 8403,
      "Ġshook": 8404,
      "resp": 8405,
      "istent": 8406,
      "Ġroster": 8407,
      "uez": 8408,
      "Ġteammate": 8409,
      "afee": 8410,
      "Ġbatteries": 8411,
      "Ġfilms": 8412,
      "Ġadvice": 8413,
      "Ġlowe": 8414,
      "Ġdivided": 8415,
      "Ġrevive": 8416,
      "Ġvalencia": 8417,
      "Ġtype": 8418,
      "Ġlanded": 8419,
      "Ġdamaged": 8420,
      "tran": 8421,
      "Ġromania": 8422,
      "Ġupgrades": 8423,
      "warz": 8424,
      "Ġanimals": 8425,
      "Ġmalaysian": 8426,
      "party": 8427,
      "Ġswimming": 8428,
      "two": 8429,
      "Ġcoffee": 8430,
      "mosphere": 8431,
      "Ġtottenham": 8432,
      "hander": 8433,
      "ql": 8434,
      "Ġtorn": 8435,
      "Ġske": 8436,
      "Ġbog": 8437,
      "isp": 8438,
      "isive": 8439,
      "Ġnag": 8440,
      "Ġgig": 8441,
      "Ġatmosphere": 8442,
      "udh": 8443,
      "Ġcloning": 8444,
      "Ġwarplanes": 8445,
      "Ġsupports": 8446,
      "Ġmisses": 8447,
      "Ġhosts": 8448,
      "Ġmetro": 8449,
      "Ġbert": 8450,
      "Ġmalcol": 8451,
      "Ġdamascus": 8452,
      "Ġlifting": 8453,
      "Ġavailability": 8454,
      "Ġhybr": 8455,
      "Ġindicated": 8456,
      "Ġvenezuelan": 8457,
      "Ġhonor": 8458,
      "Ġlibraries": 8459,
      "Ġgrabbed": 8460,
      "Ġparticularly": 8461,
      "Ġprescription": 8462,
      "Ġunchanged": 8463,
      "Ġmitsubishi": 8464,
      "Ġkathmandu": 8465,
      "Ġbelarus": 8466,
      "Ġtougher": 8467,
      "Ġmalcolm": 8468,
      "bal": 8469,
      "even": 8470,
      "iya": 8471,
      "Ġ;": 8472,
      "Ġtric": 8473,
      "Ġaaron": 8474,
      "Ġcbs": 8475,
      "Ġfuj": 8476,
      "Ġnc": 8477,
      "Ġformed": 8478,
      "Ġrash": 8479,
      "Ġyug": 8480,
      "Ġque": 8481,
      "Ġalaska": 8482,
      "Ġclues": 8483,
      "Ġquoted": 8484,
      "Ġmicrop": 8485,
      "Ġmanned": 8486,
      "Ġsoar": 8487,
      "Ġwouldn": 8488,
      "Ġfee": 8489,
      "Ġzur": 8490,
      "Ġbelgian": 8491,
      "class": 8492,
      "Ġclosest": 8493,
      "Ġactions": 8494,
      "Ġaviv": 8495,
      "Ġhandle": 8496,
      "Ġreceiving": 8497,
      "Ġpulling": 8498,
      "Ġburst": 8499,
      "Ġbalance": 8500,
      "Ġdominance": 8501,
      "Ġreadies": 8502,
      "Ġjointly": 8503,
      "Ġpursue": 8504,
      "Ġgovt": 8505,
      "Ġtaipei": 8506,
      "Ġjonathan": 8507,
      "goog": 8508,
      "Ġrafael": 8509,
      "52": 8510,
      "dig": 8511,
      "hp": 8512,
      "tax": 8513,
      "Ġfake": 8514,
      "Ġbamb": 8515,
      "Ġmgm": 8516,
      "Ġanx": 8517,
      "Ġeases": 8518,
      "oly": 8519,
      "Ġchick": 8520,
      "Ġdeport": 8521,
      "acking": 8522,
      "ucky": 8523,
      "ricult": 8524,
      "abit": 8525,
      "Ġoutcome": 8526,
      "Ġpresid": 8527,
      "Ġblocks": 8528,
      "Ġscale": 8529,
      "Ġcommod": 8530,
      "Ġcape": 8531,
      "Ġproducing": 8532,
      "Ġpayroll": 8533,
      "Ġprovision": 8534,
      "Ġlatin": 8535,
      "Ġtradem": 8536,
      "Ġbases": 8537,
      "peop": 8538,
      "Ġdamages": 8539,
      "Ġstayed": 8540,
      "Ġestimate": 8541,
      "computerworld": 8542,
      "Ġmistakes": 8543,
      "Ġerupted": 8544,
      "Ġuncertainty": 8545,
      "Ġenhance": 8546,
      "Ġmercury": 8547,
      "Ġsuzuki": 8548,
      "Ġmumbai": 8549,
      "del": 8550,
      "hs": 8551,
      "pose": 8552,
      "tel": 8553,
      "torn": 8554,
      "Ġian": 8555,
      "Ġsort": 8556,
      "Ġfidel": 8557,
      "Ġpu": 8558,
      "ita": 8559,
      "Ġlam": 8560,
      "ete": 8561,
      "ader": 8562,
      "Ġbeer": 8563,
      "Ġunco": 8564,
      "Ġoverc": 8565,
      "Ġexpenses": 8566,
      "orders": 8567,
      "irez": 8568,
      "Ġtrucks": 8569,
      "Ġdisrup": 8570,
      "actions": 8571,
      "Ġconsult": 8572,
      "Ġfedex": 8573,
      "Ġfallen": 8574,
      "Ġtroy": 8575,
      "Ġ88": 8576,
      "Ġiyad": 8577,
      "Ġdeton": 8578,
      "Ġpublicly": 8579,
      "Ġerror": 8580,
      "Ġinterests": 8581,
      "Ġpurdue": 8582,
      "Ġjunior": 8583,
      "Ġappealed": 8584,
      "Ġramirez": 8585,
      "Ġeta": 8586,
      "Ġhunger": 8587,
      "Ġvulnerability": 8588,
      "Ġstanford": 8589,
      "Ġfreddie": 8590,
      "Ġhornets": 8591,
      "Ġnecessary": 8592,
      "Ġzurich": 8593,
      "26": 8594,
      "gun": 8595,
      "wolves": 8596,
      "arks": 8597,
      "Ġhil": 8598,
      "Ġhoney": 8599,
      "Ġdere": 8600,
      "Ġdave": 8601,
      "Ġlying": 8602,
      "Ġreass": 8603,
      "idden": 8604,
      "Ġkreme": 8605,
      "Ġwors": 8606,
      "Ġtracks": 8607,
      "aving": 8608,
      "Ġconsiders": 8609,
      "ierre": 8610,
      "phones": 8611,
      "Ġpalms": 8612,
      "Ġhomers": 8613,
      "Ġembargo": 8614,
      "Ġtvs": 8615,
      "Ġpopularity": 8616,
      "Ġslowly": 8617,
      "Ġclinched": 8618,
      "Ġfilmmaker": 8619,
      "Ġbattling": 8620,
      "Ġvulnerabilities": 8621,
      "Ġmedicine": 8622,
      "Ġacknowledged": 8623,
      "school": 8624,
      "Ġqualcomm": 8625,
      "Ġreputation": 8626,
      "hop": 8627,
      "ja": 8628,
      "pen": 8629,
      "Ġicon": 8630,
      "elie": 8631,
      "Ġanderson": 8632,
      "Ġral": 8633,
      "Ġkiev": 8634,
      "ules": 8635,
      "Ġusual": 8636,
      "Ġalab": 8637,
      "Ġframe": 8638,
      "Ġmargin": 8639,
      "Ġaristide": 8640,
      "Ġassists": 8641,
      "atham": 8642,
      "Ġscheme": 8643,
      "oked": 8644,
      "Ġunderstand": 8645,
      "Ġhitachi": 8646,
      "eeves": 8647,
      "Ġ96": 8648,
      "Ġfirewall": 8649,
      "Ġtradition": 8650,
      "official": 8651,
      "Ġrocks": 8652,
      "Ġvideot": 8653,
      "Ġcontractor": 8654,
      "Ġmci": 8655,
      "Ġportland": 8656,
      "Ġbarrels": 8657,
      "Ġsquee": 8658,
      "Ġcelebrated": 8659,
      "Ġflew": 8660,
      "Ġdiplomat": 8661,
      "Ġweighs": 8662,
      "Ġdawn": 8663,
      "Ġhouses": 8664,
      "Ġgirls": 8665,
      "Ġstanley": 8666,
      "Ġdelegation": 8667,
      "Ġskipper": 8668,
      "Ġitems": 8669,
      "Ġrodriguez": 8670,
      "Ġmonitoring": 8671,
      "has": 8672,
      "wednesday": 8673,
      "yton": 8674,
      "Ġsor": 8675,
      "esco": 8676,
      "Ġpond": 8677,
      "Ġborn": 8678,
      "Ġdestin": 8679,
      "Ġnz": 8680,
      "ilit": 8681,
      "Ġsting": 8682,
      "step": 8683,
      "Ġresh": 8684,
      "Ġblo": 8685,
      "atched": 8686,
      "Ġundergo": 8687,
      "Ġviacom": 8688,
      "Ġchipmaker": 8689,
      "iffs": 8690,
      "Ġacquiring": 8691,
      "Ġspeaking": 8692,
      "Ġequal": 8693,
      "Ġdistance": 8694,
      "attan": 8695,
      "running": 8696,
      "Ġnature": 8697,
      "Ġsitting": 8698,
      "Ġanimation": 8699,
      "Ġsurprised": 8700,
      "Ġpursuit": 8701,
      "Ġlength": 8702,
      "Ġsymbian": 8703,
      "Ġrepeated": 8704,
      "Ġdialogue": 8705,
      "Ġsubstant": 8706,
      "Ġgrenade": 8707,
      "Ġsorenst": 8708,
      "Ġlobby": 8709,
      "Ġdhaka": 8710,
      "Ġtycoon": 8711,
      "Ġcatholic": 8712,
      "Ġsuspicion": 8713,
      "Ġpermanent": 8714,
      "Ġrebuild": 8715,
      "Ġsorenstam": 8716,
      "ext": 8717,
      "rative": 8718,
      "uers": 8719,
      "Ġtender": 8720,
      "Ġak": 8721,
      "Ġsag": 8722,
      "Ġthwart": 8723,
      "Ġwear": 8724,
      "Ġmix": 8725,
      "Ġhend": 8726,
      "ouri": 8727,
      "Ġontar": 8728,
      "Ġsteep": 8729,
      "utt": 8730,
      "uties": 8731,
      "Ġrim": 8732,
      "Ġchosen": 8733,
      "Ġyudh": 8734,
      "Ġvon": 8735,
      "Ġvanc": 8736,
      "eller": 8737,
      "Ġindo": 8738,
      "Ġpermission": 8739,
      "Ġimminent": 8740,
      "Ġsoars": 8741,
      "Ġsyrian": 8742,
      "oyono": 8743,
      "Ġdrama": 8744,
      "Ġschw": 8745,
      "Ġschwarz": 8746,
      "Ġbombers": 8747,
      "Ġbelong": 8748,
      "Ġcostly": 8749,
      "Ġbasis": 8750,
      "Ġdeparture": 8751,
      "Ġliberal": 8752,
      "ippers": 8753,
      "Ġpaula": 8754,
      "Ġafford": 8755,
      "Ġfifa": 8756,
      "Ġukrainian": 8757,
      "Ġalexander": 8758,
      "Ġadopted": 8759,
      "terrorism": 8760,
      "Ġericsson": 8761,
      "Ġbhp": 8762,
      "Ġcondemned": 8763,
      "Ġtriggered": 8764,
      "Ġrossi": 8765,
      "Ġinaugural": 8766,
      "rahim": 8767,
      "Ġklitsch": 8768,
      "Ġgenetic": 8769,
      "Ġacceler": 8770,
      "Ġexercise": 8771,
      "Ġkrispy": 8772,
      "Ġpresidency": 8773,
      "Ġyudhoyono": 8774,
      "33": 8775,
      "di": 8776,
      "eagu": 8777,
      "iago": 8778,
      "low": 8779,
      "laim": 8780,
      "nl": 8781,
      "sup": 8782,
      "Ġthunder": 8783,
      "Ġcaf": 8784,
      "Ġtheory": 8785,
      "Ġfol": 8786,
      "Ġbold": 8787,
      "Ġhedge": 8788,
      "ayers": 8789,
      "ilateral": 8790,
      "ouver": 8791,
      "irts": 8792,
      "Ġripped": 8793,
      "Ġjpeg": 8794,
      "Ġagricult": 8795,
      "iform": 8796,
      "Ġuprising": 8797,
      "gtime": 8798,
      "Ġindefin": 8799,
      "Ġcole": 8800,
      "Ġpeyton": 8801,
      "Ġcrunch": 8802,
      "Ġbuoy": 8803,
      "Ġ68": 8804,
      "Ġsurpass": 8805,
      "Ġwritten": 8806,
      "Ġacquires": 8807,
      "Ġbulls": 8808,
      "Ġgathering": 8809,
      "Ġodds": 8810,
      "Ġbreeders": 8811,
      "Ġcasualties": 8812,
      "Ġlongtime": 8813,
      "Ġcompromise": 8814,
      "Ġlyon": 8815,
      "Ġmaoist": 8816,
      "Ġrenault": 8817,
      "Ġontario": 8818,
      "Ġvancouver": 8819,
      "Ġklitschko": 8820,
      "eaguered": 8821,
      "bucks": 8822,
      "ders": 8823,
      "rants": 8824,
      "Ġsick": 8825,
      "Ġborrow": 8826,
      "stream": 8827,
      "Ġrio": 8828,
      "Ġranked": 8829,
      "Ġatp": 8830,
      "Ġusually": 8831,
      "Ġenable": 8832,
      "Ġark": 8833,
      "Ġslams": 8834,
      "Ġsurve": 8835,
      "Ġregions": 8836,
      "Ġaustin": 8837,
      "ultane": 8838,
      "Ġreleasing": 8839,
      "Ġqwest": 8840,
      "Ġmcafee": 8841,
      "Ġlisted": 8842,
      "Ġfueled": 8843,
      "Ġprisoner": 8844,
      "Ġbali": 8845,
      "Ġnegotiating": 8846,
      "Ġcalend": 8847,
      "halo": 8848,
      "Ġaudit": 8849,
      "Ġmoments": 8850,
      "Ġtelephony": 8851,
      "Ġsignificantly": 8852,
      "omberg": 8853,
      "Ġmeaning": 8854,
      "Ġronald": 8855,
      "Ġadopt": 8856,
      "Ġbernie": 8857,
      "Ġrepeat": 8858,
      "Ġconcluded": 8859,
      "Ġsustained": 8860,
      "Ġdetainees": 8861,
      "Ġcollapsed": 8862,
      "Ġmavericks": 8863,
      "Ġintellectual": 8864,
      "Ġfischer": 8865,
      "Ġpsych": 8866,
      "Ġalabama": 8867,
      "Ġmice": 8868,
      "Ġmeyer": 8869,
      "Ġdim": 8870,
      "Ġnab": 8871,
      "Ġgang": 8872,
      "Ġgdp": 8873,
      "acular": 8874,
      "ulkar": 8875,
      "Ġconrad": 8876,
      "ardy": 8877,
      "Ġprint": 8878,
      "Ġslows": 8879,
      "Ġslashed": 8880,
      "Ġparad": 8881,
      "Ġrelatively": 8882,
      "shire": 8883,
      "Ġ89": 8884,
      "Ġbrett": 8885,
      "Ġstarbucks": 8886,
      "Ġcustody": 8887,
      "Ġharrington": 8888,
      "Ġmatchup": 8889,
      "Ġvolatile": 8890,
      "Ġcheer": 8891,
      "Ġgraeme": 8892,
      "Ġaudience": 8893,
      "Ġagreeing": 8894,
      "Ġcounterfe": 8895,
      "Ġsiebel": 8896,
      "Ġbounce": 8897,
      "Ġcornerback": 8898,
      "Ġgazprom": 8899,
      "Ġoffshore": 8900,
      "95": 8901,
      "defin": 8902,
      "fit": 8903,
      "russ": 8904,
      "Ġbah": 8905,
      "Ġink": 8906,
      "ingly": 8907,
      "Ġlith": 8908,
      "Ġstable": 8909,
      "oted": 8910,
      "Ġwhales": 8911,
      "umi": 8912,
      "Ġopter": 8913,
      "Ġabuja": 8914,
      "plus": 8915,
      "Ġsuits": 8916,
      "Ġmaur": 8917,
      "Ġbatting": 8918,
      "Ġwired": 8919,
      "Ġcharging": 8920,
      "Ġrivers": 8921,
      "Ġclubs": 8922,
      "Ġembry": 8923,
      "Ġblocked": 8924,
      "Ġpremium": 8925,
      "Ġrequired": 8926,
      "Ġreader": 8927,
      "Ġclinical": 8928,
      "Ġdreamworks": 8929,
      "Ġspurrier": 8930,
      "Ġelsewhere": 8931,
      "Ġoccupied": 8932,
      "Ġambitious": 8933,
      "Ġfavourite": 8934,
      "'d": 8935,
      "but": 8936,
      "dv": 8937,
      "def": 8938,
      "tuesday": 8939,
      "Ġsut": 8940,
      "Ġsacked": 8941,
      "onz": 8942,
      "Ġlived": 8943,
      "cepts": 8944,
      "Ġconven": 8945,
      "Ġunknown": 8946,
      "Ġclippers": 8947,
      "Ġintention": 8948,
      "Ġslum": 8949,
      "Ġcarries": 8950,
      "Ġnorwe": 8951,
      "Ġtelstra": 8952,
      "Ġgreg": 8953,
      "Ġbeleaguered": 8954,
      "shell": 8955,
      "Ġ1980": 8956,
      "Ġbattery": 8957,
      "Ġbreach": 8958,
      "Ġmcgr": 8959,
      "Ġdefeats": 8960,
      "Ġpanama": 8961,
      "Ġarrival": 8962,
      "Ġarticle": 8963,
      "Ġfuneral": 8964,
      "bleclick": 8965,
      "Ġsantiago": 8966,
      "Ġprofessionals": 8967,
      "Ġpraise": 8968,
      "Ġguidance": 8969,
      "Ġmahm": 8970,
      "Ġexperimental": 8971,
      "doubleclick": 8972,
      "Ġkazakh": 8973,
      "Ġmickelson": 8974,
      "Ġtimberwolves": 8975,
      "Ġmicroprocess": 8976,
      "Ġpalmsource": 8977,
      "base": 8978,
      "ci": 8979,
      "gi": 8980,
      "mobile": 8981,
      "rament": 8982,
      "Ġpill": 8983,
      "itals": 8984,
      "Ġdiet": 8985,
      "Ġgp": 8986,
      "Ġgem": 8987,
      "that": 8988,
      "Ġkan": 8989,
      "Ġvari": 8990,
      "Ġclock": 8991,
      "Ġslid": 8992,
      "Ġemp": 8993,
      "iously": 8994,
      "Ġsouthampton": 8995,
      "Ġantar": 8996,
      "Ġactive": 8997,
      "Ġfacilities": 8998,
      "Ġagreements": 8999,
      "Ġverd": 9000,
      "Ġdesktops": 9001,
      "imbled": 9002,
      "Ġmaccentral": 9003,
      "Ġtravelers": 9004,
      "Ġtracking": 9005,
      "Ġdvds": 9006,
      "Ġluke": 9007,
      "Ġcrossing": 9008,
      "2004": 9009,
      "Ġexploration": 9010,
      "Ġintegrated": 9011,
      "ographic": 9012,
      "Ġbargh": 9013,
      "Ġtendulkar": 9014,
      "Ġphysical": 9015,
      "Ġcanceled": 9016,
      "Ġmultimedia": 9017,
      "Ġmanhattan": 9018,
      "Ġhybrid": 9019,
      "ramento": 9020,
      "mine": 9021,
      "nm": 9022,
      "vy": 9023,
      "Ġpsp": 9024,
      "Ġbash": 9025,
      "Ġwimax": 9026,
      "Ġwimbled": 9027,
[...]
