{
  "version": "1.0",
  "truncation": null,
  "padding": null,
  "added_tokens": [
    {
      "id": 0,
      "content": "<unk>",
      "single_word": false,
      "lstrip": false,
      "rstrip": false,
      "normalized": false,
      "special": true
    },
    {
      "id": 1,
      "content": "<cls>",
      "single_word": false,
      "lstrip": false,
      "rstrip": false,
      "normalized": false,
      "special": true
    },
    {
      "id": 2,
      "content": "<s>",
      "single_word": false,
      "lstrip": false,
      "rstrip": false,
      "normalized": false,
      "special": true
    },
    {
      "id": 3,
      "content": "</s>",
      "single_word": false,
      "lstrip": false,
      "rstrip": false,
      "normalized": false,
      "special": true
    },
    {
      "id": 4,
      "content": "<mask>",
      "single_word": false,
      "lstrip": false,
      "rstrip": false,
      "normalized": false,
      "special": true
    },
    {
      "id": 5,
      "content": "<sep>",
      "single_word": false,
      "lstrip": false,
      "rstrip": false,
      "normalized": false,
      "special": true
    },
    {
      "id": 6,
      "content": "<pad>",
      "single_word": false,
      "lstrip": false,
      "rstrip": false,
      "normalized": false,
      "special": true
    }
  ],
  "normalizer": {
    "type": "Sequence",
    "normalizers": [
      {
        "type": "Replace",
        "pattern": {
          "String": "``"
        },
        "content": "\""
      },
      {
        "type": "Replace",
        "pattern": {
          "String": "''"
        },
        "content": "\""
      },
      {
        "type": "NFD"
      },
      {
        "type": "Lowercase"
      },
      {
        "type": "StripAccents"
      },
      {
        "type": "Replace",
        "pattern": {
          "Regex": " {2,}"
        },
        "content": " "
      },
      {
        "type": "Replace",
        "pattern": {
          "Regex": "[^\\x00-\\x7F]+"
        },
        "content": ""
      }
    ]
  },
  "pre_tokenizer": {
    "type": "Whitespace"
  },
  "post_processor": {
    "type": "TemplateProcessing",
    "single": [
      {
        "Sequence": {
          "id": "A",
          "type_id": 0
        }
      },
      {
        "SpecialToken": {
          "id": "<sep>",
          "type_id": 0
        }
      }
    ],
    "pair": [
      {
        "SpecialToken": {
          "id": "<cls>",
          "type_id": 0
        }
      },
      {
        "Sequence": {
          "id": "A",
          "type_id": 0
        }
      },
      {
        "SpecialToken": {
          "id": "<sep>",
          "type_id": 0
        }
      },
      {
        "Sequence": {
          "id": "B",
          "type_id": 0
        }
      },
      {
        "SpecialToken": {
          "id": "<sep>",
          "type_id": 0
        }
      }
    ],
    "special_tokens": {
      "<cls>": {
        "id": "<cls>",
        "ids": [
          1
        ],
        "tokens": [
          "<cls>"
        ]
      },
      "<sep>": {
        "id": "<sep>",
        "ids": [
          5
        ],
        "tokens": [
          "<sep>"
        ]
      }
    }
  },
  "decoder": {
    "type": "WordPiece",
    "prefix": "##",
    "cleanup": true
  },
  "model": {
    "type": "WordPiece",
    "unk_token": "<unk>",
    "continuing_subword_prefix": "##",
    "max_input_chars_per_word": 100,
    "vocab": {
      "<unk>": 0,
      "<cls>": 1,
      "<s>": 2,
      "</s>": 3,
      "<mask>": 4,
      "<sep>": 5,
      "<pad>": 6,
      "\u0000": 7,
      "\u0001": 8,
      "\u0002": 9,
      "\u0003": 10,
      "\u0004": 11,
      "\u0005": 12,
      "\u0006": 13,
      "\u0007": 14,
      "\b": 15,
      "\u000e": 16,
      "\u000f": 17,
      "\u0010": 18,
      "\u0011": 19,
      "\u0012": 20,
      "\u0013": 21,
      "\u0014": 22,
      "\u0015": 23,
      "\u0016": 24,
      "\u0017": 25,
      "\u0018": 26,
      "\u0019": 27,
      "\u001a": 28,
      "\u001b": 29,
      "\u001c": 30,
      "\u001d": 31,
      "\u001e": 32,
      "\u001f": 33,
      "!": 34,
      "\"": 35,
      "#": 36,
      "$": 37,
      "%": 38,
      "&": 39,
      "'": 40,
      "(": 41,
      ")": 42,
      "*": 43,
      "+": 44,
      ",": 45,
      "-": 46,
      ".": 47,
      "/": 48,
      "0": 49,
      "1": 50,
      "2": 51,
      "3": 52,
      "4": 53,
      "5": 54,
      "6": 55,
      "7": 56,
      "8": 57,
      "9": 58,
      ":": 59,
      ";": 60,
      "<": 61,
      "=": 62,
      ">": 63,
      "?": 64,
      "@": 65,
      "[": 66,
      "\\": 67,
      "]": 68,
      "^": 69,
      "_": 70,
      "`": 71,
      "a": 72,
      "b": 73,
      "c": 74,
      "d": 75,
      "e": 76,
      "f": 77,
      "g": 78,
      "h": 79,
      "i": 80,
      "j": 81,
      "k": 82,
      "l": 83,
      "m": 84,
      "n": 85,
      "o": 86,
      "p": 87,
      "q": 88,
      "r": 89,
      "s": 90,
      "t": 91,
      "u": 92,
      "v": 93,
      "w": 94,
      "x": 95,
      "y": 96,
      "z": 97,
      "{": 98,
      "|": 99,
      "}": 100,
      "~": 101,
      "": 102,
      "##n": 103,
      "##p": 104,
      "##r": 105,
      "##e": 106,
      "##v": 107,
      "##o": 108,
      "##k": 109,
      "##d": 110,
      "##6": 111,
      "##a": 112,
      "##0": 113,
      "##4": 114,
      "##9": 115,
      "##3": 116,
      "##s": 117,
      "##t": 118,
      "##z": 119,
      "##1": 120,
      "##7": 121,
      "##2": 122,
      "##i": 123,
      "##y": 124,
      "##f": 125,
      "##h": 126,
      "##g": 127,
      "##l": 128,
      "##u": 129,
      "##b": 130,
      "##c": 131,
      "##m": 132,
      "##j": 133,
      "##5": 134,
      "##w": 135,
      "##8": 136,
      "##_": 137,
      "##x": 138,
      "##q": 139,
      "##)": 140,
      "##]": 141,
      "##,": 142,
      "##^": 143,
      "##*": 144,
      "##.": 145,
      "##!": 146,
      "##}": 147,
      "##\"": 148,
      "##{": 149,
      "###": 150,
      "##?": 151,
      "##'": 152,
      "##;": 153,
      "##=": 154,
      "##+": 155,
      "##[": 156,
      "##/": 157,
      "##-": 158,
      "##:": 159,
      "##@": 160,
      "##$": 161,
      "##\\": 162,
      "##(": 163,
      "##<": 164,
      "##>": 165,
      "##~": 166,
      "##%": 167,
      "##|": 168,
      "##&": 169,
      "##\u0003": 170,
      "##\u001f": 171,
      "##\u0010": 172,
      "##\u001a": 173,
      "##\u0017": 174,
      "##\u0011": 175,
      "##\u0013": 176,
      "##\u0015": 177,
      "##\u0001": 178,
      "##`": 179,
      "##\u0018": 180,
      "##\u000e": 181,
      "##\u001c": 182,
      "##\u000f": 183,
      "##\u0012": 184,
      "##\u0016": 185,
      "##\u0019": 186,
      "##\u001d": 187,
      "##\u0014": 188,
      "##\u0006": 189,
      "##\b": 190,
      "##": 191,
      "##\u001b": 192,
      "##\u0004": 193,
      "##\u0005": 194,
      "##\u0000": 195,
      "##\u0007": 196,
      "##\u0002": 197,
      "##\u001e": 198,
      "th": 199,
      "##er": 200,
      "the": 201,
      "##in": 202,
      "##on": 203,
      "##at": 204,
      "##en": 205,
      "##es": 206,
      "##ed": 207,
      "##or": 208,
      "##nd": 209,
      "##ing": 210,
      "in": 211,
      "##al": 212,
      "of": 213,
      "##ar": 214,
      "##it": 215,
      "##an": 216,
      "##ou": 217,
      "to": 218,
      "##is": 219,
      "and": 220,
      "##ic": 221,
      "##ion": 222,
      "##as": 223,
      "##re": 224,
      "##om": 225,
      "##ent": 226,
      "##le": 227,
      "##el": 228,
      "##ct": 229,
      "##il": 230,
      "##et": 231,
      "##ro": 232,
      "##st": 233,
      "re": 234,
      "##ot": 235,
      "be": 236,
      "wh": 237,
      "##ly": 238,
      "##id": 239,
      "for": 240,
      "is": 241,
      "##ut": 242,
      "on": 243,
      "##ve": 244,
      "st": 245,
      "##ur": 246,
      "that": 247,
      "##ch": 248,
      "##ce": 249,
      "##ad": 250,
      "##ation": 251,
      "##ol": 252,
      "##ow": 253,
      "##ig": 254,
      "it": 255,
      "##ay": 256,
      "##am": 257,
      "##se": 258,
      "##ir": 259,
      "as": 260,
      "##im": 261,
      "##ith": 262,
      "an": 263,
      "con": 264,
      "##ver": 265,
      "with": 266,
      "al": 267,
      "##ter": 268,
      "##th": 269,
      "##ul": 270,
      "you": 271,
      "pro": 272,
      "##ere": 273,
      "de": 274,
      "was": 275,
      "##ess": 276,
      "he": 277,
      "sh": 278,
      "##ers": 279,
      "su": 280,
      "se": 281,
      "com": 282,
      "or": 283,
      "fr": 284,
      "at": 285,
      "##ate": 286,
      "ch": 287,
      "##pp": 288,
      "##ment": 289,
      "ha": 290,
      "##est": 291,
      "##ra": 292,
      "##--": 293,
      "ex": 294,
      "##ld": 295,
      "##if": 296,
      "##ge": 297,
      "##od": 298,
      "ne": 299,
      "##ist": 300,
      "##ri": 301,
      "##ill": 302,
      "not": 303,
      "##ant": 304,
      "##ab": 305,
      "are": 306,
      "this": 307,
      "##us": 308,
      "by": 309,
      "##igh": 310,
      "##ain": 311,
      "##os": 312,
      "we": 313,
      "##ac": 314,
      "##ity": 315,
      "##em": 316,
      "##op": 317,
      "##ect": 318,
      "##ak": 319,
      "from": 320,
      "##um": 321,
      "##iv": 322,
      "##oc": 323,
      "##ore": 324,
      "cou": 325,
      "##ive": 326,
      "##un": 327,
      "##ort": 328,
      "##art": 329,
      "have": 330,
      "##ies": 331,
      "##ud": 332,
      "##and": 333,
      "sp": 334,
      "le": 335,
      "pr": 336,
      "##ight": 337,
      "en": 338,
      "##ust": 339,
      "pl": 340,
      "un": 341,
      "but": 342,
      "##ell": 343,
      "ab": 344,
      "his": 345,
      "##ard": 346,
      "##end": 347,
      "##ial": 348,
      "##gh": 349,
      "##pt": 350,
      "##all": 351,
      "##ich": 352,
      "ad": 353,
      "ar": 354,
      "can": 355,
      "tr": 356,
      "all": 357,
      "##ated": 358,
      "##qu": 359,
      "wor": 360,
      "res": 361,
      "comp": 362,
      "##ical": 363,
      "they": 364,
      "cl": 365,
      "do": 366,
      "im": 367,
      "##ome": 368,
      "##ag": 369,
      "us": 370,
      "me": 371,
      "app": 372,
      "##ear": 373,
      "##out": 374,
      "##ure": 375,
      "##ie": 376,
      "##ost": 377,
      "##ap": 378,
      "##ction": 379,
      "go": 380,
      "20": 381,
      "##ould": 382,
      "cont": 383,
      "##ough": 384,
      "##ast": 385,
      "##----": 386,
      "which": 387,
      "##ff": 388,
      "##ence": 389,
      "so": 390,
      "ac": 391,
      "##ip": 392,
      "had": 393,
      "##ine": 394,
      "dis": 395,
      "were": 396,
      "##ok": 397,
      "has": 398,
      "##her": 399,
      "will": 400,
      "##ans": 401,
      "##og": 402,
      "##ous": 403,
      "int": 404,
      "##per": 405,
      "one": 406,
      "##age": 407,
      "##ack": 408,
      "##ound": 409,
      "out": 410,
      "there": 411,
      "19": 412,
      "##ther": 413,
      "sa": 414,
      "no": 415,
      "##able": 416,
      "up": 417,
      "##ice": 418,
      "##ib": 419,
      "their": 420,
      "##iz": 421,
      "inc": 422,
      "man": 423,
      "am": 424,
      "##act": 425,
      "ev": 426,
      "##pl": 427,
      "##ach": 428,
      "her": 429,
      "##ong": 430,
      "if": 431,
      "##ary": 432,
      "more": 433,
      "per": 434,
      "##ik": 435,
      "who": 436,
      "##fer": 437,
      "##ide": 438,
      "##ind": 439,
      "##ition": 440,
      "##one": 441,
      "tim": 442,
      "##ally": 443,
      "##ame": 444,
      "ag": 445,
      "##nt": 446,
      "##ory": 447,
      "##our": 448,
      "##ely": 449,
      "##ue": 450,
      "its": 451,
      "part": 452,
      "when": 453,
      "##ase": 454,
      "##ult": 455,
      "##ations": 456,
      "your": 457,
      "##ance": 458,
      "my": 459,
      "##ber": 460,
      "##ia": 461,
      "##orm": 462,
      "she": 463,
      "##ign": 464,
      "##ish": 465,
      "inter": 466,
      "would": 467,
      "##au": 468,
      "te": 469,
      "new": 470,
      "##ire": 471,
      "##ens": 472,
      "qu": 473,
      "##ec": 474,
      "been": 475,
      "##so": 476,
      "about": 477,
      "##ru": 478,
      "sc": 479,
      "##ace": 480,
      "##ions": 481,
      "lo": 482,
      "##ake": 483,
      "ind": 484,
      "pre": 485,
      "fe": 486,
      "##ond": 487,
      "##ents": 488,
      "how": 489,
      "what": 490,
      "##ass": 491,
      "##ord": 492,
      "other": 493,
      "rec": 494,
      "##ry": 495,
      "some": 496,
      "kn": 497,
      "comm": 498,
      "any": 499,
      "lik": 500,
      "co": 501,
      "also": 502,
      "##ose": 503,
      "time": 504,
      "##du": 505,
      "##ail": 506,
      "bec": 507,
      "##ub": 508,
      "af": 509,
      "##ree": 510,
      "tw": 511,
      "year": 512,
      "##ile": 513,
      "gr": 514,
      "over": 515,
      "##reat": 516,
      "pe": 517,
      "##ks": 518,
      "##ict": 519,
      "car": 520,
      "than": 521,
      "##vel": 522,
      "rep": 523,
      "##ite": 524,
      "imp": 525,
      "bl": 526,
      "##cess": 527,
      "##av": 528,
      "off": 529,
      "them": 530,
      "##own": 531,
      "may": 532,
      "ser": 533,
      "##ors": 534,
      "fir": 535,
      "und": 536,
      "##ress": 537,
      "said": 538,
      "##form": 539,
      "mar": 540,
      "##ays": 541,
      "ph": 542,
      "em": 543,
      "des": 544,
      "our": 545,
      "cour": 546,
      "##ph": 547,
      "##ates": 548,
      "##enc": 549,
      "##ings": 550,
      "into": 551,
      "##00": 552,
      "sy": 553,
      "like": 554,
      "act": 555,
      "##int": 556,
      "bo": 557,
      "work": 558,
      "under": 559,
      "##itt": 560,
      "after": 561,
      "rel": 562,
      "col": 563,
      "ass": 564,
      "##ang": 565,
      "bet": 566,
      "201": 567,
      "him": 568,
      "pat": 569,
      "##wn": 570,
      "these": 571,
      "##lic": 572,
      "just": 573,
      "cons": 574,
      "##erm": 575,
      "first": 576,
      "##ause": 577,
      "fl": 578,
      ".\"": 579,
      "##ater": 580,
      "ro": 581,
      "pres": 582,
      "only": 583,
      "def": 584,
      ").": 585,
      "acc": 586,
      "sub": 587,
      "##ian": 588,
      "##ied": 589,
      "gen": 590,
      "inv": 591,
      "mo": 592,
      "peop": 593,
      "##ved": 594,
      "##ild": 595,
      "po": 596,
      "##ick": 597,
      "##ep": 598,
      "two": 599,
      "##ade": 600,
      "##ious": 601,
      "##--------": 602,
      "sec": 603,
      "ob": 604,
      "get": 605,
      "see": 606,
      "cr": 607,
      "such": 608,
      "people": 609,
      "att": 610,
      "br": 611,
      "##lud": 612,
      "could": 613,
      "ever": 614,
      "dec": 615,
      "##iss": 616,
      "##we": 617,
      "##ual": 618,
      "reg": 619,
      "##ject": 620,
      "##ys": 621,
      "##ments": 622,
      "##ons": 623,
      "add": 624,
      "high": 625,
      "##lect": 626,
      "prov": 627,
      "exp": 628,
      "##oll": 629,
      "court": 630,
      "dif": 631,
      "##ink": 632,
      "##ery": 633,
      "##eth": 634,
      "##ific": 635,
      "thr": 636,
      "tra": 637,
      "did": 638,
      "##amp": 639,
      "then": 640,
      "stud": 641,
      "##fore": 642,
      "##oth": 643,
      "rem": 644,
      "##ating": 645,
      "pos": 646,
      "supp": 647,
      "most": 648,
      "##ood": 649,
      "##urn": 650,
      "##iver": 651,
      "id": 652,
      "la": 653,
      "##anc": 654,
      "trans": 655,
      "##old": 656,
      "pol": 657,
      "because": 658,
      "back": 659,
      "state": 660,
      "where": 661,
      "##te": 662,
      "form": 663,
      "##ft": 664,
      "need": 665,
      "par": 666,
      "##==": 667,
      "use": 668,
      "##elf": 669,
      "sm": 670,
      "even": 671,
      "includ": 672,
      "##ular": 673,
      "jo": 674,
      "eff": 675,
      "well": 676,
      "##les": 677,
      "through": 678,
      "##ased": 679,
      "know": 680,
      "##rib": 681,
      "##are": 682,
      "##ert": 683,
      "##ited": 684,
      "##ving": 685,
      "##yp": 686,
      "##gr": 687,
      "##uc": 688,
      "##ock": 689,
      "hel": 690,
      "now": 691,
      "sur": 692,
      "again": 693,
      "inst": 694,
      "##iew": 695,
      "##ful": 696,
      "##ise": 697,
      "disc": 698,
      "),": 699,
      "##ility": 700,
      "dist": 701,
      "det": 702,
      "##__": 703,
      "##olog": 704,
      "200": 705,
      "##ath": 706,
      "resp": 707,
      "every": 708,
      "##stem": 709,
      "##ateg": 710,
      "##ont": 711,
      "spec": 712,
      "##ning": 713,
      "##ative": 714,
      "##als": 715,
      "should": 716,
      "mod": 717,
      "10": 718,
      "cor": 719,
      "##uring": 720,
      "right": 721,
      "gu": 722,
      "sign": 723,
      "bu": 724,
      "##ient": 725,
      "sch": 726,
      "##led": 727,
      "##ween": 728,
      "system": 729,
      "##ower": 730,
      "play": 731,
      "differ": 732,
      "between": 733,
      "med": 734,
      "char": 735,
      "gener": 736,
      "produ": 737,
      "look": 738,
      "pers": 739,
      "years": 740,
      "##other": 741,
      "##ible": 742,
      "##ities": 743,
      "many": 744,
      "##ward": 745,
      "mu": 746,
      "min": 747,
      "count": 748,
      "pub": 749,
      "str": 750,
      "fin": 751,
      "ke": 752,
      "##ational": 753,
      "make": 754,
      "dep": 755,
      "requ": 756,
      "before": 757,
      "##der": 758,
      "end": 759,
      "way": 760,
      "##ention": 761,
      "sim": 762,
      "mon": 763,
      "##aint": 764,
      "##ife": 765,
      "ins": 766,
      "wr": 767,
      "while": 768,
      "op": 769,
      "long": 770,
      "##xt": 771,
      "set": 772,
      "those": 773,
      "bel": 774,
      "want": 775,
      "##ily": 776,
      "##ics": 777,
      "being": 778,
      "##..": 779,
      "very": 780,
      "##ount": 781,
      "##ange": 782,
      "mem": 783,
      "##row": 784,
      "##ss": 785,
      "made": 786,
      "##rol": 787,
      "own": 788,
      "fact": 789,
      "used": 790,
      ",\"": 791,
      "##ract": 792,
      "##cept": 793,
      "down": 794,
      "##ures": 795,
      "prob": 796,
      "ear": 797,
      "##ution": 798,
      "conc": 799,
      "good": 800,
      "dat": 801,
      "cent": 802,
      "##its": 803,
      "call": 804,
      "##ty": 805,
      "art": 806,
      "show": 807,
      "here": 808,
      "##ever": 809,
      "ret": 810,
      "aut": 811,
      "##oy": 812,
      "world": 813,
      "does": 814,
      "##ps": 815,
      "##urr": 816,
      "categ": 817,
      "found": 818,
      "tri": 819,
      "val": 820,
      "##ollow": 821,
      "##ason": 822,
      "each": 823,
      "##ether": 824,
      "find": 825,
      "##aking": 826,
      "ma": 827,
      "##ced": 828,
      "great": 829,
      "war": 830,
      "hand": 831,
      "##ically": 832,
      "though": 833,
      "##velop": 834,
      "typ": 835,
      "##air": 836,
      "ext": 837,
      "both": 838,
      "##ne": 839,
      "fil": 840,
      "##ices": 841,
      "follow": 842,
      "##ants": 843,
      "much": 844,
      "sl": 845,
      "num": 846,
      "##ix": 847,
      "serv": 848,
      "think": 849,
      "day": 850,
      "##io": 851,
      "dire": 852,
      "read": 853,
      "ref": 854,
      "##ues": 855,
      "during": 856,
      "##gan": 857,
      "partic": 858,
      "category": 859,
      "inf": 860,
      "develop": 861,
      "result": 862,
      "exper": 863,
      "gl": 864,
      "##sp": 865,
      "law": 866,
      "##ting": 867,
      "##ism": 868,
      "##ently": 869,
      "inform": 870,
      "##eric": 871,
      "18": 872,
      "##lish": 873,
      "same": 874,
      "##ather": 875,
      "rev": 876,
      "##way": 877,
      "loc": 878,
      "ca": 879,
      "##ined": 880,
      "test": 881,
      "##ene": 882,
      "data": 883,
      "el": 884,
      "however": 885,
      "grou": 886,
      "effect": 887,
      "##ized": 888,
      "##alth": 889,
      "point": 890,
      "mat": 891,
      "##tern": 892,
      "##hip": 893,
      "case": 894,
      "##ually": 895,
      "red": 896,
      "person": 897,
      "##rop": 898,
      "##ins": 899,
      "##ider": 900,
      "child": 901,
      "##ision": 902,
      "##ince": 903,
      ".,": 904,
      "life": 905,
      "som": 906,
      "##ness": 907,
      "pri": 908,
      "##let": 909,
      "eng": 910,
      "bro": 911,
      "americ": 912,
      "process": 913,
      "##gg": 914,
      "##day": 915,
      "##ident": 916,
      "report": 917,
      "cir": 918,
      "##cc": 919,
      "dem": 920,
      "gover": 921,
      "three": 922,
      "conf": 923,
      "##res": 924,
      "##ines": 925,
      "12": 926,
      "start": 927,
      "##ves": 928,
      "##iel": 929,
      "still": 930,
      "av": 931,
      "lar": 932,
      "support": 933,
      "ed": 934,
      "##ric": 935,
      "cle": 936,
      "##ool": 937,
      "different": 938,
      "second": 939,
      "last": 940,
      "##oci": 941,
      "var": 942,
      "bus": 943,
      "fam": 944,
      "##ee": 945,
      "control": 946,
      "govern": 947,
      "##ull": 948,
      "##und": 949,
      "pur": 950,
      "take": 951,
      "11": 952,
      "##ale": 953,
      "commun": 954,
      "##ork": 955,
      "##ank": 956,
      "public": 957,
      "help": 958,
      "order": 959,
      "const": 960,
      "against": 961,
      "##ner": 962,
      "don": 963,
      "say": 964,
      "##ages": 965,
      "lead": 966,
      "##ality": 967,
      "another": 968,
      "##ctions": 969,
      "##alk": 970,
      "##ier": 971,
      "incre": 972,
      "199": 973,
      "iss": 974,
      "est": 975,
      "##ets": 976,
      "using": 977,
      "mark": 978,
      "##ouse": 979,
      "compan": 980,
      "must": 981,
      "##land": 982,
      "##ters": 983,
      "present": 984,
      "##ms": 985,
      "##aim": 986,
      "##ists": 987,
      "ve": 988,
      "adv": 989,
      "without": 990,
      "##eng": 991,
      "care": 992,
      "poss": 993,
      "##ute": 994,
      "post": 995,
      "wom": 996,
      "##read": 997,
      "states": 998,
      "##uss": 999,
      "##osed": 1000,
      "dev": 1001,
      "##ense": 1002,
      "##ives": 1003,
      "##ience": 1004,
      "tech": 1005,
      "quest": 1006,
      "information": 1007,
      "provid": 1008,
      "##man": 1009,
      "ent": 1010,
      "power": 1011,
      "##ency": 1012,
      "health": 1013,
      "term": 1014,
      "old": 1015,
      "since": 1016,
      "direct": 1017,
      "##ients": 1018,
      "sk": 1019,
      "del": 1020,
      "hum": 1021,
      "##idence": 1022,
      "fun": 1023,
      "cre": 1024,
      "dr": 1025,
      "prev": 1026,
      "##ature": 1027,
      "elect": 1028,
      "oper": 1029,
      "##ody": 1030,
      "##ases": 1031,
      "nor": 1032,
      "##ially": 1033,
      "open": 1034,
      "##ying": 1035,
      "based": 1036,
      "##----------------": 1037,
      "stand": 1038,
      "met": 1039,
      "wee": 1040,
      "jud": 1041,
      "bar": 1042,
      "##red": 1043,
      "##ivers": 1044,
      "##ash": 1045,
      "##ield": 1046,
      "aff": 1047,
      "##ize": 1048,
      "##iness": 1049,
      "prot": 1050,
      "##ences": 1051,
      "head": 1052,
      "leg": 1053,
      "##ross": 1054,
      "15": 1055,
      "##ected": 1056,
      "##ired": 1057,
      "around": 1058,
      "level": 1059,
      "##ret": 1060,
      "ele": 1061,
      "cal": 1062,
      "gra": 1063,
      "##erg": 1064,
      "expl": 1065,
      "cap": 1066,
      "##ruct": 1067,
      "school": 1068,
      "number": 1069,
      "contin": 1070,
      "pass": 1071,
      "consider": 1072,
      "##ave": 1073,
      "##ained": 1074,
      "...": 1075,
      "never": 1076,
      "far": 1077,
      "##ified": 1078,
      "##ption": 1079,
      "techn": 1080,
      "going": 1081,
      "##ck": 1082,
      "##ces": 1083,
      "sol": 1084,
      "run": 1085,
      "##ern": 1086,
      "home": 1087,
      "real": 1088,
      "**": 1089,
      "##els": 1090,
      "sw": 1091,
      "##hing": 1092,
      "claim": 1093,
      "import": 1094,
      "place": 1095,
      "plan": 1096,
      "let": 1097,
      "desc": 1098,
      "perform": 1099,
      "ap": 1100,
      "too": 1101,
      "design": 1102,
      "class": 1103,
      "##ll": 1104,
      "##over": 1105,
      "best": 1106,
      "##ury": 1107,
      "prof": 1108,
      "defend": 1109,
      "meth": 1110,
      "interest": 1111,
      "turn": 1112,
      "ant": 1113,
      "##ob": 1114,
      "record": 1115,
      "di": 1116,
      "##ital": 1117,
      "##inal": 1118,
      "hist": 1119,
      "##par": 1120,
      "air": 1121,
      "anal": 1122,
      "circ": 1123,
      "rece": 1124,
      "##gram": 1125,
      "appro": 1126,
      "cell": 1127,
      "##ample": 1128,
      "offic": 1129,
      "intern": 1130,
      "##til": 1131,
      "mot": 1132,
      "##ively": 1133,
      "##ately": 1134,
      "curr": 1135,
      "might": 1136,
      "rest": 1137,
      "##ittle": 1138,
      "##rict": 1139,
      "team": 1140,
      "##====": 1141,
      "proble": 1142,
      "small": 1143,
      "##ax": 1144,
      "adm": 1145,
      "book": 1146,
      "##ploy": 1147,
      "fur": 1148,
      "group": 1149,
      "##ron": 1150,
      "vis": 1151,
      "auth": 1152,
      "little": 1153,
      "##up": 1154,
      "ask": 1155,
      "within": 1156,
      "##con": 1157,
      "month": 1158,
      "sever": 1159,
      "##ah": 1160,
      "stat": 1161,
      "government": 1162,
      "program": 1163,
      "##atch": 1164,
      "allow": 1165,
      "##ling": 1166,
      "few": 1167,
      "##az": 1168,
      "bre": 1169,
      "accord": 1170,
      "four": 1171,
      "united": 1172,
      "##med": 1173,
      "happ": 1174,
      "sou": 1175,
      "beh": 1176,
      "##vers": 1177,
      "proper": 1178,
      "##akes": 1179,
      "invest": 1180,
      "light": 1181,
      "##iqu": 1182,
      "mus": 1183,
      "##iting": 1184,
      "##ology": 1185,
      "##ural": 1186,
      "ste": 1187,
      "##ren": 1188,
      "including": 1189,
      "##ames": 1190,
      "##ety": 1191,
      "##ivid": 1192,
      "occ": 1193,
      "##ton": 1194,
      "--": 1195,
      "city": 1196,
      "13": 1197,
      "##ven": 1198,
      "house": 1199,
      "##ination": 1200,
      "##orn": 1201,
      "##self": 1202,
      "dri": 1203,
      "refer": 1204,
      "bra": 1205,
      "belie": 1206,
      "##bers": 1207,
      "##ission": 1208,
      "##iff": 1209,
      "put": 1210,
      "less": 1211,
      "##ts": 1212,
      "##bs": 1213,
      "198": 1214,
      "cert": 1215,
      "lim": 1216,
      "pop": 1217,
      "##____": 1218,
      "giv": 1219,
      "really": 1220,
      "##bo": 1221,
      "method": 1222,
      "rele": 1223,
      "##ral": 1224,
      "seem": 1225,
      "business": 1226,
      "har": 1227,
      "##ething": 1228,
      "##ably": 1229,
      "##ways": 1230,
      "come": 1231,
      "##ten": 1232,
      "something": 1233,
      "##ior": 1234,
      "opp": 1235,
      "study": 1236,
      "patients": 1237,
      "non": 1238,
      "further": 1239,
      "exc": 1240,
      "##ark": 1241,
      "bas": 1242,
      "eas": 1243,
      "##sc": 1244,
      "##ode": 1245,
      "addition": 1246,
      "##ability": 1247,
      "water": 1248,
      "##ised": 1249,
      "##ived": 1250,
      "##ew": 1251,
      "##ged": 1252,
      "##thing": 1253,
      "activ": 1254,
      "treat": 1255,
      "000": 1256,
      "##ends": 1257,
      "why": 1258,
      "whether": 1259,
      "sing": 1260,
      "things": 1261,
      "organ": 1262,
      "##ug": 1263,
      "##ration": 1264,
      "having": 1265,
      "##ulation": 1266,
      "##less": 1267,
      "free": 1268,
      "fig": 1269,
      "equ": 1270,
      "evidence": 1271,
      "##ured": 1272,
      "##earch": 1273,
      "list": 1274,
      "14": 1275,
      "dra": 1276,
      "##ization": 1277,
      "hard": 1278,
      "cond": 1279,
      "##mm": 1280,
      "research": 1281,
      "##ger": 1282,
      "pay": 1283,
      "type": 1284,
      "applic": 1285,
      "soc": 1286,
      "men": 1287,
      "top": 1288,
      "##oot": 1289,
      "associ": 1290,
      "build": 1291,
      "conn": 1292,
      "##oss": 1293,
      "16": 1294,
      "left": 1295,
      "mill": 1296,
      "##[@": 1297,
      "##ator": 1298,
      "press": 1299,
      "next": 1300,
      "##ove": 1301,
      "spe": 1302,
      "##ining": 1303,
      "##ection": 1304,
      "fre": 1305,
      "coun": 1306,
      "arg": 1307,
      "vi": 1308,
      "17": 1309,
      "according": 1310,
      "big": 1311,
      "view": 1312,
      "clear": 1313,
      "##ple": 1314,
      "##stand": 1315,
      "chang": 1316,
      "game": 1317,
      "univers": 1318,
      "determ": 1319,
      "employ": 1320,
      "ide": 1321,
      "ra": 1322,
      "ident": 1323,
      "example": 1324,
      "mean": 1325,
      "ann": 1326,
      "reason": 1327,
      "general": 1328,
      "mor": 1329,
      "feel": 1330,
      "##ds": 1331,
      "appear": 1332,
      "##ains": 1333,
      "30": 1334,
      "prop": 1335,
      "##ead": 1336,
      "better": 1337,
      "mil": 1338,
      "##ump": 1339,
      "cost": 1340,
      "product": 1341,
      "polit": 1342,
      "port": 1343,
      "particular": 1344,
      "##pped": 1345,
      "human": 1346,
      "mater": 1347,
      "prom": 1348,
      "##raph": 1349,
      "mr": 1350,
      "##ke": 1351,
      "net": 1352,
      "family": 1353,
      "national": 1354,
      "##ional": 1355,
      "##get": 1356,
      "week": 1357,
      "review": 1358,
      "important": 1359,
      "charact": 1360,
      "keep": 1361,
      "fac": 1362,
      "american": 1363,
      "return": 1364,
      "project": 1365,
      "fri": 1366,
      "called": 1367,
      "company": 1368,
      "##ium": 1369,
      "##ime": 1370,
      "fail": 1371,
      "lot": 1372,
      "##itions": 1373,
      "##ither": 1374,
      "later": 1375,
      "##sel": 1376,
      "until": 1377,
      "ple": 1378,
      "maj": 1379,
      "gre": 1380,
      "chr": 1381,
      "##ane": 1382,
      "got": 1383,
      "ris": 1384,
      "vol": 1385,
      "district": 1386,
      "sit": 1387,
      "##line": 1388,
      "##used": 1389,
      "2d": 1390,
      "##ended": 1391,
      "side": 1392,
      "##atic": 1393,
      "er": 1394,
      "known": 1395,
      "mult": 1396,
      "always": 1397,
      "near": 1398,
      "lear": 1399,
      "##por": 1400,
      "question": 1401,
      "children": 1402,
      "impro": 1403,
      "comple": 1404,
      "change": 1405,
      "days": 1406,
      "women": 1407,
      "##ared": 1408,
      "et": 1409,
      "pot": 1410,
      "##uck": 1411,
      "object": 1412,
      "line": 1413,
      "once": 1414,
      "##ential": 1415,
      "face": 1416,
      "times": 1417,
      "service": 1418,
      "suc": 1419,
      "tem": 1420,
      "##inc": 1421,
      "author": 1422,
      "##hn": 1423,
      "pet": 1424,
      "signific": 1425,
      "##na": 1426,
      "move": 1427,
      "sal": 1428,
      "##eral": 1429,
      "material": 1430,
      "individ": 1431,
      "pract": 1432,
      "##itive": 1433,
      "trial": 1434,
      "##wh": 1435,
      "##itch": 1436,
      "several": 1437,
      "low": 1438,
      "major": 1439,
      "upon": 1440,
      "away": 1441,
      "land": 1442,
      "pa": 1443,
      "grow": 1444,
      "##augh": 1445,
      "following": 1446,
      "mag": 1447,
      "large": 1448,
      "president": 1449,
      "provide": 1450,
      "##gress": 1451,
      "win": 1452,
      "social": 1453,
      "avail": 1454,
      "colle": 1455,
      "##aring": 1456,
      "invol": 1457,
      "often": 1458,
      "25": 1459,
      "meas": 1460,
      "sent": 1461,
      "##ina": 1462,
      "##son": 1463,
      "sat": 1464,
      "##ov": 1465,
      "##ances": 1466,
      "##thers": 1467,
      "stre": 1468,
      "##oub": 1469,
      "least": 1470,
      "##oney": 1471,
      "among": 1472,
      "hold": 1473,
      "repres": 1474,
      "given": 1475,
      "conv": 1476,
      "##ister": 1477,
      "##iter": 1478,
      "ey": 1479,
      "individual": 1480,
      "##yl": 1481,
      "##work": 1482,
      "full": 1483,
      "197": 1484,
      "##iving": 1485,
      "field": 1486,
      "##ott": 1487,
      "told": 1488,
      "making": 1489,
      "##ued": 1490,
      "area": 1491,
      "##ony": 1492,
      "short": 1493,
      "thir": 1494,
      "lab": 1495,
      "ill": 1496,
      "phot": 1497,
      "understand": 1498,
      "camp": 1499,
      "super": 1500,
      "##ope": 1501,
      "phys": 1502,
      "##erv": 1503,
      "certain": 1504,
      "give": 1505,
      "name": 1506,
      "##att": 1507,
      "##ograph": 1508,
      "##co": 1509,
      "##ned": 1510,
      "john": 1511,
      "enter": 1512,
      "orig": 1513,
      "##cent": 1514,
      "common": 1515,
      "##ians": 1516,
      "country": 1517,
      "body": 1518,
      "##ule": 1519,
      "market": 1520,
      "eu": 1521,
      "subst": 1522,
      "##icle": 1523,
      "black": 1524,
      "youn": 1525,
      "##ley": 1526,
      "##duc": 1527,
      "significant": 1528,
      "##ards": 1529,
      "able": 1530,
      "##ember": 1531,
      "##gin": 1532,
      "tell": 1533,
      "##ars": 1534,
      "##erc": 1535,
      "wa": 1536,
      "hal": 1537,
      "##itted": 1538,
      "##uit": 1539,
      "mid": 1540,
      "fed": 1541,
      "possible": 1542,
      "came": 1543,
      "##ney": 1544,
      "university": 1545,
      "kind": 1546,
      "sour": 1547,
      "##rem": 1548,
      "access": 1549,
      "vari": 1550,
      "hour": 1551,
      "rad": 1552,
      "describ": 1553,
      "##ending": 1554,
      "thought": 1555,
      "cho": 1556,
      "den": 1557,
      "night": 1558,
      "means": 1559,
      "love": 1560,
      "##ought": 1561,
      "party": 1562,
      "opt": 1563,
      "due": 1564,
      "econ": 1565,
      "past": 1566,
      "along": 1567,
      "local": 1568,
      "##ware": 1569,
      "econom": 1570,
      "action": 1571,
      "polic": 1572,
      "results": 1573,
      "##lished": 1574,
      "offer": 1575,
      "says": 1576,
      "yet": 1577,
      "express": 1578,
      "##ats": 1579,
      "##ilar": 1580,
      "##arch": 1581,
      "##aining": 1582,
      "cust": 1583,
      "main": 1584,
      "##ggest": 1585,
      "##ison": 1586,
      "##though": 1587,
      "early": 1588,
      "##be": 1589,
      "suggest": 1590,
      "summ": 1591,
      "sure": 1592,
      "cover": 1593,
      "bill": 1594,
      "available": 1595,
      "fund": 1596,
      "course": 1597,
      "white": 1598,
      "bene": 1599,
      "although": 1600,
      "plaint": 1601,
      "history": 1602,
      "character": 1603,
      "?\"": 1604,
      "##oun": 1605,
      "plaintiff": 1606,
      "stor": 1607,
      "god": 1608,
      "##aken": 1609,
      "##by": 1610,
      "##oid": 1611,
      "death": 1612,
      "development": 1613,
      "meet": 1614,
      "took": 1615,
      "##aps": 1616,
      "##pr": 1617,
      "success": 1618,
      "##iod": 1619,
      "money": 1620,
      "interv": 1621,
      "specific": 1622,
      "##ument": 1623,
      "wind": 1624,
      "##ready": 1625,
      "analys": 1626,
      "##ror": 1627,
      "enough": 1628,
      "21": 1629,
      "##br": 1630,
      "function": 1631,
      "above": 1632,
      "already": 1633,
      "priv": 1634,
      "ge": 1635,
      "room": 1636,
      "##ered": 1637,
      "##com": 1638,
      "thing": 1639,
      "imm": 1640,
      "ir": 1641,
      "news": 1642,
      "subject": 1643,
      "hy": 1644,
      "##ann": 1645,
      "talk": 1646,
      "arr": 1647,
      "others": 1648,
      "become": 1649,
      "##ength": 1650,
      "##fic": 1651,
      "five": 1652,
      "south": 1653,
      "similar": 1654,
      "lay": 1655,
      "problem": 1656,
      "special": 1657,
      "lib": 1658,
      "ter": 1659,
      "##not": 1660,
      "##**": 1661,
      "suff": 1662,
      "##une": 1663,
      "represent": 1664,
      "bi": 1665,
      "thus": 1666,
      "account": 1667,
      "position": 1668,
      "estab": 1669,
      "period": 1670,
      "##ental": 1671,
      "comb": 1672,
      "##mber": 1673,
      "members": 1674,
      "vir": 1675,
      "##ges": 1676,
      "##sw": 1677,
      "mind": 1678,
      "infl": 1679,
      "struct": 1680,
      "appe": 1681,
      "##itor": 1682,
      "north": 1683,
      "24": 1684,
      "discuss": 1685,
      "##ened": 1686,
      "tot": 1687,
      "event": 1688,
      "working": 1689,
      "##duct": 1690,
      "either": 1691,
      "miss": 1692,
      "##acy": 1693,
      "##ering": 1694,
      "arm": 1695,
      "defendant": 1696,
      "tax": 1697,
      "current": 1698,
      "ep": 1699,
      "value": 1700,
      "##ush": 1701,
      "went": 1702,
      "agree": 1703,
      "tog": 1704,
      "food": 1705,
      "viol": 1706,
      "educ": 1707,
      "saf": 1708,
      "##ising": 1709,
      "##utes": 1710,
      "##etic": 1711,
      "bit": 1712,
      "age": 1713,
      "treatment": 1714,
      "exam": 1715,
      "experience": 1716,
      "100": 1717,
      "issue": 1718,
      "##ides": 1719,
      "single": 1720,
      "##ape": 1721,
      "story": 1722,
      "dam": 1723,
      "services": 1724,
      "together": 1725,
      "env": 1726,
      "deb": 1727,
      "##ify": 1728,
      "ll": 1729,
      "ther": 1730,
      "##face": 1731,
      "##urs": 1732,
      "section": 1733,
      "22": 1734,
      "##lus": 1735,
      "##ries": 1736,
      "christ": 1737,
      "rather": 1738,
      "young": 1739,
      "enc": 1740,
      "mom": 1741,
      "fut": 1742,
      "foot": 1743,
      "exist": 1744,
      "done": 1745,
      "profess": 1746,
      "step": 1747,
      "##ogn": 1748,
      "ang": 1749,
      "obs": 1750,
      "##iously": 1751,
      "community": 1752,
      "amount": 1753,
      "table": 1754,
      "abs": 1755,
      "50": 1756,
      "##ler": 1757,
      "dont": 1758,
      "trad": 1759,
      "cult": 1760,
      "##ote": 1761,
      "##eck": 1762,
      "relations": 1763,
      "neg": 1764,
      "respect": 1765,
      "depart": 1766,
      "doc": 1767,
      "sens": 1768,
      "##lement": 1769,
      "indic": 1770,
      "foc": 1771,
      "necess": 1772,
      "across": 1773,
      "custom": 1774,
      "related": 1775,
      "percent": 1776,
      "nat": 1777,
      "##side": 1778,
      "##ones": 1779,
      "sex": 1780,
      "approach": 1781,
      "##lo": 1782,
      "prior": 1783,
      "corre": 1784,
      "tar": 1785,
      "##enn": 1786,
      "today": 1787,
      "init": 1788,
      "##ological": 1789,
      "reach": 1790,
      "sil": 1791,
      "mic": 1792,
      "season": 1793,
      "vide": 1794,
      "investig": 1795,
      "require": 1796,
      "##cer": 1797,
      "risk": 1798,
      "self": 1799,
      "seen": 1800,
      "creat": 1801,
      "therefore": 1802,
      "asked": 1803,
      "##put": 1804,
      "##sh": 1805,
      "police": 1806,
      "alm": 1807,
      "cases": 1808,
      "model": 1809,
      "##mb": 1810,
      "##orts": 1811,
      ".)": 1812,
      "##ef": 1813,
      "##ibility": 1814,
      "##pping": 1815,
      "nothing": 1816,
      "particip": 1817,
      "vers": 1818,
      "##den": 1819,
      "##iam": 1820,
      "##ted": 1821,
      "prim": 1822,
      "pap": 1823,
      "energ": 1824,
      "##iction": 1825,
      "strong": 1826,
      "dise": 1827,
      "indust": 1828,
      "##empt": 1829,
      "deal": 1830,
      "cy": 1831,
      "##of": 1832,
      "six": 1833,
      "cut": 1834,
      "##iron": 1835,
      "##wards": 1836,
      "months": 1837,
      "##ortun": 1838,
      "watch": 1839,
      "admin": 1840,
      "##aw": 1841,
      "include": 1842,
      "york": 1843,
      "conduct": 1844,
      "address": 1845,
      "purp": 1846,
      "kill": 1847,
      "provided": 1848,
      "##ex": 1849,
      "##ring": 1850,
      "00": 1851,
      "regard": 1852,
      "##osp": 1853,
      "matter": 1854,
      "film": 1855,
      "##uation": 1856,
      "key": 1857,
      "respons": 1858,
      "future": 1859,
      "##icient": 1860,
      "cop": 1861,
      "actually": 1862,
      "looking": 1863,
      "pred": 1864,
      "million": 1865,
      "analysis": 1866,
      "##atory": 1867,
      "##aster": 1868,
      "mass": 1869,
      "##ief": 1870,
      "bir": 1871,
      "##ows": 1872,
      "required": 1873,
      "held": 1874,
      "##ification": 1875,
      "environ": 1876,
      "heart": 1877,
      "fall": 1878,
      "answ": 1879,
      "ju": 1880,
      "plac": 1881,
      "attack": 1882,
      "##oph": 1883,
      "comput": 1884,
      "half": 1885,
      "norm": 1886,
      "##unch": 1887,
      "23": 1888,
      "scre": 1889,
      "tre": 1890,
      "##ceed": 1891,
      "image": 1892,
      "doing": 1893,
      "##urity": 1894,
      "decision": 1895,
      "196": 1896,
      "##ids": 1897,
      "dom": 1898,
      "device": 1899,
      "##action": 1900,
      "bur": 1901,
      "third": 1902,
      "ground": 1903,
      "fire": 1904,
      "##ensive": 1905,
      "site": 1906,
      "sn": 1907,
      "lang": 1908,
      "repl": 1909,
      "esp": 1910,
      "walk": 1911,
      "inj": 1912,
      "sound": 1913,
      "##rug": 1914,
      "space": 1915,
      "manage": 1916,
      "ps": 1917,
      "sen": 1918,
      "##ished": 1919,
      "taken": 1920,
      "almost": 1921,
      "bank": 1922,
      "front": 1923,
      "board": 1924,
      "office": 1925,
      "cannot": 1926,
      "systems": 1927,
      "diffic": 1928,
      "##gment": 1929,
      "##ball": 1930,
      "series": 1931,
      "difficult": 1932,
      "alle": 1933,
      "##xim": 1934,
      "compet": 1935,
      "ce": 1936,
      "chall": 1937,
      "path": 1938,
      "crit": 1939,
      "doub": 1940,
      "##ators": 1941,
      "europ": 1942,
      "cause": 1943,
      "##asing": 1944,
      "energy": 1945,
      "rul": 1946,
      "##esh": 1947,
      "believe": 1948,
      "##imes": 1949,
      "political": 1950,
      "studies": 1951,
      "##ried": 1952,
      "lat": 1953,
      "makes": 1954,
      "complet": 1955,
      "##selves": 1956,
      "code": 1957,
      "detail": 1958,
      "##hib": 1959,
      "check": 1960,
      "compl": 1961,
      "whole": 1962,
      "##20": 1963,
      "music": 1964,
      "fav": 1965,
      "benef": 1966,
      "media": 1967,
      "##eter": 1968,
      "cra": 1969,
      "policy": 1970,
      "personal": 1971,
      "feat": 1972,
      "ii": 1973,
      "various": 1974,
      "40": 1975,
      "mess": 1976,
      "official": 1977,
      "himself": 1978,
      "##tt": 1979,
      "soft": 1980,
      "##iple": 1981,
      "live": 1982,
      "##pect": 1983,
      "contract": 1984,
      "application": 1985,
      "##ening": 1986,
      "stra": 1987,
      "fel": 1988,
      "higher": 1989,
      "rate": 1990,
      "##ots": 1991,
      "europe": 1992,
      "vict": 1993,
      "emb": 1994,
      "##ees": 1995,
      "##omm": 1996,
      "entire": 1997,
      "medical": 1998,
      "div": 1999,
      "clin": 2000,
      "international": 2001,
      "wall": 2002,
      "##sequ": 2003,
      "search": 2004,
      "contact": 2005,
      "true": 2006,
      "students": 2007,
      "lower": 2008,
      "select": 2009,
      "constit": 2010,
      "former": 2011,
      "federal": 2012,
      "mer": 2013,
      "bad": 2014,
      "cross": 2015,
      "pack": 2016,
      "cur": 2017,
      "##for": 2018,
      "environment": 2019,
      "anything": 2020,
      "communic": 2021,
      "drug": 2022,
      "county": 2023,
      "langu": 2024,
      "blood": 2025,
      "final": 2026,
      "##).": 2027,
      "likely": 2028,
      "lin": 2029,
      "instead": 2030,
      "reported": 2031,
      "didn": 2032,
      "##yn": 2033,
      "rights": 2034,
      "##ruction": 2035,
      "total": 2036,
      "invention": 2037,
      "28": 2038,
      "##ribut": 2039,
      "##chan": 2040,
      "security": 2041,
      "##ches": 2042,
      "ho": 2043,
      "yes": 2044,
      "teach": 2045,
      "##port": 2046,
      "center": 2047,
      "west": 2048,
      "##ique": 2049,
      "quality": 2050,
      "##irl": 2051,
      "##olution": 2052,
      "motion": 2053,
      "network": 2054,
      "separ": 2055,
      "##onse": 2056,
      "accept": 2057,
      "##ox": 2058,
      "##ung": 2059,
      "##ask": 2060,
      "quick": 2061,
      "disp": 2062,
      "##ided": 2063,
      "26": 2064,
      "mal": 2065,
      "manag": 2066,
      "cred": 2067,
      "jan": 2068,
      "road": 2069,
      "cells": 2070,
      "anim": 2071,
      "cam": 2072,
      "living": 2073,
      "##aff": 2074,
      "park": 2075,
      "log": 2076,
      "##erman": 2077,
      "maint": 2078,
      "appell": 2079,
      "##ledge": 2080,
      "\\[": 2081,
      "role": 2082,
      "associated": 2083,
      ");": 2084,
      "property": 2085,
      "##ming": 2086,
      "coll": 2087,
      "received": 2088,
      "tit": 2089,
      "ur": 2090,
      "response": 2091,
      "##ctor": 2092,
      "hot": 2093,
      "attempt": 2094,
      "begin": 2095,
      "relationship": 2096,
      "getting": 2097,
      "displ": 2098,
      "##ored": 2099,
      "####": 2100,
      "changes": 2101,
      "saw": 2102,
      "##onst": 2103,
      "##ike": 2104,
      "administ": 2105,
      "arch": 2106,
      "##uff": 2107,
      "content": 2108,
      "civ": 2109,
      "close": 2110,
      "##ilt": 2111,
      "jour": 2112,
      "##rodu": 2113,
      "##aut": 2114,
      "march": 2115,
      "##oses": 2116,
      "source": 2117,
      "frequ": 2118,
      "micro": 2119,
      "force": 2120,
      "video": 2121,
      "card": 2122,
      "surface": 2123,
      "started": 2124,
      "##gn": 2125,
      "performance": 2126,
      "request": 2127,
      "standard": 2128,
      "exec": 2129,
      "##imate": 2130,
      "issues": 2131,
      "job": 2132,
      "taking": 2133,
      "##ma": 2134,
      "concern": 2135,
      "appar": 2136,
      "brit": 2137,
      "##oint": 2138,
      "##ama": 2139,
      "##--------------------------------": 2140,
      "##ecially": 2141,
      "secret": 2142,
      "27": 2143,
      "building": 2144,
      "words": 2145,
      "create": 2146,
      "fa": 2147,
      "recogn": 2148,
      "##fully": 2149,
      "try": 2150,
      "potential": 2151,
      "someone": 2152,
      "squ": 2153,
      "pan": 2154,
      "dig": 2155,
      "cit": 2156,
      "member": 2157,
      "town": 2158,
      "mechan": 2159,
      "bring": 2160,
      "##istic": 2161,
      "range": 2162,
      "everything": 2163,
      "soci": 2164,
      "tele": 2165,
      "##cle": 2166,
      "##cl": 2167,
      "##itting": 2168,
      "groups": 2169,
      "became": 2170,
      "ver": 2171,
      "behind": 2172,
      "##ival": 2173,
      "especially": 2174,
      "ach": 2175,
      "increase": 2176,
      "deliver": 2177,
      "circuit": 2178,
      "idea": 2179,
      "hosp": 2180,
      "##ply": 2181,
      "department": 2182,
      "##amed": 2183,
      "girl": 2184,
      "consum": 2185,
      "else": 2186,
      "phil": 2187,
      "##\\]": 2188,
      "hom": 2189,
      "itself": 2190,
      "mother": 2191,
      "base": 2192,
      "bal": 2193,
      "king": 2194,
      "games": 2195,
      "except": 2196,
      "chur": 2197,
      "instit": 2198,
      "engine": 2199,
      "works": 2200,
      "##ench": 2201,
      "rich": 2202,
      "##go": 2203,
      "aust": 2204,
      "obt": 2205,
      "##medi": 2206,
      "began": 2207,
      "behav": 2208,
      "shall": 2209,
      "ess": 2210,
      "san": 2211,
      "improve": 2212,
      "##app": 2213,
      "friends": 2214,
      "trump": 2215,
      "break": 2216,
      "wanted": 2217,
      "deg": 2218,
      "sam": 2219,
      "##ych": 2220,
      "needs": 2221,
      "hours": 2222,
      "size": 2223,
      "##ands": 2224,
      "##________": 2225,
      "appeal": 2226,
      "father": 2227,
      "stri": 2228,
      "3d": 2229,
      "russ": 2230,
      "disease": 2231,
      "milit": 2232,
      "##ips": 2233,
      "stay": 2234,
      "##osition": 2235,
      "page": 2236,
      "##ises": 2237,
      "mount": 2238,
      "aug": 2239,
      "aud": 2240,
      "ul": 2241,
      "added": 2242,
      "dest": 2243,
      "terms": 2244,
      "described": 2245,
      "players": 2246,
      "below": 2247,
      "29": 2248,
      "rule": 2249,
      "##rate": 2250,
      "opin": 2251,
      "tool": 2252,
      "##ires": 2253,
      "]\\]": 2254,
      ".'": 2255,
      "problems": 2256,
      "stop": 2257,
      "user": 2258,
      "##ift": 2259,
      "hor": 2260,
      "text": 2261,
      "glob": 2262,
      "appl": 2263,
      "sup": 2264,
      "mis": 2265,
      "respond": 2266,
      "influ": 2267,
      "##endent": 2268,
      "##========": 2269,
      "##umb": 2270,
      "outside": 2271,
      "##use": 2272,
      "probably": 2273,
      "judgment": 2274,
      "##oke": 2275,
      "needed": 2276,
      "##to": 2277,
      "hope": 2278,
      "##ript": 2279,
      "clos": 2280,
      "oct": 2281,
      "link": 2282,
      "loss": 2283,
      "conditions": 2284,
      "star": 2285,
      "imag": 2286,
      "trying": 2287,
      "hon": 2288,
      "31": 2289,
      "dav": 2290,
      "veh": 2291,
      "democ": 2292,
      "perm": 2293,
      "vo": 2294,
      "eyes": 2295,
      "simply": 2296,
      "adj": 2297,
      "opportun": 2298,
      "quite": 2299,
      "sun": 2300,
      "word": 2301,
      "##iation": 2302,
      "sense": 2303,
      "mach": 2304,
      "##fact": 2305,
      "share": 2306,
      "soon": 2307,
      "judge": 2308,
      "assess": 2309,
      "redu": 2310,
      "##ender": 2311,
      "financ": 2312,
      "considered": 2313,
      "questions": 2314,
      "technology": 2315,
      "woman": 2316,
      "webs": 2317,
      "signal": 2318,
      "management": 2319,
      "recent": 2320,
      "language": 2321,
      "##agn": 2322,
      "effects": 2323,
      "included": 2324,
      "education": 2325,
      "pie": 2326,
      "discover": 2327,
      "heav": 2328,
      "focus": 2329,
      "knew": 2330,
      "##izing": 2331,
      "patient": 2332,
      "green": 2333,
      "led": 2334,
      "assist": 2335,
      "pret": 2336,
      "##cul": 2337,
      "moment": 2338,
      "pain": 2339,
      "comes": 2340,
      "friend": 2341,
      "activity": 2342,
      "##ners": 2343,
      "achie": 2344,
      "##ilities": 2345,
      "##ference": 2346,
      "collect": 2347,
      "sett": 2348,
      "online": 2349,
      "host": 2350,
      "##dle": 2351,
      "##itten": 2352,
      "prote": 2353,
      "german": 2354,
      "mich": 2355,
      "##af": 2356,
      "increased": 2357,
      "necessary": 2358,
      "web": 2359,
      "princ": 2360,
      "desp": 2361,
      "color": 2362,
      "strateg": 2363,
      "pict": 2364,
      "article": 2365,
      "indep": 2366,
      "\\[[@": 2367,
      "##ude": 2368,
      "pal": 2369,
      "##ril": 2370,
      "pick": 2371,
      "##lex": 2372,
      "knowledge": 2373,
      "sept": 2374,
      "claims": 2375,
      "note": 2376,
      "##ume": 2377,
      "themselves": 2378,
      "shown": 2379,
      "impact": 2380,
      "fight": 2381,
      "perf": 2382,
      "poly": 2383,
      "seems": 2384,
      "block": 2385,
      "susp": 2386,
      "original": 2387,
      "broad": 2388,
      "##ites": 2389,
      "##amm": 2390,
      "##yle": 2391,
      "additional": 2392,
      "weight": 2393,
      "nature": 2394,
      "connect": 2395,
      "[@": 2396,
      "psych": 2397,
      "##ension": 2398,
      "rob": 2399,
      "target": 2400,
      "products": 2401,
      "capt": 2402,
      "hol": 2403,
      "points": 2404,
      "church": 2405,
      "somet": 2406,
      "aw": 2407,
      "chap": 2408,
      "private": 2409,
      "civil": 2410,
      "##inary": 2411,
      "won": 2412,
      "##//": 2413,
      "fair": 2414,
      "fore": 2415,
      "please": 2416,
      "finally": 2417,
      "aver": 2418,
      "##ging": 2419,
      "street": 2420,
      "levels": 2421,
      "##50": 2422,
      "##ription": 2423,
      "##uary": 2424,
      "lack": 2425,
      "trust": 2426,
      "##oud": 2427,
      "##ai": 2428,
      "felt": 2429,
      "##gen": 2430,
      "lost": 2431,
      "prec": 2432,
      "late": 2433,
      "grant": 2434,
      "bri": 2435,
      "resour": 2436,
      "natural": 2437,
      "deep": 2438,
      "involved": 2439,
      "##pper": 2440,
      "training": 2441,
      "inte": 2442,
      "paper": 2443,
      "commission": 2444,
      "##book": 2445,
      "multiple": 2446,
      "june": 2447,
      "provides": 2448,
      "date": 2449,
      "##osis": 2450,
      "##erved": 2451,
      "longer": 2452,
      "##ables": 2453,
      "decl": 2454,
      "reduc": 2455,
      "flow": 2456,
      "##he": 2457,
      "generally": 2458,
      "earl": 2459,
      "fem": 2460,
      "dece": 2461,
      "gold": 2462,
      "protect": 2463,
      "enj": 2464,
      "coming": 2465,
      "legal": 2466,
      "limited": 2467,
      "##ym": 2468,
      "production": 2469,
      "sold": 2470,
      "complex": 2471,
      "introdu": 2472,
      "##sec": 2473,
      "easy": 2474,
      "194": 2475,
      "proced": 2476,
      "ball": 2477,
      "tour": 2478,
      "looked": 2479,
      "particularly": 2480,
      "##ague": 2481,
      "expect": 2482,
      "##nal": 2483,
      "central": 2484,
      "dead": 2485,
      "practice": 2486,
      "sle": 2487,
      "areas": 2488,
      "##asons": 2489,
      "population": 2490,
      "speed": 2491,
      "wond": 2492,
      "physical": 2493,
      "##ze": 2494,
      "medic": 2495,
      "ten": 2496,
      "item": 2497,
      "##ression": 2498,
      "##haps": 2499,
      "eval": 2500,
      "oil": 2501,
      "hands": 2502,
      "leave": 2503,
      "shows": 2504,
      "america": 2505,
      "##aign": 2506,
      "compon": 2507,
      "pressure": 2508,
      "minutes": 2509,
      "##ream": 2510,
      "events": 2511,
      "bed": 2512,
      "everyone": 2513,
      "demonst": 2514,
      "speak": 2515,
      "simple": 2516,
      "ago": 2517,
      "##arily": 2518,
      "door": 2519,
      "60": 2520,
      "famil": 2521,
      "##ino": 2522,
      "companies": 2523,
      "inside": 2524,
      "##vant": 2525,
      "turned": 2526,
      "prevent": 2527,
      "travel": 2528,
      "remember": 2529,
      "gas": 2530,
      "forward": 2531,
      "temper": 2532,
      "flo": 2533,
      "son": 2534,
      "sem": 2535,
      "perhaps": 2536,
      "##ouch": 2537,
      "dark": 2538,
      "##bit": 2539,
      "hu": 2540,
      "##asc": 2541,
      "##ops": 2542,
      "campaign": 2543,
      "immedi": 2544,
      "##ublic": 2545,
      "file": 2546,
      "##uth": 2547,
      "pen": 2548,
      "##uses": 2549,
      "sometimes": 2550,
      "##lying": 2551,
      "military": 2552,
      "canad": 2553,
      "price": 2554,
      "industry": 2555,
      "prepar": 2556,
      "recomm": 2557,
      "gave": 2558,
      "round": 2559,
      "july": 2560,
      "=\"": 2561,
      "century": 2562,
      "##ropri": 2563,
      "consist": 2564,
      "##elling": 2565,
      "favor": 2566,
      "##eness": 2567,
      "april": 2568,
      "##bert": 2569,
      "flu": 2570,
      "cry": 2571,
      "written": 2572,
      "includes": 2573,
      "visit": 2574,
      "##gest": 2575,
      "##back": 2576,
      "regul": 2577,
      "measure": 2578,
      "integr": 2579,
      "becom": 2580,
      "attor": 2581,
      "##10": 2582,
      "features": 2583,
      "##rote": 2584,
      "fill": 2585,
      "##ples": 2586,
      "2012": 2587,
      "cancer": 2588,
      "threat": 2589,
      "ult": 2590,
      "##cy": 2591,
      "##ories": 2592,
      "condition": 2593,
      "htt": 2594,
      "document": 2595,
      "##enced": 2596,
      "weeks": 2597,
      "defin": 2598,
      "##the": 2599,
      "ox": 2600,
      "relig": 2601,
      "##oms": 2602,
      "figure": 2603,
      "structure": 2604,
      "display": 2605,
      "college": 2606,
      "created": 2607,
      "oh": 2608,
      "republic": 2609,
      "contr": 2610,
      "vot": 2611,
      "2016": 2612,
      "devices": 2613,
      "club": 2614,
      "purch": 2615,
      "gun": 2616,
      "mob": 2617,
      "resist": 2618,
      "grand": 2619,
      "compared": 2620,
      "##ivity": 2621,
      "##anced": 2622,
      "mur": 2623,
      "2014": 2624,
      "january": 2625,
      "announ": 2626,
      "continue": 2627,
      "##come": 2628,
      "statement": 2629,
      "##atively": 2630,
      "##isions": 2631,
      "usually": 2632,
      "published": 2633,
      "society": 2634,
      "thats": 2635,
      "##eed": 2636,
      "ban": 2637,
      "memory": 2638,
      "august": 2639,
      "##thern": 2640,
      "autom": 2641,
      "2013": 2642,
      "jap": 2643,
      "draw": 2644,
      "##yr": 2645,
      "complete": 2646,
      "staff": 2647,
      "running": 2648,
      "wrong": 2649,
      "enjoy": 2650,
      "transm": 2651,
      "arri": 2652,
      "extra": 2653,
      "ord": 2654,
      "methods": 2655,
      "hospital": 2656,
      "##idge": 2657,
      "fix": 2658,
      "ens": 2659,
      "ful": 2660,
      "35": 2661,
      "##uel": 2662,
      "##reme": 2663,
      "region": 2664,
      "growth": 2665,
      "washing": 2666,
      "spir": 2667,
      "science": 2668,
      "mc": 2669,
      "pattern": 2670,
      "2015": 2671,
      "release": 2672,
      "cand": 2673,
      "track": 2674,
      "##ana": 2675,
      "ability": 2676,
      "ct": 2677,
      "purpose": 2678,
      "magn": 2679,
      "rock": 2680,
      "economic": 2681,
      "grad": 2682,
      "://": 2683,
      "clinical": 2684,
      "opinion": 2685,
      "brought": 2686,
      "eth": 2687,
      "factors": 2688,
      "east": 2689,
      "beaut": 2690,
      "heard": 2691,
      "avoid": 2692,
      "##val": 2693,
      "earth": 2694,
      "financial": 2695,
      "batt": 2696,
      "fell": 2697,
      "version": 2698,
      "poor": 2699,
      "##ronic": 2700,
      "tradition": 2701,
      "despite": 2702,
      "upd": 2703,
      "dut": 2704,
      "##hood": 2705,
      "impl": 2706,
      "reve": 2707,
      "progress": 2708,
      "##atter": 2709,
      "japan": 2710,
      "anyone": 2711,
      "##ober": 2712,
      "agreement": 2713,
      "##where": 2714,
      "website": 2715,
      "establish": 2716,
      "##ese": 2717,
      "buy": 2718,
      "global": 2719,
      "inn": 2720,
      "english": 2721,
      "##11": 2722,
      "hit": 2723,
      "geor": 2724,
      "wood": 2725,
      "feb": 2726,
      "pul": 2727,
      "discl": 2728,
      "interview": 2729,
      "september": 2730,
      "box": 2731,
      "##ills": 2732,
      "histor": 2733,
      "correct": 2734,
      "ways": 2735,
      "cast": 2736,
      "scient": 2737,
      "##anger": 2738,
      "clean": 2739,
      "rout": 2740,
      "surv": 2741,
      "via": 2742,
      "##enty": 2743,
      "cat": 2744,
      "transfer": 2745,
      "countries": 2746,
      "altern": 2747,
      "fear": 2748,
      "uk": 2749,
      "implement": 2750,
      "proceed": 2751,
      "tex": 2752,
      "october": 2753,
      "unf": 2754,
      "bott": 2755,
      "whose": 2756,
      "developed": 2757,
      "petition": 2758,
      "filed": 2759,
      "fast": 2760,
      "computer": 2761,
      "32": 2762,
      "##reg": 2763,
      "middle": 2764,
      "execut": 2765,
      "##wise": 2766,
      "normal": 2767,
      "##ores": 2768,
      "mention": 2769,
      "manu": 2770,
      "leaders": 2771,
      "answer": 2772,
      "##iment": 2773,
      "##eless": 2774,
      "song": 2775,
      "corpor": 2776,
      "writing": 2777,
      "birth": 2778,
      "democr": 2779,
      "rom": 2780,
      "limit": 2781,
      "bey": 2782,
      "##load": 2783,
      "##ously": 2784,
      "chem": 2785,
      "36": 2786,
      "leav": 2787,
      "##rated": 2788,
      "2010": 2789,
      "perfect": 2790,
      "##astic": 2791,
      "##ternal": 2792,
      "saying": 2793,
      "experi": 2794,
      "primary": 2795,
      "nar": 2796,
      "print": 2797,
      "diagn": 2798,
      "effective": 2799,
      "##vert": 2800,
      "##bor": 2801,
      "manufact": 2802,
      "roll": 2803,
      "unit": 2804,
      "gar": 2805,
      "emerg": 2806,
      "learn": 2807,
      "recently": 2808,
      "subm": 2809,
      "crim": 2810,
      "je": 2811,
      "2017": 2812,
      "##ground": 2813,
      "##itness": 2814,
      "british": 2815,
      "liter": 2816,
      "hous": 2817,
      "references": 2818,
      "##head": 2819,
      "##cil": 2820,
      "##icles": 2821,
      "morning": 2822,
      "email": 2823,
      "tur": 2824,
      "sym": 2825,
      "december": 2826,
      "##rupt": 2827,
      "users": 2828,
      "exact": 2829,
      "showed": 2830,
      "dro": 2831,
      "eight": 2832,
      "analy": 2833,
      "reading": 2834,
      "##mer": 2835,
      "modern": 2836,
      "2011": 2837,
      "vac": 2838,
      "##nes": 2839,
      "##semb": 2840,
      "attention": 2841,
      "operation": 2842,
      "wrote": 2843,
      "nove": 2844,
      "##osing": 2845,
      "born": 2846,
      "concept": 2847,
      "congress": 2848,
      "chief": 2849,
      "load": 2850,
      "maybe": 2851,
      "parties": 2852,
      "previous": 2853,
      "bud": 2854,
      "##lusion": 2855,
      "award": 2856,
      "prefer": 2857,
      "cook": 2858,
      "##ha": 2859,
      "insur": 2860,
      "afric": 2861,
      "greater": 2862,
      "counsel": 2863,
      "november": 2864,
      "positive": 2865,
      "beyond": 2866,
      "##0s": 2867,
      "li": 2868,
      "##ession": 2869,
      "increasing": 2870,
      "william": 2871,
      "unl": 2872,
      "plat": 2873,
      "basis": 2874,
      "##xic": 2875,
      "average": 2876,
      "],": 2877,
      "tal": 2878,
      "feed": 2879,
      "decided": 2880,
      "195": 2881,
      "director": 2882,
      "software": 2883,
      "mov": 2884,
      "##ham": 2885,
      "stage": 2886,
      "convers": 2887,
      "syn": 2888,
      "##utions": 2889,
      "substant": 2890,
      "built": 2891,
      "established": 2892,
      "slow": 2893,
      "union": 2894,
      "drive": 2895,
      "designed": 2896,
      "austral": 2897,
      "shar": 2898,
      "##unt": 2899,
      "calif": 2900,
      "##light": 2901,
      "##vey": 2902,
      "currently": 2903,
      "lond": 2904,
      "der": 2905,
      "match": 2906,
      "##ald": 2907,
      "books": 2908,
      "command": 2909,
      "##ribution": 2910,
      "length": 2911,
      "jack": 2912,
      "##rew": 2913,
      "earlier": 2914,
      "##oon": 2915,
      "remain": 2916,
      "##kn": 2917,
      "##ett": 2918,
      "capital": 2919,
      "layer": 2920,
      "rac": 2921,
      "wed": 2922,
      "station": 2923,
      "minim": 2924,
      "##ster": 2925,
      "band": 2926,
      "error": 2927,
      "che": 2928,
      "mac": 2929,
      "chann": 2930,
      "popular": 2931,
      "du": 2932,
      "circum": 2933,
      "situation": 2934,
      "appropri": 2935,
      "33": 2936,
      "##isl": 2937,
      "worth": 2938,
      "pretty": 2939,
      "difference": 2940,
      "washington": 2941,
      "##atives": 2942,
      "##inated": 2943,
      "appellant": 2944,
      "\".": 2945,
      "##rom": 2946,
      "island": 2947,
      "anti": 2948,
      "vill": 2949,
      "##king": 2950,
      "##ties": 2951,
      "##ault": 2952,
      "london": 2953,
      "comment": 2954,
      "alone": 2955,
      "stru": 2956,
      "hearing": 2957,
      "hear": 2958,
      "parents": 2959,
      "##19": 2960,
      "played": 2961,
      "association": 2962,
      "instru": 2963,
      "##oper": 2964,
      "dim": 2965,
      "worked": 2966,
      "defense": 2967,
      "labor": 2968,
      "##aged": 2969,
      "##ography": 2970,
      "##erve": 2971,
      "defendants": 2972,
      "released": 2973,
      "directly": 2974,
      "expected": 2975,
      "blog": 2976,
      "##lig": 2977,
      "sho": 2978,
      "rat": 2979,
      "##12": 2980,
      "laws": 2981,
      "##iet": 2982,
      "##aled": 2983,
      "repe": 2984,
      "##airs": 2985,
      "surpr": 2986,
      "notice": 2987,
      "swe": 2988,
      "acqu": 2989,
      "rules": 2990,
      "){": 2991,
      "hund": 2992,
      "##fl": 2993,
      "meeting": 2994,
      "journal": 2995,
      "movement": 2996,
      "##wor": 2997,
      "china": 2998,
      "toward": 2999,
      "challeng": 3000,
      "conclud": 3001,
      "##lin": 3002,
      "prem": 3003,
      "ww": 3004,
      "committ": 3005,
      "hundred": 3006,
      "moved": 3007,
      "convention": 3008,
      "exerc": 3009,
      "##uments": 3010,
      "dog": 3011,
      "45": 3012,
      "voice": 3013,
      "takes": 3014,
      "determine": 3015,
      "##hold": 3016,
      "tom": 3017,
      "sequ": 3018,
      "##istics": 3019,
      "lic": 3020,
      "league": 3021,
      "strength": 3022,
      "aim": 3023,
      "##body": 3024,
      "officer": 3025,
      "californ": 3026,
      "brain": 3027,
      "interp": 3028,
      "##apy": 3029,
      "frame": 3030,
      "trade": 3031,
      "career": 3032,
      "34": 3033,
      "wife": 3034,
      "install": 3035,
      "##ram": 3036,
      "justice": 3037,
      "capac": 3038,
      "gro": 3039,
      "direction": 3040,
      "letter": 3041,
      "##ucle": 3042,
      "costs": 3043,
      "performed": 3044,
      "jur": 3045,
      "lives": 3046,
      ")(": 3047,
      "jew": 3048,
      "touch": 3049,
      "external": 3050,
      "foreign": 3051,
      "hyd": 3052,
      "recover": 3053,
      "##itter": 3054,
      "tried": 3055,
      "followed": 3056,
      "##ble": 3057,
      "parts": 3058,
      "football": 3059,
      "##osure": 3060,
      "player": 3061,
      "etc": 3062,
      "regular": 3063,
      "legisl": 3064,
      "mel": 3065,
      "##fort": 3066,
      "alb": 3067,
      "thous": 3068,
      "jury": 3069,
      "safety": 3070,
      "phone": 3071,
      "surg": 3072,
      "types": 3073,
      "##ades": 3074,
      "suit": 3075,
      "meaning": 3076,
      "degree": 3077,
      "##pir": 3078,
      "hall": 3079,
      "dism": 3080,
      "reasons": 3081,
      "##oura": 3082,
      "compar": 3083,
      "reflect": 3084,
      "193": 3085,
      "applied": 3086,
      "qual": 3087,
      "purs": 3088,
      "rot": 3089,
      "blue": 3090,
      "2008": 3091,
      "council": 3092,
      "title": 3093,
      "images": 3094,
      "wide": 3095,
      "presented": 3096,
      "2018": 3097,
      "mix": 3098,
      "confir": 3099,
      "carry": 3100,
      "##cing": 3101,
      "river": 3102,
      "##ruary": 3103,
      "finding": 3104,
      "lif": 3105,
      "##arm": 3106,
      "doesn": 3107,
      "demand": 3108,
      "wid": 3109,
      "hop": 3110,
      "champ": 3111,
      "status": 3112,
      "failed": 3113,
      "heat": 3114,
      "store": 3115,
      "##apt": 3116,
      "attorney": 3117,
      "wes": 3118,
      "2009": 3119,
      "##80": 3120,
      "quickly": 3121,
      "il": 3122,
      "february": 3123,
      "credit": 3124,
      "individuals": 3125,
      "failure": 3126,
      "throughout": 3127,
      "internet": 3128,
      "assemb": 3129,
      "learning": 3130,
      "##aries": 3131,
      "brief": 3132,
      "occurr": 3133,
      "continued": 3134,
      "charge": 3135,
      "formed": 3136,
      "##aily": 3137,
      "##enge": 3138,
      "fif": 3139,
      "lines": 3140,
      "allowed": 3141,
      "##iday": 3142,
      "seemed": 3143,
      "vehicle": 3144,
      "wild": 3145,
      "david": 3146,
      "brand": 3147,
      "transport": 3148,
      "opportunity": 3149,
      "isra": 3150,
      "california": 3151,
      "active": 3152,
      "ok": 3153,
      "stated": 3154,
      "advant": 3155,
      "##omb": 3156,
      "##iers": 3157,
      "continu": 3158,
      "professional": 3159,
      "##ford": 3160,
      "chapter": 3161,
      "bab": 3162,
      "ut": 3163,
      "rap": 3164,
      "##anch": 3165,
      "\",": 3166,
      "nearly": 3167,
      "reference": 3168,
      "playing": 3169,
      "sto": 3170,
      "launch": 3171,
      "fat": 3172,
      "mut": 3173,
      "constitution": 3174,
      "ones": 3175,
      "digital": 3176,
      "culture": 3177,
      "values": 3178,
      "quar": 3179,
      "understanding": 3180,
      "brown": 3181,
      "##iding": 3182,
      "element": 3183,
      "sand": 3184,
      "wal": 3185,
      "boy": 3186,
      "accom": 3187,
      "lad": 3188,
      "clearly": 3189,
      "##ici": 3190,
      "hyp": 3191,
      "##iate": 3192,
      "paid": 3193,
      "write": 3194,
      "##oles": 3195,
      "##ext": 3196,
      "seven": 3197,
      "towards": 3198,
      "nav": 3199,
      "myself": 3200,
      "mechanism": 3201,
      "receive": 3202,
      "##rant": 3203,
      "plant": 3204,
      "predict": 3205,
      "nation": 3206,
      "##ipp": 3207,
      "overall": 3208,
      "behavior": 3209,
      "affect": 3210,
      "truth": 3211,
      "obv": 3212,
      "daily": 3213,
      "race": 3214,
      "42": 3215,
      "expression": 3216,
      "concent": 3217,
      "goal": 3218,
      "origin": 3219,
      "courts": 3220,
      "resources": 3221,
      "exch": 3222,
      "amaz": 3223,
      "switch": 3224,
      "rand": 3225,
      "thinking": 3226,
      "produced": 3227,
      "french": 3228,
      "electro": 3229,
      "summer": 3230,
      "eye": 3231,
      "feet": 3232,
      "80": 3233,
      "www": 3234,
      "cool": 3235,
      "##encies": 3236,
      "election": 3237,
      "location": 3238,
      "moving": 3239,
      "##ests": 3240,
      "click": 3241,
      "adult": 3242,
      "administration": 3243,
      "##iated": 3244,
      "##itation": 3245,
      "##olic": 3246,
      "workers": 3247,
      "caused": 3248,
      "leading": 3249,
      "mart": 3250,
      "unc": 3251,
      "located": 3252,
      "##itude": 3253,
      "highly": 3254,
      "indian": 3255,
      "israel": 3256,
      "##ille": 3257,
      "%)": 3258,
      "37": 3259,
      "materials": 3260,
      "activities": 3261,
      "neigh": 3262,
      "##de": 3263,
      "##more": 3264,
      "cro": 3265,
      "committee": 3266,
      "##order": 3267,
      "bul": 3268,
      "camer": 3269,
      "##dom": 3270,
      "##erson": 3271,
      "##bur": 3272,
      "spirit": 3273,
      "argument": 3274,
      "princip": 3275,
      "consequ": 3276,
      "remo": 3277,
      "stress": 3278,
      "##idents": 3279,
      "candid": 3280,
      "army": 3281,
      "reports": 3282,
      "completely": 3283,
      "novel": 3284,
      "choice": 3285,
      "determined": 3286,
      "##ancy": 3287,
      "presence": 3288,
      "sufficient": 3289,
      "independent": 3290,
      "accur": 3291,
      "cru": 3292,
      "##iful": 3293,
      "quant": 3294,
      "##lection": 3295,
      "specif": 3296,
      "paul": 3297,
      "satis": 3298,
      "##band": 3299,
      "portion": 3300,
      "esc": 3301,
      "##isc": 3302,
      "thank": 3303,
      "##ibly": 3304,
      "elements": 3305,
      "safe": 3306,
      "contain": 3307,
      "majority": 3308,
      "benefits": 3309,
      "decre": 3310,
      "emot": 3311,
      "sleep": 3312,
      "links": 3313,
      "stock": 3314,
      "##resp": 3315,
      "easily": 3316,
      "regarding": 3317,
      "##aughter": 3318,
      "mad": 3319,
      "james": 3320,
      "!\"": 3321,
      "##leg": 3322,
      "ready": 3323,
      "sort": 3324,
      "european": 3325,
      "solution": 3326,
      "theory": 3327,
      "adjust": 3328,
      "facts": 3329,
      "income": 3330,
      "promot": 3331,
      "youre": 3332,
      "couple": 3333,
      "##mon": 3334,
      "##yal": 3335,
      "\"}": 3336,
      "hair": 3337,
      "bow": 3338,
      "##aught": 3339,
      "skin": 3340,
      "##esis": 3341,
      "die": 3342,
      "requires": 3343,
      "##amic": 3344,
      "style": 3345,
      "victim": 3346,
      "##force": 3347,
      "species": 3348,
      "##gar": 3349,
      "90": 3350,
      "##usion": 3351,
      "proposed": 3352,
      "tor": 3353,
      "##adem": 3354,
      "circumst": 3355,
      "burn": 3356,
      "70": 3357,
      "adop": 3358,
      "chance": 3359,
      "##iance": 3360,
      "##15": 3361,
      "##aly": 3362,
      "]\\].": 3363,
      "assum": 3364,
      "##rim": 3365,
      "##14": 3366,
      "immediately": 3367,
      "##vent": 3368,
      "nucle": 3369,
      "fine": 3370,
      "liqu": 3371,
      "witness": 3372,
      "##13": 3373,
      "apart": 3374,
      "counter": 3375,
      "38": 3376,
      "##ulated": 3377,
      "died": 3378,
      "surr": 3379,
      "shot": 3380,
      "##ae": 3381,
      "rail": 3382,
      "##umn": 3383,
      "cant": 3384,
      "que": 3385,
      "message": 3386,
      "hus": 3387,
      "details": 3388,
      "##oring": 3389,
      "context": 3390,
      "rates": 3391,
      "ms": 3392,
      "previously": 3393,
      "2007": 3394,
      "goes": 3395,
      "typically": 3396,
      "serious": 3397,
      "insurance": 3398,
      "giving": 3399,
      "citiz": 3400,
      "##(#": 3401,
      "##ogen": 3402,
      "##set": 3403,
      "coach": 3404,
      "aspect": 3405,
      "temperature": 3406,
      "option": 3407,
      "master": 3408,
      "fort": 3409,
      "description": 3410,
      "thanks": 3411,
      "##ocks": 3412,
      "western": 3413,
      "changed": 3414,
      "estim": 3415,
      "prison": 3416,
      "mort": 3417,
      "interesting": 3418,
      "happened": 3419,
      "##ael": 3420,
      "reb": 3421,
      "virt": 3422,
      "##char": 3423,
      "detect": 3424,
      "wish": 3425,
      "indeed": 3426,
      "mir": 3427,
      "shoot": 3428,
      "authority": 3429,
      "##entially": 3430,
      "happy": 3431,
      "agency": 3432,
      "scale": 3433,
      "named": 3434,
      "protein": 3435,
      "reasonable": 3436,
      "organization": 3437,
      "academ": 3438,
      "significantly": 3439,
      "appropriate": 3440,
      "output": 3441,
      "didnt": 3442,
      "whom": 3443,
      "damage": 3444,
      "communication": 3445,
      "thom": 3446,
      "motor": 3447,
      "construction": 3448,
      "##ky": 3449,
      "alleged": 3450,
      "wonder": 3451,
      "goog": 3452,
      "sexual": 3453,
      "records": 3454,
      "complaint": 3455,
      "platform": 3456,
      "applications": 3457,
      "fib": 3458,
      "enh": 3459,
      "phase": 3460,
      "numbers": 3461,
      "paint": 3462,
      "observed": 3463,
      "initial": 3464,
      "india": 3465,
      "screen": 3466,
      "##18": 3467,
      "##lim": 3468,
      "forces": 3469,
      "mobile": 3470,
      "minister": 3471,
      "spect": 3472,
      "cath": 3473,
      "machine": 3474,
      "hes": 3475,
      "tro": 3476,
      "##bed": 3477,
      "findings": 3478,
      "http": 3479,
      "danger": 3480,
      "connection": 3481,
      "identified": 3482,
      "dismiss": 3483,
      "##ams": 3484,
      "student": 3485,
      "yourself": 3486,
      "beginning": 3487,
      "spent": 3488,
      "wel": 3489,
      "##16": 3490,
      "##ellig": 3491,
      "supreme": 3492,
      "sea": 3493,
      "44": 3494,
      "sales": 3495,
      "electric": 3496,
      "ign": 3497,
      "##uration": 3498,
      "providing": 3499,
      "certainly": 3500,
      "39": 3501,
      "radio": 3502,
      "##17": 3503,
      "actual": 3504,
      "##ested": 3505,
      "injury": 3506,
      "libr": 3507,
      "factor": 3508,
      "plaintiffs": 3509,
      "pow": 3510,
      "sud": 3511,
      "sell": 3512,
      "evalu": 3513,
      "otherwise": 3514,
      "##ken": 3515,
      "peace": 3516,
      "metal": 3517,
      "util": 3518,
      "gone": 3519,
      "contribut": 3520,
      "##vision": 3521,
      "tv": 3522,
      "testim": 3523,
      "##bon": 3524,
      "cup": 3525,
      "push": 3526,
      "placed": 3527,
      "internal": 3528,
      "confl": 3529,
      "fully": 3530,
      "sched": 3531,
      "##rial": 3532,
      "valid": 3533,
      "passed": 3534,
      "commerc": 3535,
      "protection": 3536,
      "specifically": 3537,
      "##actions": 3538,
      "noted": 3539,
      "##que": 3540,
      "assign": 3541,
      "effort": 3542,
      "conserv": 3543,
      "fal": 3544,
      "##zz": 3545,
      "om": 3546,
      "places": 3547,
      "actions": 3548,
      "43": 3549,
      "attach": 3550,
      "criminal": 3551,
      "officers": 3552,
      "calcul": 3553,
      "obtained": 3554,
      "2000": 3555,
      "summary": 3556,
      "lock": 3557,
      "##ding": 3558,
      "programs": 3559,
      "##respond": 3560,
      "plans": 3561,
      "basic": 3562,
      "constant": 3563,
      "##aging": 3564,
      "battle": 3565,
      "##ifying": 3566,
      "whe": 3567,
      "dream": 3568,
      "##eration": 3569,
      "##using": 3570,
      "male": 3571,
      "glass": 3572,
      "monitor": 3573,
      "##ounds": 3574,
      "lu": 3575,
      "separate": 3576,
      "allows": 3577,
      "##verse": 3578,
      "doll": 3579,
      "correspond": 3580,
      "participants": 3581,
      "()": 3582,
      "mist": 3583,
      "2006": 3584,
      "background": 3585,
      "47": 3586,
      "photo": 3587,
      "hur": 3588,
      "subsequ": 3589,
      "].": 3590,
      "poll": 3591,
      "od": 3592,
      "##phone": 3593,
      "produce": 3594,
      "employees": 3595,
      "fish": 3596,
      "hill": 3597,
      "##odes": 3598,
      "ast": 3599,
      "beautiful": 3600,
      "officials": 3601,
      "maxim": 3602,
      "growing": 3603,
      "schools": 3604,
      "500": 3605,
      "collection": 3606,
      "faith": 3607,
      "critical": 3608,
      "pun": 3609,
      "amb": 3610,
      "kept": 3611,
      "influence": 3612,
      "comments": 3613,
      "challenge": 3614,
      "useful": 3615,
      "##ole": 3616,
      "relevant": 3617,
      "##rit": 3618,
      "rh": 3619,
      "##ari": 3620,
      "piece": 3621,
      "remains": 3622,
      "reduce": 3623,
      "processing": 3624,
      "negative": 3625,
      "48": 3626,
      "achieve": 3627,
      "spring": 3628,
      "core": 3629,
      "intellig": 3630,
      "google": 3631,
      "chair": 3632,
      "starting": 3633,
      "transl": 3634,
      "##aming": 3635,
      "reached": 3636,
      "param": 3637,
      "theres": 3638,
      "##ara": 3639,
      "lord": 3640,
      "models": 3641,
      "looks": 3642,
      "flor": 3643,
      "none": 3644,
      "appears": 3645,
      "fit": 3646,
      "unless": 3647,
      "##aces": 3648,
      "46": 3649,
      "wasn": 3650,
      "mole": 3651,
      "task": 3652,
      "division": 3653,
      "freed": 3654,
      "input": 3655,
      "connected": 3656,
      "jer": 3657,
      "thin": 3658,
      "talking": 3659,
      "floor": 3660,
      "##oma": 3661,
      "exactly": 3662,
      "cold": 3663,
      "kids": 3664,
      "larger": 3665,
      "unique": 3666,
      "holding": 3667,
      "occas": 3668,
      "##atever": 3669,
      "dan": 3670,
      "apply": 3671,
      "returned": 3672,
      "conflict": 3673,
      "weap": 3674,
      "items": 3675,
      "ec": 3676,
      "benefit": 3677,
      "occup": 3678,
      "manner": 3679,
      "register": 3680,
      "##ey": 3681,
      "tiss": 3682,
      "##inate": 3683,
      "raised": 3684,
      "##enue": 3685,
      "satisf": 3686,
      "##ls": 3687,
      "testimony": 3688,
      "denied": 3689,
      "whatever": 3690,
      "encoura": 3691,
      "##osph": 3692,
      "uses": 3693,
      "served": 3694,
      "notes": 3695,
      "ran": 3696,
      "texas": 3697,
      "existing": 3698,
      "##ias": 3699,
      "spread": 3700,
      "##outh": 3701,
      "##room": 3702,
      "##cra": 3703,
      "reduced": 3704,
      "extrem": 3705,
      "incor": 3706,
      "advert": 3707,
      "optim": 3708,
      "sund": 3709,
      "amend": 3710,
      "agre": 3711,
      "##pan": 3712,
      "england": 3713,
      "picture": 3714,
      "absol": 3715,
      "guid": 3716,
      "happen": 3717,
      "recommend": 3718,
      "stories": 3719,
      "##iled": 3720,
      "traditional": 3721,
      "customers": 3722,
      "approxim": 3723,
      "##inct": 3724,
      "##atus": 3725,
      "dyn": 3726,
      "save": 3727,
      "cele": 3728,
      "equip": 3729,
      "feeling": 3730,
      "killed": 3731,
      "##off": 3732,
      "hers": 3733,
      "##ena": 3734,
      "circumstances": 3735,
      "95": 3736,
      "debt": 3737,
      "##elle": 3738,
      "##izes": 3739,
      "##ament": 3740,
      "doesnt": 3741,
      "mental": 3742,
      "gets": 3743,
      "successful": 3744,
      "female": 3745,
      "huge": 3746,
      "crime": 3747,
      "##iring": 3748,
      "49": 3749,
      "choose": 3750,
      "gard": 3751,
      "##iar": 3752,
      "spee": 3753,
      "interpret": 3754,
      "ensure": 3755,
      "##rec": 3756,
      "properties": 3757,
      "patent": 3758,
      "ideas": 3759,
      "variety": 3760,
      "opening": 3761,
      "partners": 3762,
      "operations": 3763,
      "feature": 3764,
      "gene": 3765,
      "sympt": 3766,
      "channel": 3767,
      "defined": 3768,
      "ben": 3769,
      "##inese": 3770,
      "announced": 3771,
      "tum": 3772,
      "##equ": 3773,
      "##ij": 3774,
      "compr": 3775,
      "sites": 3776,
      "smith": 3777,
      "conference": 3778,
      "christian": 3779,
      "slight": 3780,
      "bond": 3781,
      "##iced": 3782,
      "##ban": 3783,
      "neu": 3784,
      "##ressed": 3785,
      "efforts": 3786,
      "](#": 3787,
      "quot": 3788,
      "restrict": 3789,
      "supply": 3790,
      "ship": 3791,
      "##wood": 3792,
      "fresh": 3793,
      "frequency": 3794,
      "offered": 3795,
      "disapp": 3796,
      "billion": 3797,
      "doubt": 3798,
      "album": 3799,
      "breat": 3800,
      "2005": 3801,
      "bound": 3802,
      "commercial": 3803,
      "lou": 3804,
      "appeared": 3805,
      "vote": 3806,
      "strugg": 3807,
      "farm": 3808,
      "van": 3809,
      "transform": 3810,
      "straight": 3811,
      "chinese": 3812,
      "leader": 3813,
      "guard": 3814,
      "michael": 3815,
      "double": 3816,
      "##omy": 3817,
      "facebook": 3818,
      "##field": 3819,
      "heavy": 3820,
      "##ipl": 3821,
      "75": 3822,
      "traff": 3823,
      "teams": 3824,
      "##cast": 3825,
      "##aker": 3826,
      "recept": 3827,
      "exhib": 3828,
      "55": 3829,
      "george": 3830,
      "send": 3831,
      "firm": 3832,
      "distance": 3833,
      "52": 3834,
      "tend": 3835,
      "prosec": 3836,
      "setting": 3837,
      "mail": 3838,
      "opened": 3839,
      "investigation": 3840,
      "appoint": 3841,
      "sources": 3842,
      "minor": 3843,
      "##bi": 3844,
      "storage": 3845,
      ",'": 3846,
      "discussion": 3847,
      "forms": 3848,
      "##ensity": 3849,
      "##iant": 3850,
      "##aur": 3851,
      "agent": 3852,
      "capacity": 3853,
      "differences": 3854,
      "spr": 3855,
      "diss": 3856,
      "murder": 3857,
      "exercise": 3858,
      "closed": 3859,
      "comfort": 3860,
      "##enses": 3861,
      "meant": 3862,
      "gives": 3863,
      "sust": 3864,
      "anc": 3865,
      "distribution": 3866,
      "relatively": 3867,
      "random": 3868,
      "##iques": 3869,
      "families": 3870,
      "ax": 3871,
      "##ube": 3872,
      "assert": 3873,
      "tools": 3874,
      "pc": 3875,
      "##ida": 3876,
      "hun": 3877,
      "uns": 3878,
      "##bl": 3879,
      "crow": 3880,
      "options": 3881,
      "windows": 3882,
      "##iles": 3883,
      "##ocol": 3884,
      "liquid": 3885,
      "##encing": 3886,
      "illust": 3887,
      "equipment": 3888,
      "##ortion": 3889,
      "##aud": 3890,
      "hydro": 3891,
      "components": 3892,
      "testing": 3893,
      "##men": 3894,
      "##aling": 3895,
      "##rative": 3896,
      "##mp": 3897,
      "selected": 3898,
      "becomes": 3899,
      "brother": 3900,
      "onto": 3901,
      "##iciency": 3902,
      "drink": 3903,
      "bottom": 3904,
      "spl": 3905,
      "carried": 3906,
      "##me": 3907,
      "##spect": 3908,
      "##riage": 3909,
      "standing": 3910,
      "immun": 3911,
      "acid": 3912,
      "##ius": 3913,
      "entered": 3914,
      "bag": 3915,
      "##ste": 3916,
      "##tered": 3917,
      "divid": 3918,
      "##ville": 3919,
      "nut": 3920,
      "emph": 3921,
      "steps": 3922,
      "economy": 3923,
      "juris": 3924,
      "electr": 3925,
      "organiz": 3926,
      "##ny": 3927,
      "showing": 3928,
      "stuff": 3929,
      "##aced": 3930,
      "expert": 3931,
      "ded": 3932,
      "requirements": 3933,
      "serve": 3934,
      "visual": 3935,
      "##rie": 3936,
      "appeals": 3937,
      "54": 3938,
      "eventually": 3939,
      "projects": 3940,
      "##oo": 3941,
      "sudden": 3942,
      "adapt": 3943,
      "twenty": 3944,
      "offers": 3945,
      "sentence": 3946,
      "therapy": 3947,
      "intended": 3948,
      "wait": 3949,
      "treated": 3950,
      "##eline": 3951,
      "canada": 3952,
      "reality": 3953,
      "##uk": 3954,
      "husband": 3955,
      "config": 3956,
      "solid": 3957,
      "sample": 3958,
      "mentioned": 3959,
      "fing": 3960,
      "advantage": 3961,
      "affir": 3962,
      "mary": 3963,
      "conventional": 3964,
      "joint": 3965,
      "franc": 3966,
      "##icip": 3967,
      "cloth": 3968,
      "responsible": 3969,
      "ber": 3970,
      "wire": 3971,
      "mond": 3972,
      "frank": 3973,
      "surround": 3974,
      "##iling": 3975,
      "##rows": 3976,
      "expand": 3977,
      "ive": 3978,
      "window": 3979,
      "org": 3980,
      "films": 3981,
      "wil": 3982,
      "##ipped": 3983,
      "terror": 3984,
      "stim": 3985,
      "reject": 3986,
      "driving": 3987,
      "operating": 3988,
      "beg": 3989,
      "ham": 3990,
      "exchange": 3991,
      "wants": 3992,
      "troub": 3993,
      "53": 3994,
      "scen": 3995,
      "isn": 3996,
      "americans": 3997,
      "complic": 3998,
      "speech": 3999,
      "angel": 4000,
      "smart": 4001,
      "philos": 4002,
      "animals": 4003,
      "manager": 4004,
      "epis": 4005,
      "2004": 4006,
      "rapid": 4007,
      "emp": 4008,
      "ren": 4009,
      "##ros": 4010,
      "##abor": 4011,
      "neither": 4012,
      "quarter": 4013,
      "hell": 4014,
      "56": 4015,
      "##ribute": 4016,
      "friday": 4017,
      "##istry": 4018,
      "movie": 4019,
      "doct": 4020,
      "nice": 4021,
      "volume": 4022,
      "##ris": 4023,
      "cas": 4024,
      "harm": 4025,
      "television": 4026,
      "volt": 4027,
      "older": 4028,
      "pull": 4029,
      "##ca": 4030,
      "map": 4031,
      "supported": 4032,
      "bib": 4033,
      "##ago": 4034,
      "suppl": 4035,
      "robert": 4036,
      "vent": 4037,
      "destro": 4038,
      "generation": 4039,
      "jurisd": 4040,
      "procedure": 4041,
      "miles": 4042,
      "192": 4043,
      "65": 4044,
      "##omet": 4045,
      "sor": 4046,
      "sad": 4047,
      "##rier": 4048,
      "download": 4049,
      "owners": 4050,
      "fuel": 4051,
      "guide": 4052,
      "scene": 4053,
      "edge": 4054,
      "mexic": 4055,
      "cd": 4056,
      "construct": 4057,
      "spot": 4058,
      "rise": 4059,
      "##icks": 4060,
      "religious": 4061,
      "names": 4062,
      "agreed": 4063,
      "##ipe": 4064,
      "##hol": 4065,
      "japanese": 4066,
      "strategy": 4067,
      "identify": 4068,
      "##ights": 4069,
      "environmental": 4070,
      "mission": 4071,
      "resistance": 4072,
      "freedom": 4073,
      "creating": 4074,
      "sac": 4075,
      "instance": 4076,
      "senior": 4077,
      "excell": 4078,
      "entit": 4079,
      "bay": 4080,
      "experim": 4081,
      "essential": 4082,
      "##ica": 4083,
      "colon": 4084,
      "bind": 4085,
      "improved": 4086,
      "fourth": 4087,
      "relief": 4088,
      "eat": 4089,
      "doctor": 4090,
      "emphas": 4091,
      "latest": 4092,
      "champions": 4093,
      "ice": 4094,
      "obama": 4095,
      "##arian": 4096,
      "kid": 4097,
      "##ils": 4098,
      "skills": 4099,
      "conclusion": 4100,
      "numer": 4101,
      "apparatus": 4102,
      "server": 4103,
      "thick": 4104,
      ".[": 4105,
      "##berg": 4106,
      "sir": 4107,
      "index": 4108,
      "techniques": 4109,
      "cab": 4110,
      "##icians": 4111,
      "satur": 4112,
      "plus": 4113,
      "train": 4114,
      "leaving": 4115,
      "sports": 4116,
      "guy": 4117,
      "violence": 4118,
      "##unction": 4119,
      "##atically": 4120,
      "learned": 4121,
      "mand": 4122,
      "2019": 4123,
      "drop": 4124,
      "phen": 4125,
      "datab": 4126,
      "##works": 4127,
      "lit": 4128,
      "twitter": 4129,
      "explained": 4130,
      "##odies": 4131,
      "powerful": 4132,
      "covered": 4133,
      "rub": 4134,
      "processes": 4135,
      "##anged": 4136,
      "removed": 4137,
      "insp": 4138,
      "secretary": 4139,
      "gall": 4140,
      "consc": 4141,
      "issued": 4142,
      "herself": 4143,
      "##elled": 4144,
      "bes": 4145,
      "plate": 4146,
      "dry": 4147,
      "assembly": 4148,
      "##itect": 4149,
      "##ded": 4150,
      "conducted": 4151,
      "planning": 4152,
      "immig": 4153,
      "false": 4154,
      "bor": 4155,
      "survey": 4156,
      "##icated": 4157,
      "fab": 4158,
      "fle": 4159,
      "contrast": 4160,
      "schem": 4161,
      "##board": 4162,
      "batter": 4163,
      "math": 4164,
      "shut": 4165,
      "##ero": 4166,
      "coast": 4167,
      "alternative": 4168,
      "rank": 4169,
      "ath": 4170,
      "library": 4171,
      "citizens": 4172,
      "64": 4173,
      "chemical": 4174,
      "2003": 4175,
      "sale": 4176,
      "(\"": 4177,
      "##otic": 4178,
      "measures": 4179,
      "approximately": 4180,
      "equal": 4181,
      "score": 4182,
      "jes": 4183,
      "##bc": 4184,
      "replace": 4185,
      "drugs": 4186,
      "ara": 4187,
      "join": 4188,
      "statute": 4189,
      "sunday": 4190,
      "##craft": 4191,
      "duty": 4192,
      "animal": 4193,
      "architect": 4194,
      "executive": 4195,
      "string": 4196,
      "daughter": 4197,
      "eg": 4198,
      "##iat": 4199,
      "jobs": 4200,
      "calls": 4201,
      "99": 4202,
      "##lor": 4203,
      "enem": 4204,
      "##iny": 4205,
      "##la": 4206,
      "graph": 4207,
      "beat": 4208,
      "monday": 4209,
      "##nel": 4210,
      "##ulate": 4211,
      "girls": 4212,
      "##amb": 4213,
      "upper": 4214,
      "pair": 4215,
      "##pro": 4216,
      "controlled": 4217,
      "##pe": 4218,
      "climate": 4219,
      "arms": 4220,
      "ye": 4221,
      "delay": 4222,
      "consult": 4223,
      "alex": 4224,
      "isol": 4225,
      "france": 4226,
      "##ingu": 4227,
      "mcc": 4228,
      "cris": 4229,
      "ahead": 4230,
      "##ios": 4231,
      "completed": 4232,
      "abuse": 4233,
      "{#": 4234,
      "shape": 4235,
      "##ixt": 4236,
      "observ": 4237,
      "iv": 4238,
      "fixed": 4239,
      "characters": 4240,
      "inhib": 4241,
      "seeing": 4242,
      "##zy": 4243,
      "relative": 4244,
      "revealed": 4245,
      "belief": 4246,
      "interested": 4247,
      "referred": 4248,
      "suggested": 4249,
      "purposes": 4250,
      "cash": 4251,
      "housing": 4252,
      "rid": 4253,
      "celebr": 4254,
      "2001": 4255,
      "helped": 4256,
      "believed": 4257,
      "highest": 4258,
      "##uries": 4259,
      "forth": 4260,
      "aware": 4261,
      "largest": 4262,
      "standards": 4263,
      "russian": 4264,
      "err": 4265,
      "mode": 4266,
      "span": 4267,
      "foundation": 4268,
      "characteristics": 4269,
      "hyper": 4270,
      "writ": 4271,
      "catch": 4272,
      "authors": 4273,
      "cham": 4274,
      "##icit": 4275,
      "##ii": 4276,
      "interests": 4277,
      "57": 4278,
      "##ta": 4279,
      "##erate": 4280,
      "##unk": 4281,
      "surgery": 4282,
      "panel": 4283,
      "##ondu": 4284,
      "gather": 4285,
      "southern": 4286,
      "decisions": 4287,
      "lived": 4288,
      "ol": 4289,
      "las": 4290,
      "):": 4291,
      "philosoph": 4292,
      "##olf": 4293,
      "les": 4294,
      "trip": 4295,
      "##ette": 4296,
      "signed": 4297,
      "##och": 4298,
      "occurred": 4299,
      "critic": 4300,
      "##osc": 4301,
      "purchase": 4302,
      "relates": 4303,
      "tempor": 4304,
      "##gl": 4305,
      "healthy": 4306,
      "##going": 4307,
      "medium": 4308,
      "client": 4309,
      "shared": 4310,
      "forced": 4311,
      "thomas": 4312,
      "causes": 4313,
      "tru": 4314,
      "prepared": 4315,
      "induc": 4316,
      "##osite": 4317,
      "nine": 4318,
      "documents": 4319,
      "smaller": 4320,
      "optical": 4321,
      "ton": 4322,
      "##istan": 4323,
      "##iverse": 4324,
      "explain": 4325,
      "hotel": 4326,
      "2002": 4327,
      "compens": 4328,
      "australia": 4329,
      "kore": 4330,
      "gal": 4331,
      "royal": 4332,
      "parent": 4333,
      "investment": 4334,
      "##30": 4335,
      "electronic": 4336,
      "moreover": 4337,
      "enforce": 4338,
      "pleas": 4339,
      "units": 4340,
      "hen": 4341,
      "##ographic": 4342,
      "iii": 4343,
      "correl": 4344,
      "commit": 4345,
      "##know": 4346,
      "combination": 4347,
      "reform": 4348,
      "iron": 4349,
      "tow": 4350,
      "tues": 4351,
      "##22": 4352,
      "lie": 4353,
      "engage": 4354,
      "##....": 4355,
      "granted": 4356,
      "situ": 4357,
      "incorpor": 4358,
      "traffic": 4359,
      "shap": 4360,
      "goals": 4361,
      "##sey": 4362,
      "directed": 4363,
      "symptoms": 4364,
      "gain": 4365,
      "tree": 4366,
      "willing": 4367,
      "exposure": 4368,
      "fans": 4369,
      "//": 4370,
      "extent": 4371,
      "##well": 4372,
      "resulting": 4373,
      "##hes": 4374,
      "discussed": 4375,
      "pil": 4376,
      "democratic": 4377,
      "isl": 4378,
      "photos": 4379,
      "estate": 4380,
      "din": 4381,
      "([@": 4382,
      "##ga": 4383,
      "couldn": 4384,
      "59": 4385,
      "customer": 4386,
      "##ula": 4387,
      "finish": 4388,
      "wat": 4389,
      "revolution": 4390,
      "annual": 4391,
      "resol": 4392,
      "selection": 4393,
      "react": 4394,
      "component": 4395,
      "afford": 4396,
      "knows": 4397,
      "sav": 4398,
      "introduced": 4399,
      "waiting": 4400,
      "mig": 4401,
      "ip": 4402,
      "maintain": 4403,
      "politics": 4404,
      "developing": 4405,
      "tissue": 4406,
      "properly": 4407,
      "virgin": 4408,
      "stood": 4409,
      "pu": 4410,
      "balance": 4411,
      "pin": 4412,
      "spend": 4413,
      "copy": 4414,
      "substantial": 4415,
      "reli": 4416,
      "##cular": 4417,
      "delivery": 4418,
      "fol": 4419,
      "##ria": 4420,
      "advanced": 4421,
      "germany": 4422,
      "thousands": 4423,
      "alco": 4424,
      "village": 4425,
      "technique": 4426,
      "centre": 4427,
      "charged": 4428,
      "##ales": 4429,
      "##cript": 4430,
      "agents": 4431,
      "extremely": 4432,
      "functions": 4433,
      "##roid": 4434,
      "tick": 4435,
      "tests": 4436,
      "attract": 4437,
      "66": 4438,
      "mouth": 4439,
      "reaction": 4440,
      "camera": 4441,
      "persons": 4442,
      "ring": 4443,
      "northern": 4444,
      "voltage": 4445,
      "chic": 4446,
      "column": 4447,
      "cart": 4448,
      "rose": 4449,
      "apple": 4450,
      "contains": 4451,
      "nom": 4452,
      "assessment": 4453,
      "##reh": 4454,
      "spok": 4455,
      "square": 4456,
      "remained": 4457,
      "remove": 4458,
      "distribut": 4459,
      "speaking": 4460,
      "vit": 4461,
      "##oes": 4462,
      "cooper": 4463,
      "gate": 4464,
      "##****": 4465,
      "##________________": 4466,
      "files": 4467,
      "incident": 4468,
      "laugh": 4469,
      "institute": 4470,
      "##orter": 4471,
      "##eters": 4472,
      "russia": 4473,
      "nations": 4474,
      "ped": 4475,
      "intelligence": 4476,
      "repeated": 4477,
      "##issions": 4478,
      "containing": 4479,
      "accordingly": 4480,
      "thurs": 4481,
      "recorded": 4482,
      "mostly": 4483,
      "##ship": 4484,
      "tuesday": 4485,
      "##rations": 4486,
      "##da": 4487,
      "technical": 4488,
      "fold": 4489,
      "muse": 4490,
      "minute": 4491,
      "budget": 4492,
      "##ologies": 4493,
      "gh": 4494,
      "concerns": 4495,
      "receiving": 4496,
      "owner": 4497,
      "marriage": 4498,
      "es": 4499,
      "conver": 4500,
      "tun": 4501,
      "objects": 4502,
      "richard": 4503,
      "##ulations": 4504,
      "entitled": 4505,
      "ordered": 4506,
      "pp": 4507,
      "seat": 4508,
      "##itely": 4509,
      "oblig": 4510,
      "stopped": 4511,
      "views": 4512,
      "]).": 4513,
      "articles": 4514,
      "jose": 4515,
      "tast": 4516,
      "##akers": 4517,
      "intent": 4518,
      "pra": 4519,
      "##ba": 4520,
      "baby": 4521,
      "attend": 4522,
      "stone": 4523,
      "rain": 4524,
      "dna": 4525,
      "mrs": 4526,
      "wednes": 4527,
      "importance": 4528,
      "pray": 4529,
      "editor": 4530,
      "scott": 4531,
      "##icted": 4532,
      "flex": 4533,
      "publish": 4534,
      "innov": 4535,
      "respectively": 4536,
      "driver": 4537,
      "bon": 4538,
      "lake": 4539,
      "##otyp": 4540,
      "##itors": 4541,
      "58": 4542,
      "##rig": 4543,
      "trib": 4544,
      "pac": 4545,
      "restaur": 4546,
      "elim": 4547,
      "jurisdiction": 4548,
      "prime": 4549,
      "##ented": 4550,
      "employment": 4551,
      "##ata": 4552,
      "##yer": 4553,
      "##25": 4554,
      "combined": 4555,
      "ended": 4556,
      "weak": 4557,
      "scientific": 4558,
      "literature": 4559,
      "neighbor": 4560,
      "##acter": 4561,
      "changing": 4562,
      "charges": 4563,
      "entry": 4564,
      "guess": 4565,
      "\")": 4566,
      "acknow": 4567,
      "##bing": 4568,
      "payment": 4569,
      "05": 4570,
      "seek": 4571,
      "license": 4572,
      "##ania": 4573,
      "funds": 4574,
      "wave": 4575,
      "carbon": 4576,
      "testified": 4577,
      "involve": 4578,
      "affected": 4579,
      "reduction": 4580,
      "professor": 4581,
      "efficient": 4582,
      "##cs": 4583,
      "##gu": 4584,
      "discovered": 4585,
      "joined": 4586,
      "nuclear": 4587,
      "beach": 4588,
      "mont": 4589,
      "pursu": 4590,
      "cultural": 4591,
      "flat": 4592,
      "##down": 4593,
      "amendment": 4594,
      "ru": 4595,
      "proof": 4596,
      "prices": 4597,
      "magaz": 4598,
      "vs": 4599,
      "policies": 4600,
      "saturday": 4601,
      "becoming": 4602,
      "##aves": 4603,
      "statements": 4604,
      "##key": 4605,
      "apprec": 4606,
      "expressed": 4607,
      "acts": 4608,
      "mun": 4609,
      "furthermore": 4610,
      "filled": 4611,
      "os": 4612,
      "##ston": 4613,
      "da": 4614,
      "isnt": 4615,
      "supposed": 4616,
      "thursday": 4617,
      "follows": 4618,
      "transmission": 4619,
      "fash": 4620,
      "##bid": 4621,
      "arrived": 4622,
      "##aper": 4623,
      "ray": 4624,
      "luck": 4625,
      "300": 4626,
      "partner": 4627,
      "louis": 4628,
      "finished": 4629,
      "memor": 4630,
      "##ki": 4631,
      "imposs": 4632,
      "wednesday": 4633,
      "draft": 4634,
      "marketing": 4635,
      "bright": 4636,
      "##ician": 4637,
      "snow": 4638,
      "##ya": 4639,
      "rod": 4640,
      "winter": 4641,
      "warrant": 4642,
      "ze": 4643,
      "##antic": 4644,
      "evening": 4645,
      "##za": 4646,
      "190": 4647,
      "resolution": 4648,
      "youth": 4649,
      "missing": 4650,
      "fro": 4651,
      "diet": 4652,
      "##iveness": 4653,
      "cryst": 4654,
      "kar": 4655,
      "committed": 4656,
      "claimed": 4657,
      "accident": 4658,
      "adding": 4659,
      "cities": 4660,
      "focused": 4661,
      "perspect": 4662,
      "ira": 4663,
      "sport": 4664,
      "republican": 4665,
      "advance": 4666,
      "communities": 4667,
      "arrange": 4668,
      "sole": 4669,
      "throw": 4670,
      "florida": 4671,
      "##irt": 4672,
      "propos": 4673,
      "married": 4674,
      "##oe": 4675,
      "dischar": 4676,
      "pages": 4677,
      "subjects": 4678,
      "numerous": 4679,
      "##uted": 4680,
      "',": 4681,
      "##oking": 4682,
      "##rap": 4683,
      "_the": 4684,
      "##rates": 4685,
      "warm": 4686,
      "entert": 4687,
      "##itz": 4688,
      "illeg": 4689,
      "mas": 4690,
      "remaining": 4691,
      "fer": 4692,
      "recording": 4693,
      "maximum": 4694,
      "##estic": 4695,
      "allowing": 4696,
      "capable": 4697,
      "african": 4698,
      "coverage": 4699,
      "##----------------------------------------------------------------": 4700,
      "63": 4701,
      "prospect": 4702,
      "occur": 4703,
      "pregn": 4704,
      "border": 4705,
      "67": 4706,
      "synth": 4707,
      "penn": 4708,
      "subsc": 4709,
      "##24": 4710,
      "sitting": 4711,
      "intervention": 4712,
      "instant": 4713,
      "excellent": 4714,
      "update": 4715,
      "divided": 4716,
      "fan": 4717,
      "ine": 4718,
      "guar": 4719,
      "challenges": 4720,
      "vision": 4721,
      "##ka": 4722,
      "functional": 4723,
      "discrim": 4724,
      "##enth": 4725,
      "pictures": 4726,
      "belong": 4727,
      "##23": 4728,
      "##hab": 4729,
      "fashion": 4730,
      "##ooth": 4731,
      "competition": 4732,
      "forg": 4733,
      "concerned": 4734,
      "iran": 4735,
      "entirely": 4736,
      "destroy": 4737,
      "carol": 4738,
      "##imately": 4739,
      "##ears": 4740,
      "database": 4741,
      "##my": 4742,
      "plants": 4743,
      "##retion": 4744,
      "experienced": 4745,
      "breast": 4746,
      "employee": 4747,
      "##reek": 4748,
      "##aded": 4749,
      "unfortun": 4750,
      "severe": 4751,
      "keeping": 4752,
      "excess": 4753,
      "fest": 4754,
      "secure": 4755,
      "kh": 4756,
      "examples": 4757,
      "managed": 4758,
      "africa": 4759,
      "museum": 4760,
      "corner": 4761,
      "aid": 4762,
      "contem": 4763,
      "advice": 4764,
      "##ingly": 4765,
      "##vin": 4766,
      "underst": 4767,
      "truly": 4768,
      "existence": 4769,
      "therm": 4770,
      "sin": 4771,
      "##ront": 4772,
      "prep": 4773,
      "##isation": 4774,
      "los": 4775,
      "asking": 4776,
      "fees": 4777,
      "jump": 4778,
      "sar": 4779,
      "weather": 4780,
      "regions": 4781,
      "medicine": 4782,
      "85": 4783,
      "obtain": 4784,
      "johnson": 4785,
      "ic": 4786,
      "possibility": 4787,
      "behavi": 4788,
      "fant": 4789,
      "##ication": 4790,
      "##ien": 4791,
      "##anging": 4792,
      "##osen": 4793,
      "1999": 4794,
      "generated": 4795,
      "parl": 4796,
      "seeking": 4797,
      "prove": 4798,
      "pm": 4799,
      "##illed": 4800,
      "negot": 4801,
      "native": 4802,
      "guil": 4803,
      "consistent": 4804,
      "identity": 4805,
      "lose": 4806,
      "##aked": 4807,
      "symb": 4808,
      "##ours": 4809,
      "organizations": 4810,
      "signals": 4811,
      "##oster": 4812,
      "guarant": 4813,
      "##elines": 4814,
      "##box": 4815,
      "##ona": 4816,
      "peter": 4817,
      "perman": 4818,
      "theyre": 4819,
      "flight": 4820,
      "responsibility": 4821,
      "##greg": 4822,
      "structures": 4823,
      "antib": 4824,
      "shock": 4825,
      "jesus": 4826,
      "diam": 4827,
      "##ota": 4828,
      "trail": 4829,
      "increases": 4830,
      "emergency": 4831,
      "muslim": 4832,
      "ken": 4833,
      "outcome": 4834,
      "calling": 4835,
      "bear": 4836,
      "alcohol": 4837,
      "##ception": 4838,
      "guys": 4839,
      "sky": 4840,
      "determination": 4841,
      "nov": 4842,
      "diagnosis": 4843,
      "listen": 4844,
      "slightly": 4845,
      "minimum": 4846,
      "coff": 4847,
      "stick": 4848,
      "bath": 4849,
      "worse": 4850,
      "scan": 4851,
      "practices": 4852,
      "attacks": 4853,
      "chicago": 4854,
      "bell": 4855,
      "profile": 4856,
      "formation": 4857,
      "watching": 4858,
      "quiet": 4859,
      "##rel": 4860,
      "bridge": 4861,
      "row": 4862,
      "crisis": 4863,
      "favorite": 4864,
      "label": 4865,
      "##ilit": 4866,
      "funding": 4867,
      "easier": 4868,
      "exclus": 4869,
      "pad": 4870,
      "impossible": 4871,
      "multi": 4872,
      "cere": 4873,
      "##gs": 4874,
      "accompl": 4875,
      "##ander": 4876,
      "indicated": 4877,
      "conversation": 4878,
      "##teen": 4879,
      "highlight": 4880,
      "rein": 4881,
      "senate": 4882,
      "appearance": 4883,
      "continues": 4884,
      "sought": 4885,
      "cars": 4886,
      "##---": 4887,
      "profit": 4888,
      "mit": 4889,
      "##comes": 4890,
      "loved": 4891,
      "fluid": 4892,
      "substrate": 4893,
      "##ml": 4894,
      "ram": 4895,
      "silver": 4896,
      "##ns": 4897,
      "possibly": 4898,
      "championship": 4899,
      "solutions": 4900,
      "pitch": 4901,
      "happens": 4902,
      "dial": 4903,
      "posted": 4904,
      "pool": 4905,
      "remind": 4906,
      "##mark": 4907,
      "sides": 4908,
      "francis": 4909,
      "orders": 4910,
      "##mas": 4911,
      "matters": 4912,
      "apparently": 4913,
      "69": 4914,
      "guilty": 4915,
      "##iary": 4916,
      "inject": 4917,
      "residents": 4918,
      "##zen": 4919,
      "##ocy": 4920,
      "unp": 4921,
      "waste": 4922,
      "##oked": 4923,
      "74": 4924,
      "measured": 4925,
      "thoughts": 4926,
      "wear": 4927,
      "raise": 4928,
      "defe": 4929,
      "orient": 4930,
      "##ancing": 4931,
      "confirmed": 4932,
      "##kins": 4933,
      "anx": 4934,
      "##inating": 4935,
      "pure": 4936,
      "clim": 4937,
      "##ipping": 4938,
      "wheel": 4939,
      "decide": 4940,
      "##iform": 4941,
      "##tic": 4942,
      "spoke": 4943,
      "merely": 4944,
      "shad": 4945,
      "frequently": 4946,
      "publication": 4947,
      "84": 4948,
      "collabor": 4949,
      "corporation": 4950,
      "industrial": 4951,
      "depend": 4952,
      "caught": 4953,
      "biggest": 4954,
      "seed": 4955,
      "fields": 4956,
      "##dy": 4957,
      "corp": 4958,
      "chronic": 4959,
      "contained": 4960,
      "thro": 4961,
      "historical": 4962,
      "##ched": 4963,
      "argues": 4964,
      "rough": 4965,
      "suggests": 4966,
      "##orders": 4967,
      "researchers": 4968,
      "alt": 4969,
      "bone": 4970,
      "chain": 4971,
      "##inations": 4972,
      "walking": 4973,
      "leads": 4974,
      "route": 4975,
      "latter": 4976,
      "77": 4977,
      "1998": 4978,
      "possess": 4979,
      "pharm": 4980,
      "##do": 4981,
      "charles": 4982,
      "boys": 4983,
      "recovery": 4984,
      "fly": 4985,
      "sweet": 4986,
      "##time": 4987,
      "provision": 4988,
      "##lets": 4989,
      "trig": 4990,
      "68": 4991,
      "alleg": 4992,
      "?'": 4993,
      "distinct": 4994,
      "##igation": 4995,
      "independ": 4996,
      "tight": 4997,
      "supporting": 4998,
      "imagine": 4999,
      "considering": 5000,
      "familiar": 5001,
      "withd": 5002,
      "leadership": 5003,
      "insert": 5004,
      "fighting": 5005,
      "protocol": 5006,
      "coal": 5007,
      "admitted": 5008,
      "flag": 5009,
      "intention": 5010,
      "thor": 5011,
      "flash": 5012,
      "##wide": 5013,
      "newsp": 5014,
      "desire": 5015,
      "##ker": 5016,
      "paral": 5017,
      "recall": 5018,
      "eastern": 5019,
      "gradu": 5020,
      "76": 5021,
      "dress": 5022,
      "tag": 5023,
      "coord": 5024,
      "discretion": 5025,
      "imper": 5026,
      "broken": 5027,
      "criter": 5028,
      "employed": 5029,
      "pieces": 5030,
      "recognized": 5031,
      "classes": 5032,
      "##inent": 5033,
      "shop": 5034,
      "thread": 5035,
      "experiences": 5036,
      "ba": 5037,
      "patterns": 5038,
      "accepted": 5039,
      "clar": 5040,
      "unable": 5041,
      "##ano": 5042,
      "religion": 5043,
      "homes": 5044,
      "jones": 5045,
      "photograph": 5046,
      "##hy": 5047,
      "parliam": 5048,
      "magnetic": 5049,
      "wouldn": 5050,
      "kick": 5051,
      "procedures": 5052,
      "handle": 5053,
      "##vis": 5054,
      "samples": 5055,
      "infection": 5056,
      "owned": 5057,
      "##utely": 5058,
      "97": 5059,
      "adequ": 5060,
      "##ado": 5061,
      "decades": 5062,
      "'.": 5063,
      "authorities": 5064,
      "hem": 5065,
      "assistance": 5066,
      "winning": 5067,
      "clients": 5068,
      "penal": 5069,
      "canc": 5070,
      "occasion": 5071,
      "electrical": 5072,
      "subsequent": 5073,
      "alg": 5074,
      "induced": 5075,
      "sister": 5076,
      "secondary": 5077,
      "audience": 5078,
      "veter": 5079,
      "1996": 5080,
      "dangerous": 5081,
      "73": 5082,
      "hypoth": 5083,
      "ultimately": 5084,
      "obvious": 5085,
      "wealth": 5086,
      "##roph": 5087,
      "honest": 5088,
      "mountain": 5089,
      "iraq": 5090,
      "ratio": 5091,
      "nurs": 5092,
      "originally": 5093,
      "damages": 5094,
      "atl": 5095,
      "##view": 5096,
      "profession": 5097,
      "189": 5098,
      "copyr": 5099,
      "superior": 5100,
      "##inet": 5101,
      "narrow": 5102,
      "anth": 5103,
      "dar": 5104,
      "trees": 5105,
      "##oned": 5106,
      "lady": 5107,
      "clint": 5108,
      "explan": 5109,
      "##ager": 5110,
      "comparison": 5111,
      "rene": 5112,
      "runs": 5113,
      "script": 5114,
      "definitely": 5115,
      "##amin": 5116,
      "networks": 5117,
      "1997": 5118,
      "##house": 5119,
      "sounds": 5120,
      "vacc": 5121,
      "jim": 5122,
      "burden": 5123,
      "driven": 5124,
      "##orters": 5125,
      "understood": 5126,
      "..": 5127,
      "forest": 5128,
      "stream": 5129,
      "offense": 5130,
      "desired": 5131,
      "sets": 5132,
      "thereby": 5133,
      "encoun": 5134,
      "steel": 5135,
      "cycle": 5136,
      "definition": 5137,
      "confidence": 5138,
      "cogn": 5139,
      "honor": 5140,
      "approved": 5141,
      "pd": 5142,
      "studied": 5143,
      "leaves": 5144,
      "mine": 5145,
      "depth": 5146,
      "examination": 5147,
      "evaluation": 5148,
      "noise": 5149,
      "exception": 5150,
      "##itis": 5151,
      "diab": 5152,
      "concluded": 5153,
      "parliament": 5154,
      "##point": 5155,
      "inqu": 5156,
      "extended": 5157,
      "relationships": 5158,
      "....": 5159,
      "lee": 5160,
      "argued": 5161,
      "businesses": 5162,
      "##omp": 5163,
      "ital": 5164,
      "horse": 5165,
      "mm": 5166,
      "buildings": 5167,
      "helps": 5168,
      "na": 5169,
      "absor": 5170,
      "suddenly": 5171,
      "inner": 5172,
      "##raw": 5173,
      "appelle": 5174,
      "##icial": 5175,
      "##while": 5176,
      "78": 5177,
      "##27": 5178,
      "putting": 5179,
      "##ulf": 5180,
      "spending": 5181,
      "session": 5182,
      "##26": 5183,
      "diseases": 5184,
      "cloud": 5185,
      "fraud": 5186,
      "##iot": 5187,
      "schol": 5188,
      "##================": 5189,
      "bol": 5190,
      "vess": 5191,
      "sequence": 5192,
      "##see": 5193,
      "linked": 5194,
      "regulation": 5195,
      "captain": 5196,
      "typical": 5197,
      "advent": 5198,
      "ven": 5199,
      "elev": 5200,
      "humans": 5201,
      "lets": 5202,
      "##iest": 5203,
      "intel": 5204,
      "aspects": 5205,
      "stars": 5206,
      "##abilities": 5207,
      "expensive": 5208,
      "paris": 5209,
      "absence": 5210,
      "opportunities": 5211,
      "motiv": 5212,
      "writer": 5213,
      "evolution": 5214,
      "obviously": 5215,
      "##ux": 5216,
      "ash": 5217,
      "garden": 5218,
      "empt": 5219,
      "copyright": 5220,
      "listed": 5221,
      "pulled": 5222,
      "amazing": 5223,
      "##uits": 5224,
      "institution": 5225,
      "martin": 5226,
      "arab": 5227,
      "advoc": 5228,
      "ta": 5229,
      "breath": 5230,
      "##fe": 5231,
      "assault": 5232,
      "##agon": 5233,
      "regional": 5234,
      "indicate": 5235,
      "walked": 5236,
      "depending": 5237,
      "gender": 5238,
      "luc": 5239,
      "candidate": 5240,
      "schedul": 5241,
      "storm": 5242,
      "describe": 5243,
      "##osh": 5244,
      "experiment": 5245,
      "##uls": 5246,
      "1995": 5247,
      "weapons": 5248,
      "stret": 5249,
      "infr": 5250,
      "rare": 5251,
      "violation": 5252,
      "##ulating": 5253,
      "demonstrated": 5254,
      "canadian": 5255,
      "##what": 5256,
      "outcomes": 5257,
      "telling": 5258,
      "earn": 5259,
      "cards": 5260,
      "initi": 5261,
      "plastic": 5262,
      "fellow": 5263,
      "package": 5264,
      "##roll": 5265,
      "detection": 5266,
      "positions": 5267,
      "##anda": 5268,
      "01": 5269,
      "revers": 5270,
      "##tes": 5271,
      "conscious": 5272,
      "attached": 5273,
      "arbit": 5274,
      "##cks": 5275,
      "##road": 5276,
      "##21": 5277,
      "recru": 5278,
      "dependent": 5279,
      "height": 5280,
      "buff": 5281,
      "accompan": 5282,
      "advis": 5283,
      "liver": 5284,
      "remov": 5285,
      "##ocket": 5286,
      "episode": 5287,
      "represented": 5288,
      "valley": 5289,
      "hung": 5290,
      "introduction": 5291,
      "interact": 5292,
      "##rine": 5293,
      "cod": 5294,
      "egg": 5295,
      "##nam": 5296,
      "haw": 5297,
      "87": 5298,
      "96": 5299,
      "depos": 5300,
      "debate": 5301,
      "famous": 5302,
      "79": 5303,
      "##rian": 5304,
      "##ensions": 5305,
      "gent": 5306,
      "estimated": 5307,
      "teaching": 5308,
      "ancient": 5309,
      "vehicles": 5310,
      "ow": 5311,
      "186": 5312,
      "88": 5313,
      "##ushing": 5314,
      "shel": 5315,
      "neck": 5316,
      "kitch": 5317,
      "86": 5318,
      "chamber": 5319,
      "knowing": 5320,
      "responses": 5321,
      "##bour": 5322,
      "dollars": 5323,
      "shift": 5324,
      "informed": 5325,
      "letters": 5326,
      "usa": 5327,
      "inher": 5328,
      "##burg": 5329,
      "yell": 5330,
      "ends": 5331,
      "##entions": 5332,
      "##zed": 5333,
      "recip": 5334,
      "filter": 5335,
      "jewish": 5336,
      "41": 5337,
      "03": 5338,
      "##wr": 5339,
      "1994": 5340,
      "signs": 5341,
      "plays": 5342,
      "accounts": 5343,
      "##ray": 5344,
      "##erning": 5345,
      "mexico": 5346,
      "statist": 5347,
      "communications": 5348,
      "emotional": 5349,
      "##~~": 5350,
      "jeff": 5351,
      "adults": 5352,
      "welcome": 5353,
      "banks": 5354,
      "##umps": 5355,
      "household": 5356,
      "##word": 5357,
      "##enance": 5358,
      "supplement": 5359,
      "salt": 5360,
      "##rees": 5361,
      "##ario": 5362,
      "consideration": 5363,
      "plain": 5364,
      "##aph": 5365,
      "max": 5366,
      "journey": 5367,
      "detailed": 5368,
      "principles": 5369,
      "domin": 5370,
      "improvement": 5371,
      "intra": 5372,
      "repair": 5373,
      "opposite": 5374,
      "eld": 5375,
      "sheet": 5376,
      "binding": 5377,
      "crew": 5378,
      "oce": 5379,
      "##known": 5380,
      "lots": 5381,
      "absolutely": 5382,
      "neut": 5383,
      "delivered": 5384,
      "terr": 5385,
      "virginia": 5386,
      "semic": 5387,
      "83": 5388,
      "compreh": 5389,
      "##2x": 5390,
      "twice": 5391,
      "uniform": 5392,
      "##how": 5393,
      "subs": 5394,
      "figures": 5395,
      "acting": 5396,
      "conviction": 5397,
      "controls": 5398,
      "ohio": 5399,
      "genes": 5400,
      "facilities": 5401,
      "hundreds": 5402,
      "##29": 5403,
      "##ascular": 5404,
      "urban": 5405,
      "tenn": 5406,
      "##usal": 5407,
      "thousand": 5408,
      "##asp": 5409,
      "powers": 5410,
      "petitioner": 5411,
      "vul": 5412,
      "collected": 5413,
      "default": 5414,
      "zone": 5415,
      "moral": 5416,
      "##illing": 5417,
      "yield": 5418,
      "interface": 5419,
      "soul": 5420,
      "##ading": 5421,
      "aircraft": 5422,
      "rig": 5423,
      "turning": 5424,
      "forum": 5425,
      "prol": 5426,
      "bio": 5427,
      "jun": 5428,
      "##pass": 5429,
      "bomb": 5430,
      "bid": 5431,
      "rend": 5432,
      "89": 5433,
      "whereas": 5434,
      "exists": 5435,
      "lip": 5436,
      "larg": 5437,
      "resident": 5438,
      "shif": 5439,
      "wing": 5440,
      "corporate": 5441,
      "discovery": 5442,
      "##bre": 5443,
      "walls": 5444,
      "planned": 5445,
      "privacy": 5446,
      "trouble": 5447,
      "coupl": 5448,
      "##ih": 5449,
      "atm": 5450,
      "survival": 5451,
      "sight": 5452,
      "04": 5453,
      "bodies": 5454,
      "slowly": 5455,
      "efficiency": 5456,
      "ble": 5457,
      "##rison": 5458,
      "transition": 5459,
      "weekend": 5460,
      "neuro": 5461,
      "achieved": 5462,
      "cm": 5463,
      "henry": 5464,
      "clock": 5465,
      "williams": 5466,
      "94": 5467,
      "practical": 5468,
      "initially": 5469,
      "remark": 5470,
      "enforcement": 5471,
      "ampl": 5472,
      "engineering": 5473,
      "liability": 5474,
      "forget": 5475,
      "largely": 5476,
      "instrument": 5477,
      "furn": 5478,
      "protected": 5479,
      "magazine": 5480,
      "##isher": 5481,
      "greatest": 5482,
      "corresponding": 5483,
      "divers": 5484,
      "constitutional": 5485,
      "##jud": 5486,
      "nic": 5487,
      "exposed": 5488,
      "perspective": 5489,
      "smooth": 5490,
      "hero": 5491,
      "##stream": 5492,
      "##cr": 5493,
      "ht": 5494,
      "tested": 5495,
      "concerning": 5496,
      "##pm": 5497,
      "guidelines": 5498,
      "arts": 5499,
      "experts": 5500,
      "wound": 5501,
      "widely": 5502,
      "battery": 5503,
      "scar": 5504,
      "fifth": 5505,
      "sum": 5506,
      "##che": 5507,
      "facility": 5508,
      "genetic": 5509,
      "tab": 5510,
      "alter": 5511,
      "ry": 5512,
      "tumor": 5513,
      "domestic": 5514,
      "##uing": 5515,
      "incred": 5516,
      "effectively": 5517,
      "exclud": 5518,
      "arrest": 5519,
      "offering": 5520,
      "oly": 5521,
      "objective": 5522,
      "##icious": 5523,
      "##sa": 5524,
      "unfortunately": 5525,
      "1993": 5526,
      "domain": 5527,
      "creation": 5528,
      "helping": 5529,
      "##itable": 5530,
      "##anta": 5531,
      "distingu": 5532,
      "contro": 5533,
      "prohib": 5534,
      "necessarily": 5535,
      "soldiers": 5536,
      "manufacturing": 5537,
      "root": 5538,
      "##care": 5539,
      "vary": 5540,
      "chart": 5541,
      "frag": 5542,
      "defect": 5543,
      "##iac": 5544,
      "enhance": 5545,
      "1992": 5546,
      "dram": 5547,
      "libert": 5548,
      "stro": 5549,
      "consent": 5550,
      "massive": 5551,
      "concentration": 5552,
      "sharing": 5553,
      "deaths": 5554,
      "semicondu": 5555,
      "sick": 5556,
      "commonly": 5557,
      "array": 5558,
      "##28": 5559,
      "##exp": 5560,
      "integrated": 5561,
      "unknown": 5562,
      "##omic": 5563,
      "tas": 5564,
      "1990": 5565,
      "olymp": 5566,
      "jav": 5567,
      "##state": 5568,
      "aside": 5569,
      "proceedings": 5570,
      "depression": 5571,
      "consumer": 5572,
      "tail": 5573,
      "sector": 5574,
      "metab": 5575,
      "pone": 5576,
      "150": 5577,
      "button": 5578,
      "presc": 5579,
      "##ansion": 5580,
      "ideal": 5581,
      "governor": 5582,
      "ah": 5583,
      "selling": 5584,
      "ga": 5585,
      "jul": 5586,
      "proteins": 5587,
      "##pa": 5588,
      "ari": 5589,
      "93": 5590,
      "markets": 5591,
      "##ogue": 5592,
      "paralle": 5593,
      "oral": 5594,
      "mixed": 5595,
      "mechanisms": 5596,
      "creative": 5597,
      "98": 5598,
      "australian": 5599,
      "##isters": 5600,
      "##edy": 5601,
      "fabric": 5602,
      "gri": 5603,
      "regulations": 5604,
      "synd": 5605,
      "victims": 5606,
      "##coming": 5607,
      "bush": 5608,
      "##athy": 5609,
      "vice": 5610,
      "coffee": 5611,
      "##igan": 5612,
      "manif": 5613,
      "artist": 5614,
      "400": 5615,
      "pip": 5616,
      "submitted": 5617,
      "surf": 5618,
      "planet": 5619,
      "strategies": 5620,
      "reviews": 5621,
      "donald": 5622,
      "##uous": 5623,
      "##aks": 5624,
      "sus": 5625,
      "##ishing": 5626,
      "blind": 5627,
      "unlike": 5628,
      "opposition": 5629,
      "monitoring": 5630,
      "##icate": 5631,
      "passing": 5632,
      "shooting": 5633,
      "posts": 5634,
      "protest": 5635,
      "coc": 5636,
      "bacter": 5637,
      "strike": 5638,
      "parameters": 5639,
      "enemy": 5640,
      "bob": 5641,
      "conven": 5642,
      "closer": 5643,
      "kitchen": 5644,
      "sustain": 5645,
      "grade": 5646,
      "songs": 5647,
      "controvers": 5648,
      "limitations": 5649,
      "##kes": 5650,
      "bought": 5651,
      "houses": 5652,
      "illegal": 5653,
      "retail": 5654,
      "involving": 5655,
      "worry": 5656,
      "pump": 5657,
      "##rad": 5658,
      "obst": 5659,
      "##gets": 5660,
      "fox": 5661,
      "muscle": 5662,
      "simpl": 5663,
      "##ache": 5664,
      "turns": 5665,
      "##isted": 5666,
      "agric": 5667,
      "prin": 5668,
      "loan": 5669,
      "##rain": 5670,
      "tough": 5671,
      "abst": 5672,
      "plas": 5673,
      "##gged": 5674,
      "rear": 5675,
      "phenom": 5676,
      "requirement": 5677,
      "plane": 5678,
      "implementation": 5679,
      "pursuant": 5680,
      "hence": 5681,
      "conservative": 5682,
      "institutions": 5683,
      "instructions": 5684,
      "teacher": 5685,
      "##uct": 5686,
      "criteria": 5687,
      "voc": 5688,
      "wont": 5689,
      "clinton": 5690,
      "calc": 5691,
      "usual": 5692,
      "facilit": 5693,
      "##itud": 5694,
      "##irable": 5695,
      "##stein": 5696,
      "##rum": 5697,
      "virtual": 5698,
      "##igen": 5699,
      "pointed": 5700,
      "edition": 5701,
      "serving": 5702,
      "eating": 5703,
      "resource": 5704,
      "conce": 5705,
      "density": 5706,
      "recommended": 5707,
      "terminal": 5708,
      "governments": 5709,
      "entertain": 5710,
      "##orith": 5711,
      "refused": 5712,
      "era": 5713,
      "drawn": 5714,
      "victor": 5715,
      "scientists": 5716,
      "friendly": 5717,
      "assistant": 5718,
      "##rants": 5719,
      "fee": 5720,
      "hiv": 5721,
      "forming": 5722,
      "https": 5723,
      "roman": 5724,
      "sensitive": 5725,
      "zero": 5726,
      "laid": 5727,
      "##oration": 5728,
      "gaz": 5729,
      "aftern": 5730,
      "additionally": 5731,
      "suitable": 5732,
      "drag": 5733,
      "grew": 5734,
      "liberal": 5735,
      "merc": 5736,
      "molecular": 5737,
      "hole": 5738,
      "worst": 5739,
      "##cles": 5740,
      "surve": 5741,
      "victory": 5742,
      "reporting": 5743,
      "agricult": 5744,
      "algorith": 5745,
      "align": 5746,
      "organic": 5747,
      "principle": 5748,
      "technologies": 5749,
      "##urally": 5750,
      "theat": 5751,
      "symbol": 5752,
      "papers": 5753,
      "hid": 5754,
      "rely": 5755,
      "##ras": 5756,
      "wasnt": 5757,
      "administrative": 5758,
      "cu": 5759,
      "teachers": 5760,
      "kingdom": 5761,
      "thirty": 5762,
      "gay": 5763,
      "potentially": 5764,
      "1991": 5765,
      "imaging": 5766,
      "##rating": 5767,
      "cav": 5768,
      "engaged": 5769,
      "-----------------": 5770,
      "preced": 5771,
      "##neys": 5772,
      "extract": 5773,
      "sha": 5774,
      "crash": 5775,
      "##haust": 5776,
      "mos": 5777,
      "alph": 5778,
      "branch": 5779,
      "##aneous": 5780,
      "occurs": 5781,
      "craft": 5782,
      "##unte": 5783,
      "##ket": 5784,
      "perce": 5785,
      "tort": 5786,
      "dropped": 5787,
      "vast": 5788,
      "semiconductor": 5789,
      "twe": 5790,
      "joy": 5791,
      "format": 5792,
      "##abled": 5793,
      "scheme": 5794,
      "188": 5795,
      "##ifications": 5796,
      "##amental": 5797,
      "injuries": 5798,
      "causing": 5799,
      "realized": 5800,
      "underlying": 5801,
      "moon": 5802,
      "audio": 5803,
      "athlet": 5804,
      "##kin": 5805,
      "##standing": 5806,
      "increasingly": 5807,
      "adopt": 5808,
      "democrats": 5809,
      "limits": 5810,
      "ny": 5811,
      "volunte": 5812,
      "##rog": 5813,
      "aband": 5814,
      "##atures": 5815,
      "suspect": 5816,
      "deploy": 5817,
      "christmas": 5818,
      "stem": 5819,
      "51": 5820,
      "##rage": 5821,
      "accurate": 5822,
      "labour": 5823,
      "##bal": 5824,
      "##ructure": 5825,
      "stored": 5826,
      "primarily": 5827,
      "truck": 5828,
      "clust": 5829,
      "angeles": 5830,
      "steph": 5831,
      "crowd": 5832,
      "academic": 5833,
      "revenue": 5834,
      "carrying": 5835,
      "somewhat": 5836,
      "##icul": 5837,
      "yellow": 5838,
      "##rome": 5839,
      "##utor": 5840,
      "##": 5841,
      "immediate": 5842,
      "##iety": 5843,
      "passeng": 5844,
      "bankrupt": 5845,
      "stack": 5846,
      "##uable": 5847,
      "consequences": 5848,
      "passion": 5849,
      "elected": 5850,
      "120": 5851,
      "##-----": 5852,
      "supra": 5853,
      "dc": 5854,
      "confirm": 5855,
      "187": 5856,
      "virus": 5857,
      "anyway": 5858,
      "cos": 5859,
      "interpretation": 5860,
      "electron": 5861,
      "##iences": 5862,
      "possession": 5863,
      "##etes": 5864,
      "veget": 5865,
      "\\'": 5866,
      "##inity": 5867,
      "habit": 5868,
      "infect": 5869,
      "fundamental": 5870,
      "broadcast": 5871,
      "artists": 5872,
      "goods": 5873,
      "09": 5874,
      "charl": 5875,
      "trials": 5876,
      "##gers": 5877,
      "relation": 5878,
      "britain": 5879,
      "exhaust": 5880,
      "tells": 5881,
      "uncle": 5882,
      "removal": 5883,
      "##rid": 5884,
      "##lands": 5885,
      "bringing": 5886,
      "enterpr": 5887,
      "##chem": 5888,
      "reducing": 5889,
      "solar": 5890,
      "strange": 5891,
      "##acle": 5892,
      "renew": 5893,
      "argue": 5894,
      "##ressive": 5895,
      "vert": 5896,
      "cutting": 5897,
      "seconds": 5898,
      "presum": 5899,
      "represents": 5900,
      "desk": 5901,
      "##soft": 5902,
      "maintenance": 5903,
      "bat": 5904,
      "harv": 5905,
      "afternoon": 5906,
      "arrested": 5907,
      "sugar": 5908,
      "chosen": 5909,
      "messages": 5910,
      "readers": 5911,
      "##rible": 5912,
      "millions": 5913,
      "candidates": 5914,
      "instruction": 5915,
      "similarly": 5916,
      "mike": 5917,
      "principal": 5918,
      "wonderful": 5919,
      "suffered": 5920,
      "brows": 5921,
      "dow": 5922,
      "##ada": 5923,
      "catholic": 5924,
      "##umin": 5925,
      "affairs": 5926,
      "manufactur": 5927,
      "representative": 5928,
      "regardless": 5929,
      "##uce": 5930,
      "##arks": 5931,
      "interaction": 5932,
      "paying": 5933,
      "marked": 5934,
      "##ola": 5935,
      "schedule": 5936,
      "ourselves": 5937,
      "mainly": 5938,
      "resulted": 5939,
      "attempts": 5940,
      "##ses": 5941,
      "instruct": 5942,
      "determining": 5943,
      "permanent": 5944,
      "subt": 5945,
      "dogs": 5946,
      "youll": 5947,
      "composition": 5948,
      "joseph": 5949,
      "exceed": 5950,
      "derived": 5951,
      "sher": 5952,
      "classic": 5953,
      "oxy": 5954,
      "prejud": 5955,
      "##rect": 5956,
      "##ypt": 5957,
      "bost": 5958,
      "approaches": 5959,
      "nick": 5960,
      "consumption": 5961,
      "infer": 5962,
      "nod": 5963,
      "mechanical": 5964,
      "compensation": 5965,
      "launched": 5966,
      "08": 5967,
      "crack": 5968,
      "embod": 5969,
      "fo": 5970,
      "streets": 5971,
      "##orted": 5972,
      "provisions": 5973,
      "##rete": 5974,
      "horiz": 5975,
      "succeed": 5976,
      "adopted": 5977,
      "wine": 5978,
      "nas": 5979,
      "boat": 5980,
      "degrees": 5981,
      "variable": 5982,
      "framework": 5983,
      "surrounding": 5984,
      "##pet": 5985,
      "percentage": 5986,
      "conclude": 5987,
      "##nic": 5988,
      "evil": 5989,
      "recognition": 5990,
      "ruling": 5991,
      "nan": 5992,
      "examined": 5993,
      "##),": 5994,
      "neur": 5995,
      "##esth": 5996,
      "tall": 5997,
      "##va": 5998,
      "starts": 5999,
      "##lines": 6000,
      "sorry": 6001,
      "georg": 6002,
      "younger": 6003,
      "columb": 6004,
      "android": 6005,
      "watched": 6006,
      "##cin": 6007,
      "membr": 6008,
      "##icide": 6009,
      "taxes": 6010,
      "##40": 6011,
      "1989": 6012,
      "enable": 6013,
      "jr": 6014,
      "dad": 6015,
      "arguments": 6016,
      "07": 6017,
      "##uge": 6018,
      "##outs": 6019,
      "##ura": 6020,
      "spons": 6021,
      "queen": 6022,
      "faster": 6023,
      "tap": 6024,
      "pak": 6025,
      "theor": 6026,
      "laser": 6027,
      "dinner": 6028,
      "answers": 6029,
      "ride": 6030,
      "surprise": 6031,
      "carolina": 6032,
      "cort": 6033,
      "voters": 6034,
      "scot": 6035,
      "surgical": 6036,
      "grounds": 6037,
      "studio": 6038,
      "founded": 6039,
      "educational": 6040,
      "remote": 6041,
      "noticed": 6042,
      "toler": 6043,
      "identification": 6044,
      "1983": 6045,
      "assigned": 6046,
      "accused": 6047,
      "##oly": 6048,
      "spanish": 6049,
      "hat": 6050,
      "##ommod": 6051,
      "prompt": 6052,
      "##racy": 6053,
      "feels": 6054,
      "egypt": 6055,
      "sensor": 6056,
      "##ella": 6057,
      "assume": 6058,
      "##ighter": 6059,
      "plur": 6060,
      "cann": 6061,
      "affirm": 6062,
      "confident": 6063,
      "partnership": 6064,
      "settlement": 6065,
      "vib": 6066,
      "##ita": 6067,
      "trigger": 6068,
      "##don": 6069,
      "bull": 6070,
      "realize": 6071,
      "diff": 6072,
      "accommod": 6073,
      "feedback": 6074,
      "philosophy": 6075,
      "gap": 6076,
      "##erves": 6077,
      "seriously": 6078,
      "finds": 6079,
      "jackson": 6080,
      "assets": 6081,
      "promote": 6082,
      "##e2x": 6083,
      "ly": 6084,
      "essentially": 6085,
      "aggress": 6086,
      "biological": 6087,
      "%,": 6088,
      "facing": 6089,
      "closely": 6090,
      "escape": 6091,
      "##place": 6092,
      "chick": 6093,
      "##lers": 6094,
      "##agues": 6095,
      "dear": 6096,
      "empty": 6097,
      "replaced": 6098,
      "emphasis": 6099,
      "sharp": 6100,
      "locations": 6101,
      "parallel": 6102,
      "hind": 6103,
      "##ateral": 6104,
      "normally": 6105,
      "settings": 6106,
      "cub": 6107,
      "ocean": 6108,
      "equival": 6109,
      "applicable": 6110,
      ".]": 6111,
      "illness": 6112,
      "ell": 6113,
      "joe": 6114,
      "magic": 6115,
      "hate": 6116,
      "weve": 6117,
      "producing": 6118,
      "dun": 6119,
      "gear": 6120,
      "##attle": 6121,
      "dose": 6122,
      "06": 6123,
      "amounts": 6124,
      "ment": 6125,
      "cruc": 6126,
      "ire": 6127,
      "invas": 6128,
      "gift": 6129,
      "legislation": 6130,
      "hurt": 6131,
      "stable": 6132,
      "deput": 6133,
      "##yth": 6134,
      "italian": 6135,
      "topic": 6136,
      "neighborhood": 6137,
      "suffering": 6138,
      "1988": 6139,
      "beauty": 6140,
      "lung": 6141,
      "tan": 6142,
      "asc": 6143,
      "generate": 6144,
      "plenty": 6145,
      "jon": 6146,
      "wearing": 6147,
      "wis": 6148,
      "sensit": 6149,
      "decade": 6150,
      "preferred": 6151,
      "dedicated": 6152,
      "intellect": 6153,
      "formal": 6154,
      "##raction": 6155,
      "phosph": 6156,
      "##pat": 6157,
      "meat": 6158,
      "demonstrate": 6159,
      "picked": 6160,
      "infrast": 6161,
      "microsoft": 6162,
      "##rd": 6163,
      "##alf": 6164,
      "cow": 6165,
      "killing": 6166,
      "];": 6167,
      "##ruption": 6168,
      "declar": 6169,
      "stores": 6170,
      "##ishment": 6171,
      "haven": 6172,
      "comfortable": 6173,
      "payments": 6174,
      "shell": 6175,
      "extreme": 6176,
      "pig": 6177,
      "spin": 6178,
      "##icing": 6179,
      "golden": 6180,
      "daniel": 6181,
      "cable": 6182,
      "festival": 6183,
      "heads": 6184,
      "brad": 6185,
      "inflamm": 6186,
      "operate": 6187,
      "dur": 6188,
      "milk": 6189,
      "awards": 6190,
      "variables": 6191,
      "grown": 6192,
      "scores": 6193,
      "tables": 6194,
      "airport": 6195,
      "##rix": 6196,
      "encourage": 6197,
      "disag": 6198,
      "whats": 6199,
      "resc": 6200,
      "arter": 6201,
      "apparent": 6202,
      "judges": 6203,
      "boston": 6204,
      "supports": 6205,
      "substantially": 6206,
      "lies": 6207,
      "\":": 6208,
      "involves": 6209,
      "##oh": 6210,
      "dynamic": 6211,
      "invent": 6212,
      "sov": 6213,
      "##oul": 6214,
      "crypt": 6215,
      "reviewed": 6216,
      "agencies": 6217,
      "saint": 6218,
      "tank": 6219,
      "scope": 6220,
      "],[@": 6221,
      "2020": 6222,
      "troops": 6223,
      "tub": 6224,
      "declared": 6225,
      "1986": 6226,
      "##x9": 6227,
      "approval": 6228,
      "writers": 6229,
      "holy": 6230,
      "##ini": 6231,
      "municip": 6232,
      "describes": 6233,
      "extension": 6234,
      "contrary": 6235,
      "restaurant": 6236,
      "appointed": 6237,
      "announce": 6238,
      "videos": 6239,
      "##ensus": 6240,
      "auto": 6241,
      "accel": 6242,
      "blow": 6243,
      "smile": 6244,
      "performing": 6245,
      "wer": 6246,
      "basically": 6247,
      "##oral": 6248,
      "totally": 6249,
      "bil": 6250,
      "scr": 6251,
      "proud": 6252,
      "doctors": 6253,
      "strict": 6254,
      "taste": 6255,
      "sections": 6256,
      "carefully": 6257,
      "acute": 6258,
      "rush": 6259,
      "##zym": 6260,
      "!!": 6261,
      "mg": 6262,
      "recognize": 6263,
      "##rick": 6264,
      "promise": 6265,
      "disorder": 6266,
      "begins": 6267,
      "##etry": 6268,
      "experimental": 6269,
      "kinds": 6270,
      "privile": 6271,
      "##here": 6272,
      "conclus": 6273,
      "presidential": 6274,
      "acknowled": 6275,
      "appellants": 6276,
      "relax": 6277,
      "flood": 6278,
      "meanwhile": 6279,
      "armed": 6280,
      "##onym": 6281,
      "crystal": 6282,
      "resid": 6283,
      "plurality": 6284,
      "basket": 6285,
      "proposal": 6286,
      "##hi": 6287,
      "beam": 6288,
      "faces": 6289,
      "fault": 6290,
      "braz": 6291,
      "accuracy": 6292,
      "expansion": 6293,
      "historic": 6294,
      "##ints": 6295,
      "substance": 6296,
      "dub": 6297,
      "rational": 6298,
      "explore": 6299,
      "gam": 6300,
      "requested": 6301,
      "immigration": 6302,
      "attempted": 6303,
      "situations": 6304,
      "dw": 6305,
      "consumers": 6306,
      "##any": 6307,
      "conspir": 6308,
      "dust": 6309,
      "transportation": 6310,
      "whis": 6311,
      "arth": 6312,
      "tea": 6313,
      "##opl": 6314,
      "raw": 6315,
      "##oom": 6316,
      "radiation": 6317,
      "discharge": 6318,
      "healthcare": 6319,
      "losing": 6320,
      "taught": 6321,
      "retire": 6322,
      "transc": 6323,
      "disclosed": 6324,
      "spiritual": 6325,
      "##illa": 6326,
      "accordance": 6327,
      "returns": 6328,
      "regist": 6329,
      "##riers": 6330,
      "breaking": 6331,
      "##ocation": 6332,
      "caption": 6333,
      "lt": 6334,
      "fruit": 6335,
      "disappear": 6336,
      "##ostic": 6337,
      "##aine": 6338,
      "nit": 6339,
      "02": 6340,
      "amazon": 6341,
      "judicial": 6342,
      "elections": 6343,
      "teen": 6344,
      "##utory": 6345,
      "##rich": 6346,
      "distributed": 6347,
      "faced": 6348,
      "pix": 6349,
      "flav": 6350,
      "errors": 6351,
      "grab": 6352,
      "ros": 6353,
      "broke": 6354,
      "finger": 6355,
      "##eding": 6356,
      "angle": 6357,
      "simult": 6358,
      "explanation": 6359,
      "vulner": 6360,
      "republicans": 6361,
      "shoulder": 6362,
      "roof": 6363,
      "impair": 6364,
      "logic": 6365,
      "automatically": 6366,
      "##theless": 6367,
      "infrastructure": 6368,
      "treas": 6369,
      "glad": 6370,
      "chest": 6371,
      "##asy": 6372,
      "permit": 6373,
      "apartment": 6374,
      "strongly": 6375,
      "rising": 6376,
      "##icon": 6377,
      "withdraw": 6378,
      "universe": 6379,
      "nevertheless": 6380,
      "contempor": 6381,
      "lean": 6382,
      "define": 6383,
      "substit": 6384,
      "extensive": 6385,
      "rab": 6386,
      "tu": 6387,
      "matt": 6388,
      "preval": 6389,
      "jac": 6390,
      "linear": 6391,
      "tasks": 6392,
      "distur": 6393,
      "aren": 6394,
      "warning": 6395,
      "mixt": 6396,
      "knock": 6397,
      "telephone": 6398,
      "##win": 6399,
      "drawing": 6400,
      "##anes": 6401,
      "##itative": 6402,
      "gon": 6403,
      "layers": 6404,
      "employer": 6405,
      "verd": 6406,
      "chris": 6407,
      "wash": 6408,
      "tip": 6409,
      "1984": 6410,
      "pilot": 6411,
      "fasc": 6412,
      "##ansas": 6413,
      "##ipher": 6414,
      "risks": 6415,
      "outer": 6416,
      "andrew": 6417,
      "spokes": 6418,
      "palest": 6419,
      "breach": 6420,
      "subsequently": 6421,
      "1st": 6422,
      "decrease": 6423,
      "gang": 6424,
      "detected": 6425,
      "1987": 6426,
      "bure": 6427,
      "transaction": 6428,
      "happening": 6429,
      "fairly": 6430,
      "registered": 6431,
      "opposed": 6432,
      "diabetes": 6433,
      "continuous": 6434,
      "alive": 6435,
      "coh": 6436,
      "pacific": 6437,
      "dance": 6438,
      "empire": 6439,
      "weapon": 6440,
      "cognitive": 6441,
      "1985": 6442,
      "##ibilities": 6443,
      "universal": 6444,
      "unus": 6445,
      "ech": 6446,
      "legs": 6447,
      "valve": 6448,
      "##e2x80": 6449,
      "##emat": 6450,
      "buck": 6451,
      "elig": 6452,
      "personnel": 6453,
      "vel": 6454,
      "ministry": 6455,
      "oxygen": 6456,
      "cp": 6457,
      "stan": 6458,
      "addressed": 6459,
      "duration": 6460,
      "grass": 6461,
      "bankruptcy": 6462,
      "trading": 6463,
      "ordinary": 6464,
      "machines": 6465,
      "skill": 6466,
      "##water": 6467,
      "retro": 6468,
      "modified": 6469,
      "cf": 6470,
      "holds": 6471,
      "ml": 6472,
      "configuration": 6473,
      "##onic": 6474,
      "corn": 6475,
      "successfully": 6476,
      "beer": 6477,
      "disorders": 6478,
      "struggle": 6479,
      "excited": 6480,
      "favour": 6481,
      "okay": 6482,
      "indicates": 6483,
      "110": 6484,
      "##ching": 6485,
      "feelings": 6486,
      "##iatric": 6487,
      "##essions": 6488,
      "tube": 6489,
      "gentle": 6490,
      "##een": 6491,
      "visible": 6492,
      "moments": 6493,
      "wars": 6494,
      "##gra": 6495,
      "passage": 6496,
      "ireland": 6497,
      "##apeut": 6498,
      "aer": 6499,
      "dys": 6500,
      "fet": 6501,
      "lens": 6502,
      "phr": 6503,
      "falls": 6504,
      "valuable": 6505,
      "measurement": 6506,
      "thereof": 6507,
      "personally": 6508,
      "##iture": 6509,
      "carrier": 6510,
      "cyt": 6511,
      "##elly": 6512,
      "reverse": 6513,
      "wet": 6514,
      "##uts": 6515,
      "anxiety": 6516,
      "##ylv": 6517,
      "rent": 6518,
      "##west": 6519,
      "oppon": 6520,
      "##ucks": 6521,
      "4th": 6522,
      "academy": 6523,
      "proved": 6524,
      "##osphere": 6525,
      "prince": 6526,
      "births": 6527,
      "anticip": 6528,
      "bowl": 6529,
      "architecture": 6530,
      "drivers": 6531,
      "till": 6532,
      "radi": 6533,
      "particles": 6534,
      "bitco": 6535,
      "legit": 6536,
      "neglig": 6537,
      "##rey": 6538,
      "discrimination": 6539,
      "##areness": 6540,
      "##asts": 6541,
      "continuing": 6542,
      "coron": 6543,
      "split": 6544,
      "soil": 6545,
      "maintained": 6546,
      "stead": 6547,
      "buying": 6548,
      "az": 6549,
      "intr": 6550,
      "##rator": 6551,
      "benefic": 6552,
      "genu": 6553,
      "jail": 6554,
      "worlds": 6555,
      "interior": 6556,
      "shares": 6557,
      "zeal": 6558,
      "yester": 6559,
      "acquired": 6560,
      "##uction": 6561,
      "##ications": 6562,
      "node": 6563,
      "participate": 6564,
      "depends": 6565,
      "bru": 6566,
      "stations": 6567,
      "helpful": 6568,
      "uncert": 6569,
      "marsh": 6570,
      "electrode": 6571,
      "barb": 6572,
      "radical": 6573,
      "evol": 6574,
      "korea": 6575,
      "lights": 6576,
      "##ico": 6577,
      "%.": 6578,
      "hidden": 6579,
      "##cher": 6580,
      "plot": 6581,
      "stands": 6582,
      "peak": 6583,
      "brothers": 6584,
      "updated": 6585,
      "##53": 6586,
      "---------": 6587,
      "bigger": 6588,
      "mortality": 6589,
      "mounted": 6590,
      "michigan": 6591,
      "asia": 6592,
      "##ecess": 6593,
      "somewhere": 6594,
      "tact": 6595,
      "rooms": 6596,
      "chrom": 6597,
      "combat": 6598,
      "fred": 6599,
      "brings": 6600,
      "permission": 6601,
      "awareness": 6602,
      "advertising": 6603,
      "allegations": 6604,
      "ingr": 6605,
      "hack": 6606,
      "refuge": 6607,
      "compare": 6608,
      "answered": 6609,
      "moth": 6610,
      "##aneously": 6611,
      "##zing": 6612,
      "lew": 6613,
      "landsc": 6614,
      "##iana": 6615,
      "installed": 6616,
      "toxic": 6617,
      "wherein": 6618,
      "difficulty": 6619,
      "italy": 6620,
      "squad": 6621,
      "##rition": 6622,
      "rural": 6623,
      "surprised": 6624,
      "##itals": 6625,
      "traum": 6626,
      "##tr": 6627,
      "##under": 6628,
      "bern": 6629,
      "bureau": 6630,
      "pakistan": 6631,
      "cn": 6632,
      "chairman": 6633,
      "francisco": 6634,
      "representation": 6635,
      "manip": 6636,
      "advertise": 6637,
      "##inson": 6638,
      "shaped": 6639,
      "versus": 6640,
      "davis": 6641,
      "1980": 6642,
      "surprising": 6643,
      "rapidly": 6644,
      "lam": 6645,
      "tiny": 6646,
      "kil": 6647,
      "affil": 6648,
      "lym": 6649,
      "investigate": 6650,
      "examine": 6651,
      "inspired": 6652,
      "penns": 6653,
      "evaluate": 6654,
      "entertainment": 6655,
      "dealing": 6656,
      "trained": 6657,
      "##agram": 6658,
      "ongoing": 6659,
      "immune": 6660,
      "ariz": 6661,
      "unw": 6662,
      "##ylvania": 6663,
      "respondent": 6664,
      "tay": 6665,
      "##erce": 6666,
      "lawyer": 6667,
      "channels": 6668,
      "##iger": 6669,
      "##ws": 6670,
      "tod": 6671,
      "chip": 6672,
      "hardware": 6673,
      "marks": 6674,
      "stab": 6675,
      "talked": 6676,
      "contribute": 6677,
      "brazil": 6678,
      "theme": 6679,
      "reliable": 6680,
      "besides": 6681,
      "blocks": 6682,
      "##opy": 6683,
      "nearby": 6684,
      "reader": 6685,
      "polymer": 6686,
      "experiments": 6687,
      "##istent": 6688,
      "opinions": 6689,
      "anywhere": 6690,
      "sed": 6691,
      "unre": 6692,
      "##raid": 6693,
      "equally": 6694,
      "appellee": 6695,
      "orth": 6696,
      "kim": 6697,
      "##inals": 6698,
      "rar": 6699,
      "swim": 6700,
      "syndrome": 6701,
      "##ologist": 6702,
      "cited": 6703,
      "struck": 6704,
      "##bridge": 6705,
      "##...": 6706,
      "laboratory": 6707,
      "drum": 6708,
      "wireless": 6709,
      "applying": 6710,
      "statutory": 6711,
      "soviet": 6712,
      "dil": 6713,
      "decreased": 6714,
      "fu": 6715,
      "##ghan": 6716,
      "##34": 6717,
      "behalf": 6718,
      "##ala": 6719,
      "mile": 6720,
      "mold": 6721,
      "yeah": 6722,
      "presentation": 6723,
      "72": 6724,
      "newspaper": 6725,
      "moves": 6726,
      "frust": 6727,
      "butter": 6728,
      "---": 6729,
      "soph": 6730,
      "plasma": 6731,
      "merch": 6732,
      "##inder": 6733,
      "somehow": 6734,
      "tone": 6735,
      "colour": 6736,
      "kin": 6737,
      "##eld": 6738,
      "##ugh": 6739,
      "movies": 6740,
      "void": 6741,
      "requiring": 6742,
      "enzym": 6743,
      "cheap": 6744,
      "180": 6745,
      "newly": 6746,
      "disappoint": 6747,
      "organized": 6748,
      "fired": 6749,
      "inquir": 6750,
      "gray": 6751,
      "62": 6752,
      "trend": 6753,
      "nobody": 6754,
      "clothes": 6755,
      "rum": 6756,
      "##owed": 6757,
      "analyses": 6758,
      "haz": 6759,
      "lob": 6760,
      "##opic": 6761,
      "explicit": 6762,
      "categories": 6763,
      "aged": 6764,
      "perfectly": 6765,
      "##irect": 6766,
      "##inois": 6767,
      "prevention": 6768,
      "##car": 6769,
      "250": 6770,
      "jersey": 6771,
      "##aid": 6772,
      "calculated": 6773,
      "md": 6774,
      "lev": 6775,
      "dismissed": 6776,
      "absolute": 6777,
      "jews": 6778,
      "doors": 6779,
      "investors": 6780,
      "stimul": 6781,
      "structural": 6782,
      "prepare": 6783,
      "finance": 6784,
      "statistics": 6785,
      "apps": 6786,
      "ward": 6787,
      "replied": 6788,
      "##arr": 6789,
      "suffer": 6790,
      "adequate": 6791,
      "flying": 6792,
      "innoc": 6793,
      "injured": 6794,
      "programming": 6795,
      "commitment": 6796,
      "accum": 6797,
      "##po": 6798,
      "carl": 6799,
      "pod": 6800,
      "screening": 6801,
      "wilson": 6802,
      "equivalent": 6803,
      "##000": 6804,
      "##ayer": 6805,
      "remainder": 6806,
      "greek": 6807,
      "pennsylvania": 6808,
      "mask": 6809,
      "thresh": 6810,
      "cs": 6811,
      "confront": 6812,
      "dynam": 6813,
      "whenever": 6814,
      "fuck": 6815,
      "##ani": 6816,
      "yesterday": 6817,
      "pushed": 6818,
      "##aver": 6819,
      "mayor": 6820,
      "pert": 6821,
      "fulf": 6822,
      "##utation": 6823,
      "grace": 6824,
      "afraid": 6825,
      "ships": 6826,
      "responded": 6827,
      "proportion": 6828,
      "##ulin": 6829,
      "irish": 6830,
      "verdict": 6831,
      "arranged": 6832,
      "##iro": 6833,
      "##eds": 6834,
      "believes": 6835,
      "illinois": 6836,
      "drinking": 6837,
      "epid": 6838,
      "##can": 6839,
      "~~~": 6840,
      "capture": 6841,
      "rejected": 6842,
      "nam": 6843,
      "loud": 6844,
      "tips": 6845,
      "musical": 6846,
      "busy": 6847,
      "unn": 6848,
      "##enna": 6849,
      "analog": 6850,
      "guns": 6851,
      "##emic": 6852,
      "authent": 6853,
      "sty": 6854,
      "decline": 6855,
      "missed": 6856,
      "therapeut": 6857,
      "threshold": 6858,
      "interactions": 6859,
      "myst": 6860,
      "witnesses": 6861,
      "comprehensive": 6862,
      "##night": 6863,
      "kiss": 6864,
      "##grad": 6865,
      "bron": 6866,
      "##har": 6867,
      "swed": 6868,
      "##antly": 6869,
      "crimes": 6870,
      "mirror": 6871,
      "elder": 6872,
      "##asm": 6873,
      "stability": 6874,
      "bless": 6875,
      "hide": 6876,
      "giant": 6877,
      "preparation": 6878,
      "bread": 6879,
      "inspir": 6880,
      "##eper": 6881,
      "nur": 6882,
      "falling": 6883,
      "dipl": 6884,
      "participation": 6885,
      "##sen": 6886,
      "stages": 6887,
      "negoti": 6888,
      "##e2x80x9": 6889,
      "##with": 6890,
      "##hr": 6891,
      "gm": 6892,
      "hardly": 6893,
      "baseball": 6894,
      "ultimate": 6895,
      "##otherapy": 6896,
      "##eto": 6897,
      "teeth": 6898,
      "islam": 6899,
      "##fri": 6900,
      "sd": 6901,
      "transpar": 6902,
      "contents": 6903,
      "1982": 6904,
      "##36": 6905,
      "##iber": 6906,
      "fiber": 6907,
      "reaching": 6908,
      "purchased": 6909,
      "rog": 6910,
      "counts": 6911,
      "commerce": 6912,
      "campus": 6913,
      "ske": 6914,
      "##inn": 6915,
      "facult": 6916,
      "attended": 6917,
      "axis": 6918,
      "lunch": 6919,
      "smoking": 6920,
      "herein": 6921,
      "democracy": 6922,
      "province": 6923,
      "navy": 6924,
      "parking": 6925,
      "rang": 6926,
      "61": 6927,
      "##gb": 6928,
      "requests": 6929,
      "##hs": 6930,
      "respective": 6931,
      "closing": 6932,
      "brook": 6933,
      "extend": 6934,
      "certific": 6935,
      "##ifier": 6936,
      "##aska": 6937,
      "sensitivity": 6938,
      "guit": 6939,
      "mice": 6940,
      "populations": 6941,
      "providers": 6942,
      "##eller": 6943,
      "lymph": 6944,
      "printing": 6945,
      "enth": 6946,
      "##35": 6947,
      "##acent": 6948,
      "professionals": 6949,
      "sevent": 6950,
      "cord": 6951,
      "birds": 6952,
      "miller": 6953,
      "##ules": 6954,
      "steve": 6955,
      "explos": 6956,
      "polar": 6957,
      "mol": 6958,
      "shield": 6959,
      "ingred": 6960,
      "silence": 6961,
      "##uana": 6962,
      "targets": 6963,
      "manifest": 6964,
      "boost": 6965,
      "parad": 6966,
      "imposed": 6967,
      "tack": 6968,
      "mere": 6969,
      "bird": 6970,
      "##ifies": 6971,
      "behaviour": 6972,
      "module": 6973,
      "ink": 6974,
      "complicated": 6975,
      "scheduled": 6976,
      "yards": 6977,
      "operated": 6978,
      "meetings": 6979,
      "serves": 6980,
      "grav": 6981,
      "improving": 6982,
      "reserve": 6983,
      "centers": 6984,
      "ts": 6985,
      "explo": 6986,
      "enjoyed": 6987,
      "printed": 6988,
      "reward": 6989,
      "considerable": 6990,
      "assessed": 6991,
      "##ato": 6992,
      "beta": 6993,
      "shortly": 6994,
      "blank": 6995,
      "exclusive": 6996,
      "entr": 6997,
      "upgr": 6998,
      "##ictions": 6999,
      "foods": 7000,
      "partial": 7001,
      "temporary": 7002,
      "##isms": 7003,
      "brew": 7004,
      "##ird": 7005,
      "plug": 7006,
      "container": 7007,
      "por": 7008,
      "connections": 7009,
      "##ribed": 7010,
      "territ": 7011,
      "strip": 7012,
      "psychological": 7013,
      "deputy": 7014,
      "infant": 7015,
      "chose": 7016,
      "marc": 7017,
      "featured": 7018,
      "ceo": 7019,
      "dou": 7020,
      "##bel": 7021,
      "phenomen": 7022,
      "territory": 7023,
      "trem": 7024,
      "investigated": 7025,
      "wra": 7026,
      "awarded": 7027,
      "violent": 7028,
      "5th": 7029,
      "ib": 7030,
      "alpha": 7031,
      "hay": 7032,
      "##lete": 7033,
      "rib": 7034,
      "liked": 7035,
      "scholars": 7036,
      "intellectual": 7037,
      "manual": 7038,
      "circle": 7039,
      "##iders": 7040,
      "expenses": 7041,
      "drew": 7042,
      "everybody": 7043,
      "isolated": 7044,
      "##nament": 7045,
      "forec": 7046,
      "##omatic": 7047,
      "##37": 7048,
      "dispute": 7049,
      "commissioner": 7050,
      "wake": 7051,
      "evaluated": 7052,
      "1981": 7053,
      "cream": 7054,
      "crown": 7055,
      "constantly": 7056,
      "receptor": 7057,
      "steam": 7058,
      "embra": 7059,
      "controlling": 7060,
      "naturally": 7061,
      "tel": 7062,
      "##mond": 7063,
      "smoke": 7064,
      "##ek": 7065,
      "bias": 7066,
      "desirable": 7067,
      "fingers": 7068,
      "transferred": 7069,
      "pier": 7070,
      "waters": 7071,
      "ron": 7072,
      "pleasure": 7073,
      "sending": 7074,
      "colors": 7075,
      "yout": 7076,
      "disability": 7077,
      "choices": 7078,
      "representatives": 7079,
      "implemented": 7080,
      "forgot": 7081,
      "##cules": 7082,
      "qualified": 7083,
      "talks": 7084,
      "segment": 7085,
      "loop": 7086,
      "movements": 7087,
      "bitcoin": 7088,
      "roles": 7089,
      "spat": 7090,
      "compound": 7091,
      "designs": 7092,
      "founder": 7093,
      "disagree": 7094,
      "competitive": 7095,
      "adverse": 7096,
      "trick": 7097,
      "thorough": 7098,
      "statistical": 7099,
      "menu": 7100,
      "evident": 7101,
      "hang": 7102,
      "odd": 7103,
      "careful": 7104,
      "fiction": 7105,
      "compos": 7106,
      "intensity": 7107,
      "membrane": 7108,
      "cin": 7109,
      "##etical": 7110,
      "ages": 7111,
      "developers": 7112,
      "involvement": 7113,
      "##apse": 7114,
      "sab": 7115,
      "sessions": 7116,
      "asian": 7117,
      "alert": 7118,
      "destroyed": 7119,
      "activation": 7120,
      "contracts": 7121,
      "abstract": 7122,
      "demands": 7123,
      "inch": 7124,
      "seasons": 7125,
      "##ijuana": 7126,
      "worldwide": 7127,
      "settled": 7128,
      "##rs": 7129,
      "contemporary": 7130,
      "myth": 7131,
      "##etime": 7132,
      "##yers": 7133,
      "##after": 7134,
      "lux": 7135,
      "mistake": 7136,
      "replacement": 7137,
      "licens": 7138,
      "##45": 7139,
      "cleaning": 7140,
      "childhood": 7141,
      "1979": 7142,
      "##edia": 7143,
      "returning": 7144,
      "holiday": 7145,
      "cyl": 7146,
      "consists": 7147,
      "disclosure": 7148,
      "incorporated": 7149,
      "sacr": 7150,
      "trav": 7151,
      "pregnancy": 7152,
      "georgia": 7153,
      "presents": 7154,
      "cum": 7155,
      "filing": 7156,
      "##eted": 7157,
      "ads": 7158,
      "disk": 7159,
      "arrangement": 7160,
      "failing": 7161,
      "diversity": 7162,
      "surge": 7163,
      "001": 7164,
      "contest": 7165,
      "matrix": 7166,
      "earned": 7167,
      "assumed": 7168,
      "##jo": 7169,
      "reserv": 7170,
      "cler": 7171,
      "cataly": 7172,
      "pel": 7173,
      "israeli": 7174,
      "gest": 7175,
      "nin": 7176,
      "undert": 7177,
      "##ora": 7178,
      "##part": 7179,
      "ster": 7180,
      "bish": 7181,
      "adam": 7182,
      "##whel": 7183,
      "sod": 7184,
      "osc": 7185,
      "mortg": 7186,
      "bench": 7187,
      "cig": 7188,
      "mixture": 7189,
      "listening": 7190,
      "hors": 7191,
      "deeply": 7192,
      "legislative": 7193,
      "regularly": 7194,
      "denial": 7195,
      "gly": 7196,
      "shopping": 7197,
      "##abeth": 7198,
      "rating": 7199,
      "atmosphere": 7200,
      "width": 7201,
      "cock": 7202,
      "guest": 7203,
      "boss": 7204,
      "enhanced": 7205,
      "gi": 7206,
      "bearing": 7207,
      "tower": 7208,
      "jam": 7209,
      "islands": 7210,
      "##fast": 7211,
      "temple": 7212,
      "##fall": 7213,
      "provider": 7214,
      "heavily": 7215,
      "visited": 7216,
      "comprom": 7217,
      "eliz": 7218,
      "politicians": 7219,
      "##sect": 7220,
      "decor": 7221,
      "nerv": 7222,
      "weigh": 7223,
      "weekly": 7224,
      "##lined": 7225,
      "peripher": 7226,
      "##athers": 7227,
      "dy": 7228,
      "conversion": 7229,
      "##gments": 7230,
      "185": 7231,
      "greatly": 7232,
      "compliance": 7233,
      "crucial": 7234,
      "##fs": 7235,
      "gross": 7236,
      "##ribe": 7237,
      "##ua": 7238,
      "ss": 7239,
      "mouse": 7240,
      "islamic": 7241,
      "solve": 7242,
      "heaven": 7243,
      "execution": 7244,
      "creates": 7245,
      "obser": 7246,
      "uncom": 7247,
      "insuff": 7248,
      "spain": 7249,
      "##ainty": 7250,
      "shadow": 7251,
      "automatic": 7252,
      "estimate": 7253,
      "monthly": 7254,
      "youve": 7255,
      "##des": 7256,
      "voting": 7257,
      "hou": 7258,
      "proceeding": 7259,
      "sentencing": 7260,
      "html": 7261,
      "##umes": 7262,
      "crazy": 7263,
      "applies": 7264,
      "##stone": 7265,
      "highway": 7266,
      "cellular": 7267,
      "##fr": 7268,
      "marijuana": 7269,
      "##38": 7270,
      "symp": 7271,
      "railway": 7272,
      "handling": 7273,
      "affirmed": 7274,
      "wedding": 7275,
      "lect": 7276,
      "contends": 7277,
      "##quar": 7278,
      "concert": 7279,
      "characterized": 7280,
      "wik": 7281,
      "##adel": 7282,
      "##icity": 7283,
      "ease": 7284,
      "attorneys": 7285,
      "##rogen": 7286,
      "parag": 7287,
      "yard": 7288,
      "pocket": 7289,
      "advantages": 7290,
      "periods": 7291,
      "challenging": 7292,
      "measurements": 7293,
      "omitted": 7294,
      "remand": 7295,
      "ford": 7296,
      "orange": 7297,
      "syria": 7298,
      "regulatory": 7299,
      "##60": 7300,
      "targeted": 7301,
      "enterprise": 7302,
      "penalty": 7303,
      "taylor": 7304,
      "rs": 7305,
      "##ashed": 7306,
      "repro": 7307,
      "##advant": 7308,
      "gov": 7309,
      "marine": 7310,
      "##ester": 7311,
      "constructed": 7312,
      "priority": 7313,
      "##chester": 7314,
      "headed": 7315,
      "administer": 7316,
      "##inction": 7317,
      "[]": 7318,
      "silent": 7319,
      "##otype": 7320,
      "interviews": 7321,
      "##isa": 7322,
      "##right": 7323,
      "registration": 7324,
      "ci": 7325,
      "null": 7326,
      "compounds": 7327,
      "viv": 7328,
      "bang": 7329,
      "visitors": 7330,
      "proph": 7331,
      "mountains": 7332,
      "amended": 7333,
      "specified": 7334,
      "entering": 7335,
      "##section": 7336,
      "raising": 7337,
      "##worth": 7338,
      "kent": 7339,
      "speaker": 7340,
      "##ologists": 7341,
      "reconst": 7342,
      "displayed": 7343,
      "significance": 7344,
      "vertical": 7345,
      "fn": 7346,
      "overwhel": 7347,
      "##acing": 7348,
      "variation": 7349,
      "fool": 7350,
      "independence": 7351,
      "disadvant": 7352,
      "chees": 7353,
      "physi": 7354,
      "tracks": 7355,
      "doctrine": 7356,
      "desert": 7357,
      "volunt": 7358,
      "##erior": 7359,
      "va": 7360,
      "portions": 7361,
      "tape": 7362,
      "reasonably": 7363,
      "elsewhere": 7364,
      "reprodu": 7365,
      "##stit": 7366,
      "pros": 7367,
      "lying": 7368,
      "clause": 7369,
      "handed": 7370,
      "hybr": 7371,
      "##rep": 7372,
      "##col": 7373,
      "adjacent": 7374,
      "unusual": 7375,
      "dollar": 7376,
      "colleagues": 7377,
      "\\<": 7378,
      "admission": 7379,
      "##adium": 7380,
      "##ensional": 7381,
      "##eli": 7382,
      "##ador": 7383,
      "##oted": 7384,
      "plea": 7385,
      "##alities": 7386,
      "##list": 7387,
      "afghan": 7388,
      "##32": 7389,
      "\"[": 7390,
      "hadn": 7391,
      "##amine": 7392,
      "##48": 7393,
      "youtube": 7394,
      "faculty": 7395,
      "pill": 7396,
      "##norm": 7397,
      "downt": 7398,
      "##athan": 7399,
      "liberty": 7400,
      "saved": 7401,
      "static": 7402,
      "anger": 7403,
      "contribution": 7404,
      "concrete": 7405,
      "edward": 7406,
      "transist": 7407,
      "nutrition": 7408,
      "##onal": 7409,
      "therapeutic": 7410,
      "consequently": 7411,
      "ak": 7412,
      "##rolog": 7413,
      "versions": 7414,
      "conclusions": 7415,
      "deem": 7416,
      "peoples": 7417,
      "nich": 7418,
      "##iner": 7419,
      "nm": 7420,
      "talent": 7421,
      "improvements": 7422,
      "correlation": 7423,
      "duties": 7424,
      "##omed": 7425,
      "perceived": 7426,
      "hed": 7427,
      "sel": 7428,
      "persu": 7429,
      "reply": 7430,
      "estimates": 7431,
      "arent": 7432,
      "fewer": 7433,
      "computers": 7434,
      "##wart": 7435,
      "forever": 7436,
      "lands": 7437,
      "##39": 7438,
      "1978": 7439,
      "citing": 7440,
      "surfaces": 7441,
      "reveal": 7442,
      "neutral": 7443,
      "clark": 7444,
      "mp": 7445,
      "attitude": 7446,
      "gast": 7447,
      "belt": 7448,
      "heter": 7449,
      "fract": 7450,
      "surely": 7451,
      "ending": 7452,
      "vessel": 7453,
      "entity": 7454,
      "thermal": 7455,
      "viet": 7456,
      "convey": 7457,
      "##eland": 7458,
      "conspiracy": 7459,
      "stir": 7460,
      "enthus": 7461,
      "##elve": 7462,
      "pour": 7463,
      "suicide": 7464,
      "pace": 7465,
      "##play": 7466,
      "##ught": 7467,
      "##ja": 7468,
      "gluc": 7469,
      "cosm": 7470,
      "offensive": 7471,
      "utility": 7472,
      "---------------------------------": 7473,
      "##eman": 7474,
      "topics": 7475,
      "lind": 7476,
      "##cell": 7477,
      "desper": 7478,
      "actor": 7479,
      "integration": 7480,
      "zealand": 7481,
      "dating": 7482,
      "##uten": 7483,
      "permitted": 7484,
      "mothers": 7485,
      "reputation": 7486,
      "ryan": 7487,
      "##inter": 7488,
      "aimed": 7489,
      "cha": 7490,
      "patri": 7491,
      "explains": 7492,
      "gods": 7493,
      "71": 7494,
      "stroke": 7495,
      "800": 7496,
      "captured": 7497,
      "gran": 7498,
      "##sts": 7499,
      "hospitals": 7500,
      "terrible": 7501,
      "kir": 7502,
      "##etts": 7503,
      "twelve": 7504,
      "correctly": 7505,
      "spectrum": 7506,
      "unt": 7507,
      "vital": 7508,
      "##enda": 7509,
      "fbi": 7510,
      "ont": 7511,
      "suggesting": 7512,
      "personality": 7513,
      "ethnic": 7514,
      "fifty": 7515,
      "propag": 7516,
      "angry": 7517,
      "columbia": 7518,
      "guitar": 7519,
      "worker": 7520,
      "600": 7521,
      "##min": 7522,
      "naz": 7523,
      "##cont": 7524,
      "conj": 7525,
      "prelim": 7526,
      "maintaining": 7527,
      "stronger": 7528,
      "##wa": 7529,
      "comprising": 7530,
      "vect": 7531,
      "kr": 7532,
      "##verty": 7533,
      "silicon": 7534,
      "ion": 7535,
      "92": 7536,
      "##hyd": 7537,
      "programme": 7538,
      "hd": 7539,
      "##ype": 7540,
      "##weight": 7541,
      "oxid": 7542,
      "physician": 7543,
      "##ci": 7544,
      "1976": 7545,
      "prize": 7546,
      "losses": 7547,
      "##era": 7548,
      "analyzed": 7549,
      "##oning": 7550,
      "contributions": 7551,
      "##ributes": 7552,
      "holly": 7553,
      "(*": 7554,
      "rice": 7555,
      "##olit": 7556,
      "residence": 7557,
      "##plant": 7558,
      "stayed": 7559,
      "106": 7560,
      "languages": 7561,
      "##********": 7562,
      "anne": 7563,
      "contributed": 7564,
      "mathemat": 7565,
      "exciting": 7566,
      "poverty": 7567,
      "receiver": 7568,
      "custody": 7569,
      ":**": 7570,
      "budd": 7571,
      "##fa": 7572,
      "##oming": 7573,
      "retrie": 7574,
      "moderate": 7575,
      "drain": 7576,
      "strategic": 7577,
      "suppose": 7578,
      "expectations": 7579,
      "operator": 7580,
      "##orph": 7581,
      "bm": 7582,
      "tomor": 7583,
      "sees": 7584,
      "covers": 7585,
      "tournament": 7586,
      "engagement": 7587,
      "comprises": 7588,
      "reson": 7589,
      "frequent": 7590,
      "votes": 7591,
      "ty": 7592,
      "##but": 7593,
      "exhibit": 7594,
      "routine": 7595,
      "dict": 7596,
      "theatre": 7597,
      "gif": 7598,
      "germ": 7599,
      "consciousness": 7600,
      "convicted": 7601,
      "rarely": 7602,
      "hoping": 7603,
      "##itory": 7604,
      "stup": 7605,
      "sixth": 7606,
      "_s": 7607,
      "representing": 7608,
      "abnorm": 7609,
      "thinks": 7610,
      "##oir": 7611,
      "separation": 7612,
      "literally": 7613,
      "temperatures": 7614,
      "hub": 7615,
      "managing": 7616,
      "##operative": 7617,
      "irre": 7618,
      "resign": 7619,
      "overcome": 7620,
      "82": 7621,
      "eric": 7622,
      "104": 7623,
      "##azz": 7624,
      "basketball": 7625,
      "collective": 7626,
      "------": 7627,
      "spell": 7628,
      "calm": 7629,
      "intermedi": 7630,
      "controller": 7631,
      "##bits": 7632,
      "elizabeth": 7633,
      "recommendations": 7634,
      "measuring": 7635,
      "beneath": 7636,
      "effic": 7637,
      "##iable": 7638,
      ".[@": 7639,
      "##mann": 7640,
      "tong": 7641,
      "farmers": 7642,
      "viewed": 7643,
      "winner": 7644,
      "morph": 7645,
      "ineff": 7646,
      "golf": 7647,
      "satell": 7648,
      "updates": 7649,
      "##chron": 7650,
      "repeat": 7651,
      "covering": 7652,
      "##asty": 7653,
      "formula": 7654,
      "horm": 7655,
      "satisfied": 7656,
      "harry": 7657,
      "separated": 7658,
      "writes": 7659,
      "gained": 7660,
      "flexible": 7661,
      "##ystem": 7662,
      "coupled": 7663,
      "algorithm": 7664,
      "mild": 7665,
      "transactions": 7666,
      "artific": 7667,
      "##mes": 7668,
      "dish": 7669,
      "##onto": 7670,
      "arc": 7671,
      "submit": 7672,
      "forty": 7673,
      "everywhere": 7674,
      "##vd": 7675,
      "premier": 7676,
      "simultaneously": 7677,
      "probability": 7678,
      "lap": 7679,
      "anonym": 7680,
      "turkey": 7681,
      "concepts": 7682,
      "##pson": 7683,
      "91": 7684,
      "130": 7685,
      "palestin": 7686,
      "adds": 7687,
      "cuts": 7688,
      "legislature": 7689,
      "appellate": 7690,
      "mt": 7691,
      "alongside": 7692,
      "latin": 7693,
      "guests": 7694,
      "invited": 7695,
      "##70": 7696,
      "diverse": 7697,
      "relating": 7698,
      "##erated": 7699,
      "availability": 7700,
      "progressive": 7701,
      "prevalence": 7702,
      "complications": 7703,
      "rats": 7704,
      "composed": 7705,
      "##iments": 7706,
      "</": 7707,
      "##fol": 7708,
      "metabol": 7709,
      "hamm": 7710,
      "brill": 7711,
      "implant": 7712,
      "establishment": 7713,
      "diameter": 7714,
      "icon": 7715,
      "regime": 7716,
      "supplies": 7717,
      "fails": 7718,
      "tob": 7719,
      "unlik": 7720,
      "diagnostic": 7721,
      "recurr": 7722,
      "scenes": 7723,
      "inspect": 7724,
      "browser": 7725,
      "cigar": 7726,
      "##otted": 7727,
      "lewis": 7728,
      "developer": 7729,
      "hopes": 7730,
      "scored": 7731,
      "1975": 7732,
      "bible": 7733,
      "acquis": 7734,
      "##ads": 7735,
      "pit": 7736,
      "destruction": 7737,
      "lov": 7738,
      "wolf": 7739,
      "effectiveness": 7740,
      "innovation": 7741,
      "ownership": 7742,
      "senator": 7743,
      "colorado": 7744,
      "##bell": 7745,
      "chat": 7746,
      "\"}).": 7747,
      "arizona": 7748,
      "proxim": 7749,
      "recon": 7750,
      "guarantee": 7751,
      "premium": 7752,
      "concentrations": 7753,
      "divor": 7754,
      "tam": 7755,
      "constra": 7756,
      "stuck": 7757,
      "delight": 7758,
      "##active": 7759,
      "indicating": 7760,
      "femin": 7761,
      "supporters": 7762,
      "subsid": 7763,
      "chicken": 7764,
      "butt": 7765,
      "tomorrow": 7766,
      "promised": 7767,
      "painting": 7768,
      "deck": 7769,
      "meal": 7770,
      "##aa": 7771,
      "loyal": 7772,
      "ker": 7773,
      "##ologic": 7774,
      "##vere": 7775,
      "cad": 7776,
      "##fc": 7777,
      "shaft": 7778,
      "105": 7779,
      "cul": 7780,
      "appreciate": 7781,
      "intro": 7782,
      "survive": 7783,
      "wouldnt": 7784,
      "electricity": 7785,
      "debut": 7786,
      "injection": 7787,
      "sid": 7788,
      "retirement": 7789,
      "##ila": 7790,
      "avenue": 7791,
      "oxford": 7792,
      "##44": 7793,
      "bills": 7794,
      "commander": 7795,
      "spark": 7796,
      "1977": 7797,
      "semi": 7798,
      "saving": 7799,
      "welf": 7800,
      "keeps": 7801,
      "admit": 7802,
      "##mo": 7803,
      "unlikely": 7804,
      "classification": 7805,
      "##isely": 7806,
      "paragraph": 7807,
      "cel": 7808,
      "copies": 7809,
      "translation": 7810,
      "refers": 7811,
      "beliefs": 7812,
      "usage": 7813,
      "couldnt": 7814,
      "anch": 7815,
      "waves": 7816,
      "preliminary": 7817,
      "directions": 7818,
      "interventions": 7819,
      "guidance": 7820,
      "#####": 7821,
      "##esc": 7822,
      "info": 7823,
      "##illance": 7824,
      "deleg": 7825,
      "outdo": 7826,
      "##eties": 7827,
      "ali": 7828,
      "pic": 7829,
      "101": 7830,
      "identical": 7831,
      "stephen": 7832,
      "molecules": 7833,
      "eb": 7834,
      "seal": 7835,
      "##........": 7836,
      "minimal": 7837,
      "initiative": 7838,
      "hip": 7839,
      "##etics": 7840,
      "aggreg": 7841,
      "burning": 7842,
      "sciences": 7843,
      "##);": 7844,
      "##terior": 7845,
      "sword": 7846,
      "supplied": 7847,
      "reflected": 7848,
      "timing": 7849,
      "curt": 7850,
      "extraord": 7851,
      "publishing": 7852,
      "shipping": 7853,
      "folks": 7854,
      "##ipt": 7855,
      "ger": 7856,
      "1950": 7857,
      "proven": 7858,
      "harder": 7859,
      "catal": 7860,
      "defeat": 7861,
      "##ione": 7862,
      "##esome": 7863,
      "dual": 7864,
      "hills": 7865,
      "powder": 7866,
      "inquiry": 7867,
      "harris": 7868,
      "inev": 7869,
      "emotion": 7870,
      "##owa": 7871,
      "gor": 7872,
      "discip": 7873,
      "offices": 7874,
      "##mers": 7875,
      "legend": 7876,
      "observation": 7877,
      "nfl": 7878,
      "\\]": 7879,
      "flowers": 7880,
      "##ema": 7881,
      "stadium": 7882,
      "pharmac": 7883,
      "attribut": 7884,
      "##ez": 7885,
      "criticism": 7886,
      "hook": 7887,
      "mood": 7888,
      "##han": 7889,
      "respondents": 7890,
      "surveillance": 7891,
      "manus": 7892,
      "welfare": 7893,
      "([": 7894,
      "stake": 7895,
      "sr": 7896,
      "spaces": 7897,
      "towns": 7898,
      "nervous": 7899,
      "roughly": 7900,
      "templ": 7901,
      "tracking": 7902,
      "81": 7903,
      "##ails": 7904,
      "decent": 7905,
      "##life": 7906,
      "20th": 7907,
      "roads": 7908,
      "bike": 7909,
      "##mar": 7910,
      "##holders": 7911,
      "##mates": 7912,
      "thickness": 7913,
      "settle": 7914,
      "memories": 7915,
      "median": 7916,
      "landscape": 7917,
      "sons": 7918,
      "genuine": 7919,
      "cooking": 7920,
      "corps": 7921,
      "##mun": 7922,
      "shout": 7923,
      "##33": 7924,
      "sustained": 7925,
      "sampl": 7926,
      "##east": 7927,
      "minds": 7928,
      "dimensional": 7929,
      "ark": 7930,
      "treatments": 7931,
      "houston": 7932,
      "brush": 7933,
      "##organ": 7934,
      "seats": 7935,
      "cov": 7936,
      "cot": 7937,
      "grey": 7938,
      "marg": 7939,
      "##icy": 7940,
      "alien": 7941,
      "holes": 7942,
      "nose": 7943,
      "##bar": 7944,
      "rif": 7945,
      "lists": 7946,
      "##inger": 7947,
      "hybrid": 7948,
      "##omin": 7949,
      "##ati": 7950,
      "##izer": 7951,
      "##iser": 7952,
      "##ifer": 7953,
      "rome": 7954,
      "hey": 7955,
      "champion": 7956,
      "executed": 7957,
      "##xual": 7958,
      "leaf": 7959,
      "maps": 7960,
      "courses": 7961,
      "nap": 7962,
      "loading": 7963,
      "medication": 7964,
      "deals": 7965,
      "discount": 7966,
      "quote": 7967,
      "pist": 7968,
      "##emon": 7969,
      "##born": 7970,
      "matches": 7971,
      "narrative": 7972,
      "##55": 7973,
      "##rell": 7974,
      "shoes": 7975,
      "satisfaction": 7976,
      "oak": 7977,
      "declined": 7978,
      "franch": 7979,
      "##itudes": 7980,
      "rect": 7981,
      "membership": 7982,
      "##achus": 7983,
      "lane": 7984,
      "##conn": 7985,
      "passes": 7986,
      "grid": 7987,
      "bars": 7988,
      "jord": 7989,
      "cla": 7990,
      "##46": 7991,
      "gallery": 7992,
      "##ugg": 7993,
      "thy": 7994,
      "coat": 7995,
      "ticket": 7996,
      "toronto": 7997,
      "incidence": 7998,
      "shr": 7999,
      "perception": 8000,
      "adjusted": 8001,
      "cc": 8002,
      "eligible": 8003,
      "fortun": 8004,
      "##agen": 8005,
      "manuscript": 8006,
      "pounds": 8007,
      "citizen": 8008,
      "dreams": 8009,
      "insufficient": 8010,
      "defence": 8011,
      "##opher": 8012,
      "serum": 8013,
      "##ials": 8014,
      "websites": 8015,
      "repeatedly": 8016,
      "precisely": 8017,
      "password": 8018,
      "ghost": 8019,
      "retired": 8020,
      "##hl": 8021,
      "insight": 8022,
      "expanded": 8023,
      "factory": 8024,
      "threatened": 8025,
      "##adelph": 8026,
      "instances": 8027,
      "ruled": 8028,
      "adhes": 8029,
      "convin": 8030,
      "instruments": 8031,
      "##omer": 8032,
      "bottle": 8033,
      "##top": 8034,
      "orch": 8035,
      "prominent": 8036,
      "mes": 8037,
      "ordin": 8038,
      "graduate": 8039,
      "1974": 8040,
      "castle": 8041,
      "]^": 8042,
      "funny": 8043,
      "##uch": 8044,
      "cher": 8045,
      "racial": 8046,
      "borrow": 8047,
      "2nd": 8048,
      "edit": 8049,
      "preferably": 8050,
      "matth": 8051,
      "##eterm": 8052,
      "designated": 8053,
      "horses": 8054,
      "=========": 8055,
      "efficacy": 8056,
      "baseline": 8057,
      "##xx": 8058,
      "drove": 8059,
      "##ql": 8060,
      "##bra": 8061,
      "clubs": 8062,
      "knee": 8063,
      "##rupted": 8064,
      "tied": 8065,
      "ft": 8066,
      "mining": 8067,
      "lamp": 8068,
      "mamm": 8069,
      "industries": 8070,
      "##sters": 8071,
      "9th": 8072,
      "allegedly": 8073,
      "breakfast": 8074,
      "brian": 8075,
      "enorm": 8076,
      "dod": 8077,
      "interf": 8078,
      "wise": 8079,
      "installation": 8080,
      "##phy": 8081,
      "##90": 8082,
      "fleet": 8083,
      "##oding": 8084,
      "voted": 8085,
      "dir": 8086,
      "##ko": 8087,
      "##bro": 8088,
      "difficulties": 8089,
      "1970": 8090,
      "kat": 8091,
      "1973": 8092,
      "concurr": 8093,
      "deny": 8094,
      "drama": 8095,
      "worried": 8096,
      "unexp": 8097,
      "notion": 8098,
      "pink": 8099,
      "lifest": 8100,
      "lon": 8101,
      "##friend": 8102,
      "exem": 8103,
      "bub": 8104,
      "##gi": 8105,
      "scenario": 8106,
      "defensive": 8107,
      "philadelph": 8108,
      "dick": 8109,
      "characteristic": 8110,
      "rotation": 8111,
      "producer": 8112,
      "prosecution": 8113,
      "casual": 8114,
      "consec": 8115,
      "jean": 8116,
      "threats": 8117,
      "1972": 8118,
      "depri": 8119,
      "anderson": 8120,
      "constitute": 8121,
      "begun": 8122,
      "##emia": 8123,
      "##ecks": 8124,
      "bin": 8125,
      "visiting": 8126,
      "##achusetts": 8127,
      "iphone": 8128,
      "dozen": 8129,
      "shirt": 8130,
      "dates": 8131,
      "referring": 8132,
      "lips": 8133,
      "solely": 8134,
      "physicians": 8135,
      "gab": 8136,
      "currency": 8137,
      "##onia": 8138,
      "##oys": 8139,
      "##vation": 8140,
      "impression": 8141,
      "scotland": 8142,
      "addresses": 8143,
      "##cers": 8144,
      "korean": 8145,
      "massachusetts": 8146,
      "cardiac": 8147,
      "consol": 8148,
      "alliance": 8149,
      "managers": 8150,
      "fought": 8151,
      "lever": 8152,
      "transmitted": 8153,
      "stupid": 8154,
      "tears": 8155,
      "tang": 8156,
      "##bury": 8157,
      "##etically": 8158,
      "##oman": 8159,
      "##ilton": 8160,
      "debtor": 8161,
      "##gas": 8162,
      "##agger": 8163,
      "junior": 8164,
      "tired": 8165,
      "moore": 8166,
      "accompanied": 8167,
      "arrival": 8168,
      "whit": 8169,
      "##iano": 8170,
      "mini": 8171,
      "stamp": 8172,
      "therap": 8173,
      "##burgh": 8174,
      "implications": 8175,
      "violated": 8176,
      "##orous": 8177,
      "##31": 8178,
      "protective": 8179,
      ")).": 8180,
      "clothing": 8181,
      "125": 8182,
      "medal": 8183,
      "pulse": 8184,
      "nursing": 8185,
      "heating": 8186,
      "lig": 8187,
      "pear": 8188,
      "hr": 8189,
      "keys": 8190,
      "directors": 8191,
      "ought": 8192,
      "##umber": 8193,
      "lawyers": 8194,
      "##flow": 8195,
      "lucky": 8196,
      "authorized": 8197,
      "##omes": 8198,
      "ingredients": 8199,
      "imperial": 8200,
      "barely": 8201,
      "transcript": 8202,
      "dor": 8203,
      "fallen": 8204,
      "##ali": 8205,
      "pushing": 8206,
      "##lectric": 8207,
      "brid": 8208,
      "searching": 8209,
      "##ogenic": 8210,
      "##\\*": 8211,
      "pipe": 8212,
      "compat": 8213,
      "##47": 8214,
      "punishment": 8215,
      "##agan": 8216,
      "philadelphia": 8217,
      "bund": 8218,
      "incons": 8219,
      "bold": 8220,
      "hi": 8221,
      "lyn": 8222,
      "restrictions": 8223,
      "cambridge": 8224,
      "publicly": 8225,
      "gathered": 8226,
      "rolling": 8227,
      "santa": 8228,
      "condem": 8229,
      "sensors": 8230,
      "existed": 8231,
      "communicate": 8232,
      "assuming": 8233,
      "erred": 8234,
      "##employ": 8235,
      "##izz": 8236,
      "denying": 8237,
      "hypothesis": 8238,
      "##idav": 8239,
      "rav": 8240,
      "##itage": 8241,
      "vig": 8242,
      "inval": 8243,
      "mortgage": 8244,
      "saud": 8245,
      "stepped": 8246,
      "greg": 8247,
      "factual": 8248,
      "##ji": 8249,
      "switching": 8250,
      "racing": 8251,
      "bbc": 8252,
      "##uters": 8253,
      "blame": 8254,
      "##name": 8255,
      "pride": 8256,
      "somebody": 8257,
      "smell": 8258,
      "lift": 8259,
      "contrad": 8260,
      "iowa": 8261,
      "horn": 8262,
      "cb": 8263,
      "hunting": 8264,
      "bunch": 8265,
      "##sis": 8266,
      "poem": 8267,
      "aims": 8268,
      "intense": 8269,
      "##anny": 8270,
      "horizont": 8271,
      "overr": 8272,
      "accessible": 8273,
      "actors": 8274,
      "predicted": 8275,
      "##ourse": 8276,
      "minnes": 8277,
      "alexander": 8278,
      "fate": 8279,
      "affidav": 8280,
      "##49": 8281,
      "locked": 8282,
      "immunity": 8283,
      "bod": 8284,
      "dutch": 8285,
      "visits": 8286,
      "##li": 8287,
      "mah": 8288,
      "##icular": 8289,
      "inches": 8290,
      "oxide": 8291,
      "fantasy": 8292,
      "classified": 8293,
      "##raine": 8294,
      "reporter": 8295,
      "minority": 8296,
      "fisher": 8297,
      "nerve": 8298,
      "entrance": 8299,
      "identifying": 8300,
      "bedroom": 8301,
      "worksh": 8302,
      "absent": 8303,
      "anymore": 8304,
      "peer": 8305,
      "strain": 8306,
      "disaster": 8307,
      "encounter": 8308,
      "##urities": 8309,
      "lod": 8310,
      "acceptable": 8311,
      "stun": 8312,
      "ott": 8313,
      "abandoned": 8314,
      "litigation": 8315,
      "exped": 8316,
      "convinced": 8317,
      "warri": 8318,
      "correction": 8319,
      "##etary": 8320,
      "prejudice": 8321,
      "descript": 8322,
      "kings": 8323,
      "adoles": 8324,
      "pla": 8325,
      "phrase": 8326,
      "promotion": 8327,
      "quantity": 8328,
      "albert": 8329,
      "tension": 8330,
      "clinic": 8331,
      "regarded": 8332,
      "##wealth": 8333,
      "chocol": 8334,
      "prosecutor": 8335,
      "certificate": 8336,
      "stating": 8337,
      "remembered": 8338,
      "secured": 8339,
      "discussions": 8340,
      "respir": 8341,
      "healing": 8342,
      "102": 8343,
      "auton": 8344,
      "heres": 8345,
      "##function": 8346,
      "resem": 8347,
      "complexity": 8348,
      "rehab": 8349,
      "ted": 8350,
      "calculate": 8351,
      "excessive": 8352,
      "perpet": 8353,
      "##sm": 8354,
      "enact": 8355,
      "spoken": 8356,
      "incredible": 8357,
      "pron": 8358,
      "embed": 8359,
      "punch": 8360,
      "removing": 8361,
      "shots": 8362,
      "awesome": 8363,
      "##ighth": 8364,
      "destination": 8365,
      "feeding": 8366,
      "trends": 8367,
      "##olis": 8368,
      "rober": 8369,
      "adapted": 8370,
      "##ogene": 8371,
      "leon": 8372,
      "transf": 8373,
      "diagnosed": 8374,
      "##oln": 8375,
      "cass": 8376,
      "##ockey": 8377,
      "males": 8378,
      "loans": 8379,
      "discloses": 8380,
      "##urd": 8381,
      "##met": 8382,
      "interference": 8383,
      "circuits": 8384,
      "preparing": 8385,
      "java": 8386,
      "ethics": 8387,
      "##itarian": 8388,
      "sufficiently": 8389,
      "##acc": 8390,
      "cycl": 8391,
      "tickets": 8392,
      "deeper": 8393,
      "emerged": 8394,
      "damaged": 8395,
      "flour": 8396,
      "beside": 8397,
      "commonwealth": 8398,
      "emotions": 8399,
      "bom": 8400,
      "surviv": 8401,
      "platforms": 8402,
      "##enders": 8403,
      "occasionally": 8404,
      "##elihood": 8405,
      "reactions": 8406,
      "dispos": 8407,
      "jet": 8408,
      "adventure": 8409,
      "connecting": 8410,
      "bent": 8411,
      "fid": 8412,
      "headquar": 8413,
      "introduce": 8414,
      "emerging": 8415,
      "unexpected": 8416,
      "##osa": 8417,
      "transplant": 8418,
      "lowest": 8419,
      "influenced": 8420,
      "focusing": 8421,
      "observations": 8422,
      "treating": 8423,
      "appointment": 8424,
      "##88": 8425,
      "bacteria": 8426,
      "taxp": 8427,
      "sizes": 8428,
      "artificial": 8429,
      "boot": 8430,
      "neighb": 8431,
      "linc": 8432,
      "expense": 8433,
      "ross": 8434,
      "gig": 8435,
      "analyt": 8436,
      "convenient": 8437,
      "##utive": 8438,
      "savings": 8439,
      "jenn": 8440,
      "gree": 8441,
      "entre": 8442,
      "scatter": 8443,
      "gotten": 8444,
      "##hand": 8445,
      "swing": 8446,
      "hob": 8447,
      "barrier": 8448,
      "enemies": 8449,
      ".**": 8450,
      "abortion": 8451,
      "episodes": 8452,
      "infections": 8453,
      "precise": 8454,
      "pound": 8455,
      "conform": 8456,
      "fi": 8457,
      "revol": 8458,
      "virtually": 8459,
      "mutual": 8460,
      "attacked": 8461,
      "##ington": 8462,
      "prayer": 8463,
      "improper": 8464,
      "adher": 8465,
      "1000": 8466,
      "##vascular": 8467,
      "fert": 8468,
      "resolve": 8469,
      "allen": 8470,
      "partially": 8471,
      "puts": 8472,
      "cer": 8473,
      "critics": 8474,
      "matthew": 8475,
      "darkness": 8476,
      "vulnerable": 8477,
      "philipp": 8478,
      "contacts": 8479,
      "kelly": 8480,
      "knife": 8481,
      "bits": 8482,
      "gut": 8483,
      "competing": 8484,
      "])": 8485,
      "trumps": 8486,
      "minnesota": 8487,
      "##pie": 8488,
      "##zer": 8489,
      "gil": 8490,
      "##ois": 8491,
      "##wich": 8492,
      "pending": 8493,
      "lifetime": 8494,
      "likes": 8495,
      "generating": 8496,
      "gaming": 8497,
      "integrity": 8498,
      "complaints": 8499,
      "##tra": 8500,
      "bass": 8501,
      "##99": 8502,
      "embodiment": 8503,
      "microsc": 8504,
      "cookies": 8505,
      "abund": 8506,
      "imprison": 8507,
      "phenomenon": 8508,
      "##lu": 8509,
      "jordan": 8510,
      "alab": 8511,
      "##irus": 8512,
      "eggs": 8513,
      "##rooms": 8514,
      "consequence": 8515,
      "##uate": 8516,
      "pregnant": 8517,
      "recruit": 8518,
      "quoting": 8519,
      "titles": 8520,
      "hart": 8521,
      "advertisement": 8522,
      "140": 8523,
      "();": 8524,
      "backed": 8525,
      "firms": 8526,
      "acted": 8527,
      "wins": 8528,
      "cheese": 8529,
      "lawsuit": 8530,
      "##atal": 8531,
      "legitimate": 8532,
      "stom": 8533,
      "diamond": 8534,
      "collaboration": 8535,
      "##achel": 8536,
      "obligation": 8537,
      "merg": 8538,
      "objection": 8539,
      "unemploy": 8540,
      "loaded": 8541,
      "engineer": 8542,
      "attempting": 8543,
      "mud": 8544,
      "classical": 8545,
      "impressive": 8546,
      "utter": 8547,
      "infected": 8548,
      "##ptic": 8549,
      "##zzle": 8550,
      "pir": 8551,
      "outs": 8552,
      "##dp": 8553,
      "variations": 8554,
      "indiana": 8555,
      "cooling": 8556,
      "spo": 8557,
      "chin": 8558,
      "incent": 8559,
      "_m": 8560,
      "fantastic": 8561,
      "##rics": 8562,
      "##gy": 8563,
      "unnecess": 8564,
      "oreg": 8565,
      "funded": 8566,
      "kansas": 8567,
      "ultra": 8568,
      "##ouri": 8569,
      "##aimed": 8570,
      "##lessly": 8571,
      "vaccine": 8572,
      "facilitate": 8573,
      "capabilities": 8574,
      "physically": 8575,
      "asks": 8576,
      "##no": 8577,
      "pdf": 8578,
      "theories": 8579,
      "tonight": 8580,
      "joining": 8581,
      "pleased": 8582,
      "resolved": 8583,
      "##vance": 8584,
      "##eff": 8585,
      "acquisition": 8586,
      "kevin": 8587,
      "atlantic": 8588,
      "1968": 8589,
      "##unct": 8590,
      "##enz": 8591,
      "computing": 8592,
      "encouraged": 8593,
      "penet": 8594,
      "##iox": 8595,
      "sheriff": 8596,
      "christians": 8597,
      "vic": 8598,
      "expertise": 8599,
      "studying": 8600,
      "arrive": 8601,
      "han": 8602,
      "claiming": 8603,
      "##berry": 8604,
      "hollywood": 8605,
      "scand": 8606,
      "##wan": 8607,
      "aggressive": 8608,
      "108": 8609,
      "occupied": 8610,
      "anton": 8611,
      "##prene": 8612,
      "sovere": 8613,
      "admir": 8614,
      "warned": 8615,
      "caps": 8616,
      "chances": 8617,
      "essay": 8618,
      "brilliant": 8619,
      "indirect": 8620,
      "heritage": 8621,
      "jacob": 8622,
      "##apers": 8623,
      "calend": 8624,
      "physics": 8625,
      "approached": 8626,
      "harass": 8627,
      "landing": 8628,
      "engines": 8629,
      "rescue": 8630,
      "suspected": 8631,
      "hired": 8632,
      "merit": 8633,
      "##vi": 8634,
      "readily": 8635,
      "##eries": 8636,
      "posit": 8637,
      "##bles": 8638,
      "hunt": 8639,
      "tear": 8640,
      "lessons": 8641,
      "extraordinary": 8642,
      "acknowledge": 8643,
      "completion": 8644,
      "centuries": 8645,
      "horror": 8646,
      "1971": 8647,
      "nurse": 8648,
      "7th": 8649,
      "fitness": 8650,
      "reliability": 8651,
      "duke": 8652,
      "107": 8653,
      "associate": 8654,
      "thereafter": 8655,
      "##fit": 8656,
      "carcin": 8657,
      "stretch": 8658,
      "hits": 8659,
      "retain": 8660,
      "publications": 8661,
      "160": 8662,
      "boards": 8663,
      "suppress": 8664,
      "woods": 8665,
      "consistently": 8666,
      "everyday": 8667,
      "turb": 8668,
      "profits": 8669,
      "vend": 8670,
      "transformation": 8671,
      "copper": 8672,
      "subd": 8673,
      "sheets": 8674,
      "residential": 8675,
      "wisdom": 8676,
      "railroad": 8677,
      "spatial": 8678,
      "hypert": 8679,
      "cooperation": 8680,
      "_________________": 8681,
      "hydrogen": 8682,
      "odds": 8683,
      "cabinet": 8684,
      "wrest": 8685,
      "3rd": 8686,
      "myster": 8687,
      "crick": 8688,
      "entreprene": 8689,
      "##lad": 8690,
      "wisc": 8691,
      "distinguish": 8692,
      "roots": 8693,
      "districts": 8694,
      "downtown": 8695,
      "striking": 8696,
      "##onn": 8697,
      "dies": 8698,
      "fraction": 8699,
      "##cm": 8700,
      "confer": 8701,
      "intake": 8702,
      "insulin": 8703,
      "strang": 8704,
      "accomplish": 8705,
      "bran": 8706,
      "preventing": 8707,
      "##ounced": 8708,
      "thrown": 8709,
      "kong": 8710,
      "##gent": 8711,
      "conservation": 8712,
      "##isons": 8713,
      "bands": 8714,
      "##ener": 8715,
      "inhab": 8716,
      "deemed": 8717,
      "blade": 8718,
      "##imp": 8719,
      "oregon": 8720,
      "hoped": 8721,
      "emissions": 8722,
      "peripheral": 8723,
      "fifteen": 8724,
      "gradually": 8725,
      "fishing": 8726,
      "timely": 8727,
      "cultiv": 8728,
      "screw": 8729,
      "smiled": 8730,
      "prisoners": 8731,
      "##ilation": 8732,
      "lincoln": 8733,
      "shes": 8734,
      "loose": 8735,
      "viewing": 8736,
      "certified": 8737,
      "creek": 8738,
      "##apor": 8739,
      "equity": 8740,
      "heading": 8741,
      "phones": 8742,
      "females": 8743,
      "##vas": 8744,
      "pale": 8745,
      "inflammatory": 8746,
      "wage": 8747,
      "advised": 8748,
      "riding": 8749,
      "lifestyle": 8750,
      "bry": 8751,
      "turk": 8752,
      "##rous": 8753,
      "interval": 8754,
      "dall": 8755,
      "##leton": 8756,
      "singer": 8757,
      "acceptance": 8758,
      "produces": 8759,
      "complement": 8760,
      "##makers": 8761,
      "reception": 8762,
      "curve": 8763,
      "escap": 8764,
      "##ev": 8765,
      "sequences": 8766,
      "chocolate": 8767,
      "hong": 8768,
      "dimensions": 8769,
      "establishing": 8770,
      "outstanding": 8771,
      "restricted": 8772,
      "trop": 8773,
      "likewise": 8774,
      "rug": 8775,
      "ranging": 8776,
      "##cling": 8777,
      "tony": 8778,
      "contra": 8779,
      "restaurants": 8780,
      "veterans": 8781,
      "dying": 8782,
      "bears": 8783,
      "lor": 8784,
      "##ighters": 8785,
      "distinction": 8786,
      "lighting": 8787,
      "happiness": 8788,
      "##hire": 8789,
      "tennes": 8790,
      "tract": 8791,
      "ai": 8792,
      "humanity": 8793,
      "wiscons": 8794,
      "hopefully": 8795,
      "coating": 8796,
      "checked": 8797,
      "kit": 8798,
      "disposed": 8799,
      "##aws": 8800,
      "ij": 8801,
      "kg": 8802,
      "stol": 8803,
      "##rical": 8804,
      "agenda": 8805,
      "memorial": 8806,
      "contam": 8807,
      "spray": 8808,
      "proc": 8809,
      "ups": 8810,
      "recre": 8811,
      "##acco": 8812,
      "ov": 8813,
      "enabled": 8814,
      "synthesis": 8815,
      "officially": 8816,
      "##67": 8817,
      "##cel": 8818,
      "##anth": 8819,
      "probe": 8820,
      "accomplished": 8821,
      "processor": 8822,
      "brig": 8823,
      "bishop": 8824,
      "kenned": 8825,
      "reversed": 8826,
      "liber": 8827,
      "##orse": 8828,
      "yog": 8829,
      "##eenth": 8830,
      "exit": 8831,
      "##ela": 8832,
      "namely": 8833,
      "upcoming": 8834,
      "environments": 8835,
      "1967": 8836,
      "ot": 8837,
      "shed": 8838,
      "manufacturers": 8839,
      "intermediate": 8840,
      "signature": 8841,
      "passenger": 8842,
      "cluster": 8843,
      "indict": 8844,
      "pitt": 8845,
      "##lar": 8846,
      "alabama": 8847,
      "seeks": 8848,
      "honey": 8849,
      "quoted": 8850,
      "lease": 8851,
      "palace": 8852,
      "toy": 8853,
      "resistant": 8854,
      "migration": 8855,
      "sarah": 8856,
      "##rose": 8857,
      "######": 8858,
      "invasion": 8859,
      "veteran": 8860,
      "coalition": 8861,
      "##uild": 8862,
      "wides": 8863,
      "##rett": 8864,
      "converted": 8865,
      "pled": 8866,
      "barg": 8867,
      "agreements": 8868,
      "##xy": 8869,
      "assignment": 8870,
      "dramatic": 8871,
      "ug": 8872,
      "##war": 8873,
      "birthday": 8874,
      "pursue": 8875,
      "agriculture": 8876,
      "jar": 8877,
      "nodes": 8878,
      "##olly": 8879,
      "confusion": 8880,
      "hud": 8881,
      "rendered": 8882,
      "bonds": 8883,
      "stomach": 8884,
      "rick": 8885,
      "vag": 8886,
      "filling": 8887,
      "ku": 8888,
      "nights": 8889,
      "surrounded": 8890,
      "prospective": 8891,
      "enormous": 8892,
      "pt": 8893,
      "jane": 8894,
      "1969": 8895,
      "resort": 8896,
      "##iley": 8897,
      "engaging": 8898,
      "suspended": 8899,
      "mans": 8900,
      "beings": 8901,
      "cameras": 8902,
      "voices": 8903,
      "tie": 8904,
      "threw": 8905,
      "remarkable": 8906,
      "diver": 8907,
      "emper": 8908,
      "pixel": 8909,
      "equipped": 8910,
      "underw": 8911,
      "wisconsin": 8912,
      "poison": 8913,
      "ancest": 8914,
      "![": 8915,
      "##gm": 8916,
      "rivers": 8917,
      "##lick": 8918,
      "reuters": 8919,
      "lovely": 8920,
      "howard": 8921,
      "##acks": 8922,
      "craw": 8923,
      "hockey": 8924,
      "muslims": 8925,
      "buried": 8926,
      "relie": 8927,
      "activated": 8928,
      "attractive": 8929,
      "stabil": 8930,
      "declaration": 8931,
      "agricultural": 8932,
      "si": 8933,
      "saudi": 8934,
      "##cence": 8935,
      "dynamics": 8936,
      "py": 8937,
      "affordable": 8938,
      "getty": 8939,
      "convert": 8940,
      "shame": 8941,
      "aids": 8942,
      "vessels": 8943,
      "featuring": 8944,
      "adjustment": 8945,
      "dent": 8946,
      "synchron": 8947,
      "signing": 8948,
      "elite": 8949,
      "orientation": 8950,
      "theater": 8951,
      "shook": 8952,
      "=================": 8953,
      "traveling": 8954,
      "tissues": 8955,
      "##mony": 8956,
      "veloc": 8957,
      "wales": 8958,
      "##ira": 8959,
      "extending": 8960,
      "announcement": 8961,
      "maryland": 8962,
      "##heim": 8963,
      "cannab": 8964,
      "_d": 8965,
      "##awa": 8966,
      "excluded": 8967,
      "probable": 8968,
      "ale": 8969,
      "economics": 8970,
      "##ilst": 8971,
      "##aved": 8972,
      ".).": 8973,
      "supervis": 8974,
      "termination": 8975,
      "checks": 8976,
      "automob": 8977,
      "protecting": 8978,
      "##phones": 8979,
      "conqu": 8980,
      "discipl": 8981,
      "promoting": 8982,
      "beneficial": 8983,
      "cyber": 8984,
      "##pread": 8985,
      "engineers": 8986,
      "blast": 8987,
      "quantum": 8988,
      "optimal": 8989,
      "choosing": 8990,
      "resin": 8991,
      "brut": 8992,
      "##ifice": 8993,
      "##bow": 8994,
      "_c": 8995,
      "serial": 8996,
      "##chain": 8997,
      "eliminate": 8998,
      "sect": 8999,
      "echo": 9000,
      "partly": 9001,
      "sink": 9002,
      "##acles": 9003,
      "constitu": 9004,
      "##41": 9005,
      "illum": 9006,
      "rape": 9007,
      "elderly": 9008,
      "utilized": 9009,
      "legacy": 9010,
      "nodded": 9011,
      "courage": 9012,
      "tennessee": 9013,
      "sant": 9014,
      "##text": 9015,
      "cultures": 9016,
      "documentation": 9017,
      "logical": 9018,
      "hire": 9019,
      "eag": 9020,
      "vitro": 9021,
      ".),": 9022,
      "forgotten": 9023,
      "ignore": 9024,
      "meaningful": 9025,
      "robust": 9026,
      "alumin": 9027,
      "negligence": 9028,
      "clerk": 9029,
      "mck": 9030,
      "##olar": 9031,
      "ibid": 9032,
      "cardio": 9033,
      "clay": 9034,
      "widespread": 9035,
      "comic": 9036,
      "operational": 9037,
      "corruption": 9038,
      "dimin": 9039,
      "missouri": 9040,
      "berlin": 9041,
      "##away": 9042,
      "comedy": 9043,
      "elevated": 9044,
      "motions": 9045,
      "dump": 9046,
      "reflection": 9047,
      "##ucky": 9048,
      "dated": 9049,
      "pressed": 9050,
      "##roc": 9051,
      "challenged": 9052,
      "pref": 9053,
      "bloom": 9054,
      "##tim": 9055,
      "hanging": 9056,
      "mall": 9057,
      "acknowledged": 9058,
      "simon": 9059,
      "parks": 9060,
      "communist": 9061,
      "##ped": 9062,
      "109": 9063,
      "vacu": 9064,
      "races": 9065,
      "satellite": 9066,
      "stere": 9067,
      "sail": 9068,
      "liv": 9069,
      "ltd": 9070,
      "trauma": 9071,
      "navig": 9072,
      "mexican": 9073,
      "asset": 9074,
      "soldier": 9075,
      "arbitr": 9076,
      "rival": 9077,
      "affects": 9078,
      "waited": 9079,
      "##backs": 9080,
      "distant": 9081,
      "reveals": 9082,
      "limitation": 9083,
[...]
